<unk>	0
<s>	1
</s>	2
▁,	3
▁的	4
▁我	5
▁不	6
▁了	7
▁是	8
▁一	9
▁你	10
▁有	11
▁?	12
▁这	13
▁好	14
▁就	15
▁没	16
▁个	17
▁还	18
▁都	19
▁大	20
▁看	21
▁吗	22
▁啊	23
▁可	24
▁也	25
▁人	26
▁在	27
▁那	28
▁要	29
▁说	30
▁吧	31
什么	32
▁多	33
▁来	34
▁想	35
▁1	36
▁下	37
▁上	38
▁!	39
▁小	40
▁什么	41
▁去	42
▁学	43
▁可以	44
▁会	45
▁到	46
▁怎	47
▁出	48
▁很	49
▁过	50
▁怎么	51
▁真	52
▁能	53
▁他	54
▁自	55
▁点	56
▁2	57
▁和	58
▁对	59
▁知	60
▁给	61
▁只	62
▁用	63
▁哪	64
▁最	65
▁老	66
▁开	67
▁时	68
▁天	69
▁买	70
▁知道	71
▁现	72
▁这个	73
▁打	74
▁太	75
▁求	76
▁呢	77
▁么	78
▁发	79
▁没有	80
▁回	81
▁问	82
▁还是	83
▁高	84
▁喜	85
▁感	86
▁现在	87
▁吃	88
▁几	89
▁女	90
▁得	91
▁起	92
▁比	93
▁喜欢	94
▁找	95
▁为	96
▁新	97
▁三	98
▁不是	99
▁你们	100
▁自己	101
▁玩	102
▁做	103
▁手	104
▁3	105
▁两	106
▁今	107
▁别	108
▁分	109
▁样	110
▁被	111
▁男	112
▁长	113
▁以	114
▁第	115
▁快	116
▁谁	117
▁年	118
▁中	119
▁电	120
▁里	121
▁无	122
▁如	123
▁二	124
▁又	125
▁我们	126
▁5	127
▁楼	128
▁家	129
▁才	130
▁着	131
▁把	132
▁加	133
▁这么	134
▁哈	135
▁成	136
▁后	137
▁但	138
▁觉	139
▁感觉	140
▁图	141
▁月	142
▁心	143
▁再	144
▁爱	145
▁生	146
▁4	147
▁时候	148
▁话	149
▁本	150
▁钱	151
▁进	152
▁明	153
▁同	154
▁朋	155
▁前	156
▁朋友	157
▁还有	158
▁地	159
▁等	160
00	161
▁觉得	162
▁带	163
▁事	164
▁十	165
▁已	166
▁错	167
▁跟	168
▁也是	169
▁让	170
▁更	171
▁之	172
▁多少	173
▁这样	174
▁美	175
▁啥	176
▁她	177
▁今天	178
▁水	179
▁当	180
▁完	181
▁请	182
▁考	183
▁关	184
▁全	185
▁行	186
▁刚	187
▁呀	188
▁应	189
▁啦	190
▁放	191
▁6	192
▁工	193
▁号	194
▁看看	195
▁难	196
▁黑	197
▁处	198
▁嘛	199
▁主	200
▁换	201
▁哦	202
▁所	203
▁9	204
▁听	205
▁出来	206
▁车	207
▁其	208
▁大家	209
▁谢	210
▁东	211
▁然	212
▁应该	213
▁四	214
▁早	215
▁那个	216
▁晚	217
▁帮	218
▁收	219
▁张	220
▁已经	221
▁正	222
▁死	223
▁认	224
▁学校	225
▁次	226
▁问题	227
▁就是	228
▁直	229
▁睡	230
▁8	231
▁网	232
▁卖	233
▁重	234
▁白	235
▁们	236
▁单	237
▁.	238
▁专	239
▁照	240
▁:	241
▁头	242
▁差	243
▁为什么	244
▁哈哈	245
▁妹	246
▁叫	247
▁办	248
▁公	249
▁干	250
▁机	251
▁而	252
▁五	253
▁不过	254
▁谢谢	255
▁眼	256
▁意	257
▁但是	258
▁安	259
▁因	260
▁那么	261
▁卡	262
▁每	263
▁看到	264
▁原	265
▁如果	266
▁哥	267
▁实	268
▁花	269
▁哪里	270
▁算	271
▁少	272
▁挺	273
▁从	274
▁结	275
▁路	276
▁7	277
▁表	278
▁见	279
▁可能	280
▁因为	281
▁各	282
▁狗	283
▁日	284
▁嗯	285
▁教	286
▁相	287
▁报	288
▁文	289
▁手机	290
▁价	291
▁特	292
▁送	293
▁名	294
▁大神	295
▁国	296
▁身	297
▁先	298
▁拿	299
▁不要	300
▁时间	301
▁、	302
▁反	303
▁外	304
▁交	305
▁试	306
▁毕	307
▁百	308
▁游	309
▁需	310
▁万	311
▁包	312
▁红	313
▁记	314
▁好像	315
▁超	316
▁对象	317
▁情	318
▁10	319
▁半	320
▁儿	321
▁不会	322
▁理	323
▁懂	324
▁阿	325
▁经	326
▁金	327
▁爆	328
▁20	329
▁告	330
▁需要	331
▁宝	332
▁清	333
▁准	334
▁不能	335
▁0	336
▁所以	337
▁一直	338
▁周	339
▁只是	340
▁或	341
▁内	342
▁总	343
▁信	344
▁帅	345
▁动	346
▁像	347
▁推	348
▁好看	349
▁面	350
▁解	351
▁哪个	352
▁然后	353
▁怕	354
▁姐	355
▁块	356
▁选	357
▁聊	358
▁接	359
▁神	360
▁拍	361
▁东西	362
▁起来	363
▁越	364
▁马	365
▁开始	366
▁平	367
▁变	368
▁明天	369
▁写	370
▁提	371
▁确	372
▁连	373
▁合	374
▁希	375
▁级	376
▁入	377
▁专业	378
▁比较	379
▁学姐	380
▁其实	381
▁贴	382
▁版	383
▁班	384
▁游戏	385
▁作	386
▁双	387
▁走	388
▁住	389
▁敢	390
▁保	391
▁贵	392
▁这种	393
▁南	394
▁认识	395
▁方	396
▁联	397
▁活	398
▁够	399
▁火	400
▁强	401
▁西	402
▁转	403
▁球	404
▁希望	405
▁王	406
▁只有	407
▁跑	408
▁改	409
▁低	410
▁妹子	411
▁他们	412
▁系	413
▁很多	414
▁留	415
▁以后	416
▁喝	417
▁脸	418
▁配	419
▁萌	420
▁北	421
▁孩	422
▁穿	423
▁工作	424
▁直接	425
▁告诉	426
▁晚上	427
▁装	428
▁15	429
▁体	430
▁空	431
▁这里	432
▁咋	433
▁12	434
▁校	435
▁拉	436
▁节	437
▁区	438
▁八	439
▁部	440
▁意思	441
▁别人	442
▁养	443
▁孩子	444
▁昨	445
▁亲	446
▁粉	447
▁搞	448
▁刷	449
▁肯	450
▁六	451
▁该	452
▁店	453
▁左	454
▁回来	455
▁通	456
▁随	457
▁套	458
▁黄	459
▁风	460
▁假	461
▁歌	462
▁就好	463
▁可是	464
▁必	465
▁师	466
▁星	467
▁山	468
▁服	469
▁条	470
▁广	471
▁木	472
▁海	473
▁基	474
▁准备	475
▁种	476
▁热	477
▁性	478
▁毛	479
▁子	480
▁好多	481
▁最近	482
▁或者	483
▁地方	484
▁字	485
▁数	486
▁进来	487
▁发现	488
▁肯定	489
▁英	490
▁指	491
▁深	492
▁c	493
▁以前	494
▁请问	495
▁书	496
▁初	497
▁七	498
▁一定	499
▁最后	500
▁终	501
▁洗	502
▁科	503
▁代	504
▁世	505
▁建	506
▁些	507
▁千	508
▁战	509
▁估	510
▁推荐	511
▁笑	512
▁约	513
▁补	514
▁非	515
▁老师	516
▁只能	517
▁16	518
▁一般	519
▁线	520
▁米	521
▁医	522
▁位	523
▁p	524
▁大学	525
▁今年	526
▁坑	527
▁口	528
▁房	529
▁便	530
▁画	531
▁哎	532
▁证	533
▁坐	534
▁它	535
▁排	536
▁管	537
▁s	538
▁可爱	539
▁首	540
▁简	541
▁估计	542
▁其他	543
▁支	544
▁定	545
▁岁	546
▁18	547
▁剧	548
▁冷	549
▁场	550
▁整	551
▁元	552
▁照片	553
▁11	554
▁光	555
▁b	556
▁哒	557
▁各位	558
▁唱	559
▁微	560
▁而且	561
▁流	562
▁毕竟	563
▁飞	564
▁掉	565
▁离	566
▁弄	567
▁期	568
▁名字	569
▁个人	570
▁麻	571
▁昨天	572
▁反正	573
▁m	574
▁猜	575
▁队	576
▁青	577
▁伤	578
▁呵	579
▁价格	580
▁组	581
▁道	582
▁加油	583
▁毕业	584
▁台	585
▁妈	586
▁镇	587
▁-	588
▁听说	589
▁慢	590
▁破	591
▁绝	592
▁除	593
▁城	594
▁以为	595
▁女生	596
▁目	597
▁鸡	598
▁群	599
▁i	600
▁记得	601
▁票	602
▁注	603
▁哭	604
▁武	605
▁九	606
▁顺	607
▁失	608
▁牛	609
▁精	610
▁逼	611
▁容	612
▁门	613
▁宿	614
▁丑	615
▁弟	616
▁17	617
▁值	618
▁资	619
▁复	620
▁骗	621
▁皮	622
▁气	623
▁预	624
▁新生	625
▁修	626
▁想要	627
▁终于	628
▁忘	629
▁退	630
▁呵呵	631
▁衣	632
▁回家	633
▁显	634
▁过来	635
▁远	636
▁厉	637
▁倒	638
▁人家	639
▁站	640
▁漂	641
▁军	642
▁左右	643
▁便宜	644
▁欢	645
▁特别	646
▁传	647
▁厉害	648
▁招	649
▁呗	650
▁龙	651
▁只要	652
▁一点	653
▁一年	654
▁咯	655
▁技	656
▁Q	657
▁挂	658
▁陪	659
▁同学	660
▁抽	661
▁与	662
▁兄	663
▁运	664
▁靠	665
▁调	666
▁消	667
▁虽	668
▁这些	669
▁无聊	670
▁土	671
▁读	672
▁蓝	673
▁声	674
▁果	675
▁里面	676
▁祝	677
▁遇	678
▁每天	679
▁视	680
▁删	681
▁学生	682
▁你好	683
▁居	684
▁法	685
▁升	686
▁说说	687
▁伙	688
▁突	689
▁世界	690
▁集	691
▁还在	692
▁开心	693
▁受	694
▁宿舍	695
▁介	696
▁快乐	697
▁w	698
▁短	699
▁优	700
▁愿	701
▁关系	702
▁电话	703
▁哇	704
▁市	705
▁胖	706
▁回复	707
▁根	708
▁哥哥	709
▁电脑	710
▁确实	711
▁抢	712
▁新人	713
▁签	714
▁商	715
▁任	716
▁华	717
▁录	718
▁顶	719
▁江	720
▁讲	721
▁漂亮	722
▁度	723
▁福	724
▁虽然	725
▁13	726
▁抱	727
▁并	728
▁急	729
▁查	730
▁俩	731
▁那种	732
▁官	733
▁品	734
▁难道	735
▁标	736
▁容易	737
▁出去	738
▁款	739
▁梦	740
▁软	741
▁也有	742
▁小时	743
▁30	744
▁背	745
▁货	746
▁怪	747
▁演	748
▁天天	749
▁友	750
▁a	751
▁翻	752
▁伙伴	753
▁情况	754
▁更新	755
▁201	756
▁恩	757
▁下来	758
▁还要	759
▁累	760
▁14	761
▁正常	762
▁继	763
▁一句	764
▁未	765
▁找到	766
▁兄弟	767
▁语	768
▁追	769
▁鬼	770
▁设	771
▁联系	772
▁猫	773
▁如何	774
▁赶	775
▁不行	776
▁生活	777
▁d	778
▁适	779
▁输	780
▁到底	781
▁段	782
▁饭	783
▁谈	784
▁A	785
▁投	786
▁至	787
▁练	788
▁电影	789
▁客	790
▁原来	791
▁咱	792
▁帮忙	793
▁吹	794
▁故	795
▁居然	796
▁还能	797
▁音	798
▁额	799
▁喷	800
▁秒	801
▁课	802
▁太多	803
▁衣服	804
▁t	805
▁香	806
▁为了	807
▁温	808
▁欢迎	809
▁压	810
▁还好	811
▁表示	812
▁好久	813
▁河	814
▁免	815
▁干嘛	816
▁讨	817
▁睡觉	818
▁片	819
▁淘	820
▁领	821
▁看着	822
▁夜	823
▁一些	824
▁费	825
▁鱼	826
▁评	827
▁圈	828
▁100	829
▁酒	830
▁继续	831
▁化	832
▁何	833
▁说话	834
▁图片	835
▁颜	836
▁下午	837
▁结果	838
▁那些	839
▁省	840
▁稳	841
▁停	842
▁按	843
▁力	844
▁李	845
▁很好	846
▁看见	847
▁各种	848
▁基本	849
▁学妹	850
▁坏	851
▁奇	852
▁除了	853
▁影	854
▁器	855
▁而已	856
▁绿	857
▁恋	858
▁奶	859
▁巴	860
▁刚刚	861
▁样子	862
▁本人	863
▁普	864
▁辣	865
▁社	866
▁吓	867
▁鞋	868
▁屏	869
▁久	870
▁百度	871
▁幸	872
▁唉	873
▁团	874
▁l	875
▁上班	876
▁直播	877
▁晒	878
▁大概	879
▁暖	880
▁话说	881
▁件	882
▁赛	883
▁男生	884
▁美女	885
▁病	886
▁混	887
▁突然	888
▁为啥	889
▁肉	890
▁速	891
▁主要	892
▁早上	893
▁汉	894
▁本来	895
▁银	896
▁T	897
▁聊天	898
▁某	899
▁o	900
▁减	901
▁魔	902
▁永	903
▁支持	904
▁句	905
▁充	906
▁跳	907
▁之后	908
▁真心	909
▁宝宝	910
▁问问	911
▁药	912
▁了解	913
▁头像	914
▁办法	915
▁C	916
▁类	917
▁熟	918
▁物	919
▁50	920
▁生日	921
▁骂	922
▁分钟	923
▁血	924
▁随便	925
▁刀	926
▁瘦	927
▁男人	928
▁苏	929
▁纯	930
▁缺	931
▁近	932
▁要求	933
▁然而	934
▁丢	935
▁棒	936
▁那里	937
▁硬	938
▁乐	939
▁大佬	940
▁开学	941
▁石	942
▁过去	943
▁参	944
▁老哥	945
50	946
▁必须	947
▁油	948
▁偶	949
▁19	950
▁却	951
▁赞	952
▁渣	953
▁乱	954
▁铁	955
▁坚	956
▁结婚	957
▁借	958
▁湖	959
▁当然	960
▁古	961
▁学习	962
▁存	963
▁恶	964
▁爸	965
▁秀	966
▁云	967
▁欧	968
▁怀	969
▁一只	970
▁附	971
▁建议	972
▁才能	973
▁单身	974
▁北京	975
▁打算	976
▁注意	977
▁骑	978
▁g	979
▁夏	980
▁室	981
▁模	982
▁可惜	983
▁党	984
▁清楚	985
▁德	986
▁下去	987
▁院	988
▁B	989
▁努	990
▁断	991
▁效	992
▁考试	993
▁激	994
▁系统	995
▁就要	996
▁礼	997
▁弱	998
▁边	999
▁视频	1000
▁淘宝	1001
▁迷	1002
▁傻	1003
▁见过	1004
▁莫	1005
▁泡	1006
▁姐姐	1007
▁v	1008
▁学院	1009
▁笔	1010
▁适合	1011
▁n	1012
▁撸	1013
▁嗯嗯	1014
▁关注	1015
▁重要	1016
▁后面	1017
▁冲	1018
▁封	1019
▁马上	1020
▁介绍	1021
▁吃饭	1022
▁回去	1023
▁造	1024
▁P	1025
▁努力	1026
▁您	1027
▁印	1028
▁竟	1029
▁遇到	1030
▁所有	1031
▁怎样	1032
▁智	1033
▁脑	1034
▁韩	1035
▁去年	1036
▁决	1037
▁微博	1038
▁食	1039
▁严	1040
▁腿	1041
▁轻	1042
▁眼熟	1043
▁多久	1044
▁脚	1045
▁好吃	1046
▁计	1047
▁选择	1048
▁赢	1049
▁貌	1050
▁两天	1051
▁求助	1052
▁抓	1053
▁哟	1054
▁素	1055
▁烦	1056
▁经验	1057
▁考虑	1058
▁故事	1059
▁于	1060
▁控	1061
▁机会	1062
苹果	1063
▁往	1064
▁此	1065
▁摸	1066
▁h	1067
▁答	1068
▁刘	1069
▁公司	1070
▁嘿	1071
▁醉	1072
▁简单	1073
▁另	1074
▁貌似	1075
▁确定	1076
▁25	1077
▁味	1078
▁取	1079
▁M	1080
▁耳	1081
▁女神	1082
▁忍	1083
▁菜	1084
▁相信	1085
▁录取	1086
▁e	1087
▁免费	1088
▁冰	1089
▁绝对	1090
▁盘	1091
▁工资	1092
▁浪	1093
▁角	1094
▁医院	1095
▁春	1096
▁扣	1097
▁路过	1098
▁者	1099
▁兴	1100
▁晚安	1101
▁职	1102
▁愿意	1103
▁足	1104
▁心情	1105
▁痛	1106
▁属	1107
▁垃	1108
▁雷	1109
▁牌	1110
▁完全	1111
▁苹果	1112
▁命	1113
▁码	1114
▁垃圾	1115
▁满	1116
▁身高	1117
▁事情	1118
▁挺好	1119
▁S	1120
▁慢慢	1121
▁互	1122
▁女人	1123
▁拆	1124
▁心里	1125
▁草	1126
▁将	1127
▁麻烦	1128
▁上海	1129
▁L	1130
▁效果	1131
▁就算	1132
▁星期	1133
▁座	1134
▁害	1135
▁出现	1136
▁今晚	1137
▁竟然	1138
▁声音	1139
▁健	1140
▁陈	1141
▁进去	1142
▁私	1143
▁雪	1144
▁斤	1145
▁技术	1146
▁老婆	1147
▁爽	1148
▁一次	1149
▁奥	1150
▁漫	1151
▁护	1152
▁大一	1153
▁罗	1154
▁防	1155
▁待	1156
▁200	1157
▁零	1158
▁小姐	1159
▁举	1160
▁攻	1161
▁赚	1162
▁每次	1163
▁届	1164
▁向	1165
▁合适	1166
▁k	1167
▁猪	1168
▁活动	1169
▁多大	1170
▁分享	1171
▁姑	1172
▁电视	1173
▁操	1174
▁认真	1175
▁偷	1176
▁目前	1177
▁网上	1178
▁利	1179
▁俺	1180
▁高中	1181
▁经常	1182
▁想到	1183
▁眼睛	1184
▁x	1185
▁根本	1186
▁在家	1187
▁蛋	1188
▁G	1189
▁惹	1190
▁疼	1191
▁吐	1192
▁搜	1193
in	1194
▁环	1195
▁尽	1196
▁喂	1197
▁嘴	1198
▁旅	1199
▁具	1200
▁截	1201
▁放假	1202
▁高三	1203
▁闲	1204
▁降	1205
▁观	1206
▁治	1207
▁思	1208
▁分手	1209
▁奔	1210
▁以上	1211
▁格	1212
▁仙	1213
▁就会	1214
▁皇	1215
▁一起	1216
▁军训	1217
▁苦	1218
▁瞎	1219
▁凉	1220
▁习	1221
▁题	1222
▁r	1223
▁论	1224
▁这次	1225
▁都会	1226
▁成功	1227
▁烟	1228
▁常	1229
▁好想	1230
▁休	1231
▁农	1232
▁吊	1233
▁好听	1234
▁蛮	1235
▁高一	1236
▁挑	1237
▁吉	1238
▁亚	1239
▁共	1240
▁23	1241
▁不管	1242
▁舒	1243
▁纸	1244
▁疯	1245
▁剑	1246
▁色	1247
▁屌	1248
▁软件	1249
▁克	1250
▁独	1251
▁关于	1252
▁幸福	1253
▁散	1254
▁极	1255
▁细	1256
▁胡	1257
▁员	1258
▁恋爱	1259
▁季	1260
▁升级	1261
▁插	1262
▁阳	1263
▁使	1264
▁剪	1265
▁厂	1266
▁炸	1267
▁英语	1268
▁冬	1269
▁这边	1270
▁虐	1271
▁实在	1272
▁测	1273
▁杨	1274
▁头发	1275
▁鉴	1276
▁司	1277
▁申	1278
▁老公	1279
▁期待	1280
▁就能	1281
▁街	1282
▁坚持	1283
▁轮	1284
▁忙	1285
▁上面	1286
▁包邮	1287
▁局	1288
▁罩	1289
▁下面	1290
▁脱	1291
▁盆	1292
▁孤	1293
▁亮	1294
▁林	1295
▁每个	1296
▁邮	1297
▁床	1298
▁纠	1299
▁沙	1300
▁非常	1301
▁落	1302
▁老板	1303
▁搬	1304
▁高考	1305
▁毒	1306
▁卫	1307
▁暴	1308
▁甜	1309
▁质	1310
▁限	1311
▁40	1312
▁碰	1313
▁底	1314
▁曾	1315
▁救	1316
▁超级	1317
▁灵	1318
▁制	1319
▁妹妹	1320
▁当时	1321
▁24	1322
▁功	1323
▁寝	1324
▁21	1325
▁醒	1326
▁野	1327
▁豆	1328
▁隔	1329
▁即	1330
▁巨	1331
▁母	1332
▁小米	1333
▁戒	1334
▁废	1335
▁R	1336
▁舍	1337
▁好玩	1338
▁明明	1339
▁圣	1340
▁附近	1341
▁拼	1342
▁部分	1343
▁移	1344
▁男神	1345
▁记录	1346
▁搭	1347
▁切	1348
▁步	1349
▁导	1350
▁嫌	1351
▁穷	1352
▁哥们	1353
▁烧	1354
▁泰	1355
▁异	1356
▁讨厌	1357
▁杯	1358
▁产	1359
▁撒	1360
▁暗	1361
▁越来	1362
▁两年	1363
▁姑娘	1364
▁原因	1365
▁D	1366
▁通知	1367
▁嘿嘿	1368
▁聊聊	1369
▁房子	1370
▁雨	1371
▁具体	1372
▁小说	1373
▁习惯	1374
▁付	1375
▁惊	1376
▁叶	1377
▁麦	1378
▁饿	1379
▁唯	1380
▁简直	1381
▁逗	1382
▁瓶	1383
▁f	1384
▁后来	1385
▁儿子	1386
▁吸	1387
▁感谢	1388
▁关键	1389
▁报道	1390
▁娃	1391
好意	1392
▁赶紧	1393
▁据	1394
▁剩	1395
▁城市	1396
好意思	1397
▁不好意思	1398
▁接受	1399
▁紫	1400
▁盖	1401
▁羡	1402
▁明白	1403
▁露	1404
▁冒	1405
▁依	1406
▁在线	1407
▁日本	1408
▁影响	1409
▁嗨	1410
▁回事	1411
▁成都	1412
▁大哥	1413
▁22	1414
80	1415
▁QQ	1416
▁解决	1417
▁波	1418
▁比赛	1419
▁撩	1420
▁偏	1421
▁成绩	1422
▁恐	1423
▁全部	1424
▁右	1425
▁普通	1426
▁显示	1427
▁变成	1428
▁诶	1429
▁暑	1430
▁拜	1431
▁戏	1432
▁帅哥	1433
▁重庆	1434
▁租	1435
▁羡慕	1436
▁速度	1437
▁玉	1438
▁京	1439
▁驾	1440
▁校区	1441
不起	1442
▁滴	1443
▁折	1444
▁鉴定	1445
▁艾	1446
▁博	1447
▁立	1448
▁入手	1449
▁纠结	1450
▁报名	1451
▁山东	1452
▁噢	1453
▁明显	1454
▁上去	1455
▁紧	1456
▁板	1457
▁型	1458
▁临	1459
▁郑	1460
▁小心	1461
▁弹	1462
▁份	1463
▁那边	1464
▁认为	1465
▁身体	1466
▁默	1467
▁懒	1468
▁密	1469
▁闹	1470
▁布	1471
▁宠	1472
▁明年	1473
▁担	1474
▁V	1475
▁感情	1476
▁消息	1477
▁女孩	1478
▁上课	1479
▁300	1480
▁英雄	1481
▁人生	1482
▁跪	1483
▁登	1484
▁分数	1485
▁500	1486
▁占	1487
▁帝	1488
▁兼	1489
▁村	1490
▁透	1491
▁尾	1492
▁寻	1493
▁签到	1494
▁勇	1495
▁位置	1496
▁恶心	1497
▁研	1498
▁志	1499
▁下载	1500
▁文科	1501
▁资源	1502
▁年轻	1503
▁沉	1504
▁及	1505
▁茶	1506
▁配置	1507
▁冠	1508
▁姓	1509
60	1510
▁永远	1511
▁暑假	1512
▁奖	1513
▁lo	1514
▁灯	1515
▁下次	1516
▁结束	1517
▁广东	1518
▁一切	1519
▁捡	1520
▁艺	1521
▁戴	1522
▁寝室	1523
▁一会	1524
▁规	1525
▁顺便	1526
▁维	1527
▁粗	1528
▁涨	1529
▁助	1530
▁堆	1531
▁胸	1532
▁盒	1533
▁后悔	1534
▁闪	1535
▁回答	1536
▁形	1537
▁许	1538
▁理解	1539
▁快递	1540
▁国家	1541
▁塞	1542
▁缘	1543
▁旁	1544
▁爷	1545
▁踢	1546
an	1547
▁之前	1548
▁屏幕	1549
▁萌萌	1550
▁四川	1551
▁检	1552
▁60	1553
▁颜色	1554
▁唱歌	1555
▁鸟	1556
▁烂	1557
▁承	1558
▁解答	1559
▁正在	1560
▁婚	1561
▁阴	1562
▁刺	1563
▁水平	1564
▁卷	1565
▁皮肤	1566
▁达	1567
▁牙	1568
▁那样	1569
▁辈	1570
▁版本	1571
▁辛	1572
▁纹	1573
▁似	1574
▁威	1575
▁霸	1576
▁来自	1577
▁80	1578
▁齐	1579
▁半年	1580
▁富	1581
▁从来	1582
▁咩	1583
▁荣	1584
▁寄	1585
▁据说	1586
▁减肥	1587
▁运动	1588
▁表白	1589
▁还会	1590
▁摩	1591
▁说明	1592
▁斯	1593
▁管理	1594
▁广州	1595
▁勾	1596
▁民	1597
▁咬	1598
▁拒	1599
▁粉丝	1600
▁彩	1601
▁二手	1602
▁值得	1603
▁能力	1604
▁父	1605
▁至少	1606
▁果然	1607
▁闺	1608
▁灰	1609
▁状	1610
▁兴趣	1611
▁爱情	1612
▁过年	1613
▁方便	1614
▁窝	1615
▁呐	1616
▁舒服	1617
▁y	1618
▁播	1619
▁间	1620
▁叔	1621
▁媳	1622
▁安全	1623
▁困	1624
▁批	1625
▁财	1626
▁所谓	1627
▁亏	1628
▁箱	1629
▁媳妇	1630
▁理科	1631
▁惨	1632
os	1633
▁99	1634
▁印象	1635
▁编	1636
▁工程	1637
▁兔	1638
▁宁	1639
▁靠谱	1640
▁哪儿	1641
▁z	1642
▁节奏	1643
▁放弃	1644
▁方法	1645
▁年龄	1646
▁熊	1647
▁骚	1648
▁小白	1649
▁馆	1650
▁拖	1651
▁键	1652
▁还行	1653
▁中午	1654
▁存在	1655
▁医生	1656
▁想想	1657
▁营	1658
▁可怕	1659
▁设计	1660
▁决定	1661
▁炒	1662
▁外面	1663
▁耍	1664
▁动漫	1665
▁昨晚	1666
▁太阳	1667
▁钻	1668
▁填	1669
▁难受	1670
on	1671
▁q	1672
▁N	1673
te	1674
▁娘	1675
▁摆	1676
▁作为	1677
▁一天	1678
▁天气	1679
▁固	1680
▁羊	1681
▁肥	1682
▁评论	1683
▁阵	1684
▁小号	1685
▁呆	1686
▁严重	1687
▁历	1688
▁地址	1689
▁兰	1690
▁县	1691
▁静	1692
20	1693
▁心疼	1694
▁斗	1695
▁肚	1696
▁兵	1697
▁挖	1698
▁咱们	1699
▁处理	1700
▁很久	1701
▁骗子	1702
▁遍	1703
▁钓	1704
▁E	1705
▁创	1706
▁作业	1707
▁恭	1708
▁浙	1709
▁三年	1710
▁新手	1711
▁锁	1712
▁层	1713
▁28	1714
▁辈子	1715
▁90	1716
▁宣	1717
▁移动	1718
▁秋	1719
▁实力	1720
▁帖	1721
▁戳	1722
▁哪些	1723
▁酱	1724
▁勿	1725
▁大叔	1726
▁枪	1727
▁解释	1728
▁妹纸	1729
▁王者	1730
▁信息	1731
▁围	1732
▁实话	1733
▁重新	1734
▁为何	1735
▁晓	1736
▁舞	1737
▁区别	1738
▁园	1739
▁悲	1740
▁扒	1741
▁骨	1742
▁日子	1743
▁质量	1744
▁梅	1745
▁月份	1746
▁章	1747
▁射	1748
▁凑	1749
▁喊	1750
▁糖	1751
▁伤害	1752
▁君	1753
▁武汉	1754
▁下雨	1755
▁可怜	1756
▁酸	1757
▁小学	1758
▁火车	1759
▁宝贝	1760
▁老乡	1761
▁胜	1762
▁魅	1763
▁上次	1764
▁担心	1765
▁河南	1766
▁身边	1767
▁现实	1768
▁虚	1769
▁裤	1770
▁音乐	1771
▁忘记	1772
▁篮	1773
▁空调	1774
▁钢	1775
▁司机	1776
▁厚	1777
▁自动	1778
▁前面	1779
▁萝	1780
▁服务	1781
▁副	1782
▁显卡	1783
▁寒	1784
▁上学	1785
▁交流	1786
▁官网	1787
▁统	1788
▁W	1789
▁未来	1790
▁港	1791
▁当年	1792
▁碎	1793
▁树	1794
▁弟弟	1795
▁祝福	1796
▁耐	1797
▁任何	1798
▁证明	1799
▁可好	1800
▁猴	1801
▁必要	1802
▁全新	1803
▁O	1804
▁土豪	1805
▁35	1806
▁吴	1807
▁市场	1808
▁提前	1809
▁赵	1810
▁27	1811
▁既	1812
▁矮	1813
▁放心	1814
▁表情	1815
▁唐	1816
▁深圳	1817
▁兼职	1818
▁嫁	1819
▁标题	1820
▁磨	1821
▁旁边	1822
▁休息	1823
▁量	1824
▁味道	1825
▁负	1826
▁参加	1827
▁夏天	1828
▁社会	1829
▁恭喜	1830
▁福利	1831
▁熬	1832
▁职业	1833
▁数学	1834
▁逛	1835
▁增	1836
▁平时	1837
▁周末	1838
▁良	1839
▁无法	1840
▁讨论	1841
▁98	1842
▁江苏	1843
▁激动	1844
▁剧情	1845
▁镜	1846
▁桌	1847
▁内存	1848
▁j	1849
▁杂	1850
▁爸爸	1851
▁酷	1852
▁26	1853
▁大师	1854
▁X	1855
▁症	1856
▁自然	1857
▁核	1858
▁一波	1859
▁一枚	1860
▁环境	1861
▁一半	1862
▁备	1863
▁圆	1864
▁刚才	1865
▁也许	1866
▁求解	1867
▁哼	1868
▁数据	1869
▁鲁	1870
▁打的	1871
▁协	1872
▁一百	1873
▁系列	1874
▁珍	1875
▁牌子	1876
▁鼻	1877
▁拥	1878
▁实习	1879
▁档	1880
▁引	1881
▁警	1882
▁订	1883
▁狂	1884
▁妈妈	1885
▁cp	1886
▁网络	1887
▁炮	1888
▁替	1889
▁夸	1890
▁黑色	1891
▁技能	1892
▁禁	1893
▁对面	1894
▁道理	1895
▁对于	1896
▁曾经	1897
▁比如	1898
▁一看	1899
▁锅	1900
▁研究	1901
▁吵	1902
▁孙	1903
▁玩意	1904
▁淡	1905
▁完美	1906
▁腰	1907
▁归	1908
▁幼	1909
▁乖	1910
▁浙江	1911
▁晕	1912
▁松	1913
▁佛	1914
▁害怕	1915
▁属于	1916
▁体重	1917
▁争	1918
▁礼物	1919
▁擦	1920
▁亿	1921
▁很大	1922
▁师傅	1923
▁称	1924
▁辛苦	1925
▁超过	1926
▁体育	1927
▁如此	1928
▁砸	1929
▁辅	1930
▁冬天	1931
▁官方	1932
▁申请	1933
▁考研	1934
▁甩	1935
▁爹	1936
▁离开	1937
▁资料	1938
▁发展	1939
▁想法	1940
▁权	1941
▁成为	1942
▁u	1943
▁身份	1944
▁宽	1945
▁出门	1946
▁坐标	1947
▁欺	1948
▁读书	1949
▁男女	1950
▁番	1951
▁状态	1952
▁爬	1953
▁嘻	1954
▁高二	1955
▁拒绝	1956
▁销	1957
▁97	1958
▁账	1959
▁赌	1960
▁词	1961
▁躺	1962
▁聚	1963
▁会计	1964
▁难过	1965
▁告知	1966
▁得到	1967
▁东北	1968
▁购	1969
▁150	1970
▁条件	1971
▁潜	1972
▁志愿	1973
▁H	1974
▁隐	1975
▁贝	1976
▁烫	1977
▁美国	1978
▁符	1979
▁默默	1980
▁另外	1981
▁笔记	1982
▁整个	1983
▁仔	1984
▁凯	1985
▁南京	1986
▁京东	1987
▁K	1988
▁截图	1989
▁是否	1990
▁逆	1991
▁学期	1992
▁顿	1993
▁装备	1994
▁汽	1995
▁电信	1996
▁乌	1997
▁三天	1998
▁距	1999
▁当初	2000
▁毁	2001
▁股	2002
▁尿	2003
▁千万	2004
▁32	2005
▁忽	2006
▁银行	2007
▁门口	2008
▁指点	2009
▁旧	2010
▁呼	2011
▁脾	2012
▁肚子	2013
▁汉子	2014
▁29	2015
▁豪	2016
▁扔	2017
▁妖	2018
▁盗	2019
▁湖南	2020
▁QA	2021
▁十一	2022
▁新闻	2023
▁程	2024
▁45	2025
▁拍照	2026
▁耶	2027
▁流量	2028
▁干净	2029
▁95	2030
▁到时	2031
▁很少	2032
▁多多	2033
▁真正	2034
▁嘻嘻	2035
▁公里	2036
▁70	2037
▁智商	2038
▁初中	2039
▁丝	2040
▁发生	2041
▁挣	2042
▁到时候	2043
▁尼	2044
▁冠军	2045
▁守	2046
▁飘	2047
▁早安	2048
▁会员	2049
▁范	2050
▁狗狗	2051
▁喽	2052
▁暂	2053
▁尴	2054
▁库	2055
er	2056
▁咸	2057
▁巧	2058
▁QAQ	2059
▁童	2060
▁政	2061
▁龟	2062
▁颗	2063
▁遗	2064
▁尴尬	2065
▁没法	2066
▁球迷	2067
▁度娘	2068
▁吐槽	2069
▁西安	2070
▁针	2071
▁方面	2072
▁白色	2073
▁纪	2074
▁理由	2075
▁华为	2076
▁本科	2077
▁F	2078
▁文化	2079
▁屎	2080
▁伊	2081
▁高兴	2082
▁旅游	2083
▁处女	2084
▁嫌弃	2085
▁韩国	2086
▁肿	2087
▁咨	2088
▁咋样	2089
▁人民	2090
▁早点	2091
▁征	2092
▁父母	2093
▁400	2094
▁诚	2095
▁主动	2096
▁若	2097
▁划	2098
▁售	2099
▁率	2100
▁使用	2101
▁止	2102
▁南方	2103
▁项	2104
▁咨询	2105
▁砍	2106
▁赛季	2107
▁篮球	2108
▁念	2109
▁食堂	2110
▁历史	2111
▁交友	2112
▁之类	2113
▁一人	2114
▁狼	2115
▁电池	2116
▁曼	2117
▁身上	2118
▁等级	2119
▁教育	2120
▁厕	2121
▁摄	2122
▁虎	2123
▁感受	2124
▁喔	2125
▁脾气	2126
▁压力	2127
▁31	2128
▁老子	2129
▁重点	2130
▁室友	2131
▁结局	2132
▁洛	2133
▁性格	2134
▁女儿	2135
▁真好	2136
▁摔	2137
▁户	2138
▁串	2139
▁耳机	2140
▁裙	2141
▁杭	2142
▁桃	2143
▁撕	2144
▁少女	2145
▁唯一	2146
▁人物	2147
▁扎	2148
▁差点	2149
▁扯	2150
▁残	2151
▁面试	2152
▁业	2153
▁漫画	2154
▁午	2155
▁控制	2156
▁隔壁	2157
▁曲	2158
▁空间	2159
▁意见	2160
▁稳定	2161
▁就像	2162
▁拔	2163
▁漏	2164
▁半夜	2165
▁武器	2166
▁尤	2167
▁她们	2168
▁瓜	2169
▁言	2170
▁汤	2171
▁料	2172
▁狮	2173
▁详	2174
▁劳	2175
▁距离	2176
▁I	2177
▁荣耀	2178
▁健身	2179
▁等等	2180
▁喵	2181
▁同意	2182
▁一生	2183
▁墙	2184
▁跨	2185
▁00	2186
▁两次	2187
▁颜值	2188
▁开车	2189
▁以下	2190
▁内容	2191
▁答案	2192
▁优惠	2193
▁黄金	2194
▁安排	2195
▁快点	2196
▁厕所	2197
▁买到	2198
▁勾搭	2199
▁对不起	2200
▁国内	2201
▁墨	2202
▁端	2203
▁培	2204
▁三星	2205
▁反应	2206
▁闺蜜	2207
▁经历	2208
▁抗	2209
▁网恋	2210
▁id	2211
▁瞬	2212
▁钟	2213
▁2015	2214
▁计算	2215
▁欣	2216
▁亲爱	2217
▁说好	2218
▁代表	2219
▁健康	2220
▁屌丝	2221
▁男友	2222
▁索	2223
▁凤	2224
▁审	2225
▁币	2226
▁徐	2227
▁红包	2228
▁充电	2229
99	2230
▁介意	2231
▁续	2232
▁污	2233
▁欠	2234
▁善	2235
▁安慰	2236
▁飞机	2237
▁艺术	2238
▁狠	2239
▁180	2240
▁鸭	2241
▁联通	2242
▁拿到	2243
▁震	2244
▁济	2245
▁公交	2246
▁冻	2247
▁时代	2248
▁康	2249
▁膜	2250
▁客服	2251
▁打开	2252
▁玩玩	2253
▁奇怪	2254
▁电子	2255
▁温柔	2256
▁稍	2257
▁撞	2258
▁挤	2259
▁贱	2260
▁派	2261
▁孤独	2262
▁既然	2263
▁设置	2264
▁感动	2265
▁呜	2266
▁原谅	2267
▁好人	2268
▁长期	2269
▁想起	2270
▁伴	2271
▁沈	2272
▁十二	2273
▁排名	2274
▁晓得	2275
▁崩	2276
▁体验	2277
▁机器	2278
▁起床	2279
▁交易	2280
▁夫	2281
▁架	2282
▁积	2283
▁脑子	2284
▁伤心	2285
▁家人	2286
▁no	2287
▁球员	2288
▁任性	2289
▁森	2290
▁船	2291
▁lol	2292
▁虫	2293
▁真实	2294
▁加入	2295
▁烤	2296
▁偶遇	2297
▁相亲	2298
▁杭州	2299
▁96	2300
▁宇	2301
▁一万	2302
▁鹿	2303
▁诗	2304
▁发货	2305
▁别说	2306
▁误	2307
▁素质	2308
▁诺	2309
▁情人	2310
▁中间	2311
▁恐怖	2312
▁恢	2313
▁天下	2314
▁精神	2315
▁毛病	2316
▁专科	2317
▁喝酒	2318
▁品种	2319
▁新年	2320
▁否	2321
▁教练	2322
▁网吧	2323
▁余	2324
▁徒	2325
▁蒙	2326
▁长大	2327
▁阿姨	2328
▁遇见	2329
▁再见	2330
▁姨	2331
▁U	2332
▁恢复	2333
▁心理	2334
▁一中	2335
▁见到	2336
▁那天	2337
▁起码	2338
▁溜	2339
▁标准	2340
▁臭	2341
▁蜜	2342
▁说过	2343
▁万一	2344
▁藏	2345
▁迟	2346
▁保证	2347
▁J	2348
▁明星	2349
▁材	2350
▁小孩	2351
▁角色	2352
▁日常	2353
▁天津	2354
▁情侣	2355
▁恒	2356
▁安徽	2357
▁最新	2358
▁抄	2359
▁粘	2360
▁相册	2361
▁瞬间	2362
▁安卓	2363
▁扫	2364
▁随意	2365
▁北方	2366
▁姐妹	2367
▁主角	2368
▁托	2369
▁凌	2370
▁紧张	2371
▁抱歉	2372
▁运气	2373
▁真相	2374
▁易	2375
▁航	2376
▁玩笑	2377
▁上午	2378
▁洗澡	2379
▁浪费	2380
▁任务	2381
▁对比	2382
▁佳	2383
▁目测	2384
▁中心	2385
▁珠	2386
▁雅	2387
▁尝	2388
▁来看	2389
▁意义	2390
▁朱	2391
▁经济	2392
▁鞋子	2393
▁鼠	2394
▁保护	2395
▁腾	2396
▁郑州	2397
30	2398
▁国际	2399
10	2400
▁餐	2401
▁失败	2402
▁才会	2403
▁错过	2404
▁尊	2405
▁模式	2406
▁鼓	2407
▁竞	2408
▁噗	2409
▁照顾	2410
▁通过	2411
▁花钱	2412
▁胖子	2413
▁陆	2414
▁请教	2415
▁由	2416
▁生气	2417
▁纳	2418
▁泪	2419
▁望	2420
▁捏	2421
▁分析	2422
▁帮助	2423
▁节目	2424
▁桑	2425
▁乔	2426
▁64	2427
▁欺负	2428
▁美丽	2429
▁36	2430
▁真爱	2431
▁丽	2432
▁宋	2433
▁夹	2434
▁几点	2435
▁监	2436
▁犯	2437
▁600	2438
▁歌词	2439
▁迪	2440
▁偶尔	2441
▁同样	2442
▁川	2443
▁泥	2444
▁国庆	2445
▁验	2446
▁祖	2447
▁训	2448
▁百分	2449
▁队友	2450
▁触	2451
▁搞笑	2452
▁佩	2453
▁锤	2454
▁800	2455
▁詹	2456
▁玻	2457
▁机械	2458
▁仅	2459
▁塔	2460
▁动画	2461
▁甲	2462
▁辽	2463
▁景	2464
▁着急	2465
▁密码	2466
▁毫	2467
▁凶	2468
▁秦	2469
▁套路	2470
▁企	2471
▁嘉	2472
▁对方	2473
▁贼	2474
▁蛇	2475
▁田	2476
▁实体	2477
▁愉	2478
▁鲜	2479
▁笔记本	2480
▁苗	2481
▁饮	2482
▁互相	2483
▁香港	2484
▁羽	2485
▁呃	2486
▁返	2487
▁图书	2488
▁学费	2489
▁汽车	2490
▁赔	2491
▁几乎	2492
▁操作	2493
oo	2494
▁单位	2495
▁婆	2496
▁事实	2497
▁好奇	2498
▁听到	2499
▁之间	2500
▁产品	2501
▁绑	2502
▁至于	2503
▁120	2504
▁安装	2505
▁半天	2506
▁河北	2507
▁甘	2508
▁刻	2509
▁价位	2510
▁跪求	2511
▁莫名	2512
▁炫	2513
▁危	2514
▁前任	2515
▁瑞	2516
▁目标	2517
▁传说	2518
▁痘	2519
▁壳	2520
▁全国	2521
▁qy	2522
▁改变	2523
▁基础	2524
▁尾巴	2525
▁顾	2526
▁赚钱	2527
▁暂时	2528
▁身材	2529
▁旗	2530
▁逃	2531
▁国产	2532
▁哪家	2533
▁方式	2534
▁白菜	2535
▁联盟	2536
▁检查	2537
▁风格	2538
▁稀	2539
▁碰到	2540
▁除非	2541
▁二本	2542
▁凭	2543
▁弃	2544
▁或许	2545
▁幻	2546
▁宠物	2547
▁55	2548
▁阳光	2549
▁现场	2550
▁哎呀	2551
▁贷	2552
▁正好	2553
▁键盘	2554
▁仓	2555
▁栋	2556
▁跑步	2557
▁计划	2558
▁一遍	2559
▁宫	2560
▁白天	2561
▁玩家	2562
▁组织	2563
▁萨	2564
▁寂	2565
▁撑	2566
▁放在	2567
▁界	2568
▁被骗	2569
▁ma	2570
▁38	2571
▁咋办	2572
▁秘	2573
▁天使	2574
▁挡	2575
▁老大	2576
▁收藏	2577
▁指导	2578
▁下班	2579
▁湖北	2580
▁自习	2581
▁盒子	2582
▁师兄	2583
▁略	2584
▁笑死	2585
▁玻璃	2586
▁美好	2587
▁好累	2588
▁甚	2589
▁公主	2590
▁化妆	2591
▁疑	2592
▁做到	2593
▁表现	2594
▁胃	2595
▁看图	2596
▁丰	2597
▁支付	2598
▁胶	2599
▁愉快	2600
▁挨	2601
▁延	2602
▁湿	2603
▁乡	2604
▁感冒	2605
▁学霸	2606
▁经典	2607
▁熟悉	2608
▁一边	2609
▁心态	2610
▁涂	2611
▁发型	2612
▁更多	2613
▁综	2614
▁踩	2615
▁计算机	2616
▁樱	2617
▁杰	2618
▁参考	2619
▁自行	2620
▁等到	2621
▁单招	2622
▁壁	2623
▁福建	2624
▁狮子	2625
▁拥有	2626
▁怀疑	2627
▁评价	2628
▁歪	2629
▁自拍	2630
▁大腿	2631
▁陌	2632
▁平台	2633
▁地区	2634
▁电源	2635
▁灭	2636
▁面膜	2637
▁地铁	2638
▁长沙	2639
▁广场	2640
one	2641
▁史	2642
▁2016	2643
▁平安	2644
▁蹲	2645
▁首先	2646
▁玫	2647
70	2648
▁红色	2649
▁青岛	2650
▁朝	2651
▁刺激	2652
▁恨	2653
▁年纪	2654
▁+	2655
▁RT	2656
▁孔	2657
▁猛	2658
▁昂	2659
▁围观	2660
▁概	2661
▁脏	2662
▁裤子	2663
▁单纯	2664
▁娃娃	2665
▁果断	2666
▁牵	2667
▁肌	2668
▁测试	2669
▁驱	2670
▁咖	2671
▁Y	2672
▁外地	2673
▁呦	2674
▁注册	2675
▁组队	2676
▁48	2677
▁横	2678
▁类型	2679
▁江西	2680
▁短发	2681
▁承认	2682
▁篇	2683
▁憋	2684
▁吖	2685
▁唔	2686
▁吞	2687
▁碗	2688
▁超市	2689
▁娱	2690
▁考生	2691
▁dd	2692
▁后期	2693
▁人间	2694
▁萝莉	2695
▁眼镜	2696
▁号码	2697
▁科学	2698
▁桥	2699
▁怀孕	2700
▁青春	2701
▁七夕	2702
▁慌	2703
▁欣赏	2704
▁舔	2705
▁杜	2706
▁足球	2707
▁列	2708
▁娶	2709
▁作品	2710
▁宣传	2711
▁弯	2712
▁说出	2713
▁语音	2714
▁倍	2715
▁治疗	2716
▁持	2717
▁帽	2718
▁腻	2719
▁尺	2720
▁渣渣	2721
▁少年	2722
▁昆	2723
▁闭	2724
▁劲	2725
▁话题	2726
▁骑士	2727
▁自带	2728
▁窗	2729
▁年级	2730
▁兔子	2731
▁爪	2732
▁催	2733
▁演员	2734
▁邪	2735
▁石头	2736
▁嘞	2737
▁煮	2738
▁刚好	2739
▁回忆	2740
▁熬夜	2741
▁160	2742
▁bu	2743
▁饼	2744
▁嫩	2745
▁功能	2746
▁生意	2747
▁性价	2748
▁锻	2749
▁懒得	2750
▁到处	2751
▁很快	2752
▁校园	2753
▁采	2754
▁长发	2755
▁啧	2756
▁方向	2757
▁叔叔	2758
▁寂寞	2759
▁赤	2760
▁薄	2761
▁掌	2762
▁腐	2763
▁战斗	2764
▁成熟	2765
▁等待	2766
▁姿	2767
▁合作	2768
▁胆	2769
▁小区	2770
▁吉他	2771
▁坦	2772
▁属性	2773
▁初三	2774
▁琴	2775
▁岛	2776
▁郭	2777
▁召	2778
▁在意	2779
▁源	2780
ta	2781
▁抵	2782
▁资格	2783
▁背景	2784
▁云南	2785
▁聪	2786
▁在乎	2787
▁招生	2788
▁天蝎	2789
▁娱乐	2790
▁人气	2791
▁班主	2792
▁一颗	2793
▁拳	2794
▁贺	2795
▁班主任	2796
▁痛苦	2797
▁动物	2798
▁启	2799
▁供	2800
▁玫瑰	2801
▁后天	2802
▁丁	2803
▁见面	2804
▁收费	2805
▁堵	2806
▁榜	2807
▁梦想	2808
▁一大	2809
▁庆	2810
▁懂得	2811
▁寒假	2812
▁酒店	2813
▁抛	2814
▁腹	2815
▁领导	2816
▁踏	2817
▁手术	2818
▁球队	2819
▁屋	2820
▁御	2821
▁保险	2822
▁含	2823
▁主板	2824
▁握	2825
▁爆炸	2826
hone	2827
▁罢	2828
▁异地	2829
▁频	2830
▁侧	2831
▁魂	2832
▁厦	2833
▁魅族	2834
▁辅助	2835
▁棒棒	2836
▁34	2837
▁演唱	2838
▁老家	2839
▁一声	2840
▁跟着	2841
▁厨	2842
▁42	2843
▁执	2844
▁性别	2845
▁潮	2846
▁关心	2847
▁活着	2848
▁态	2849
▁阶	2850
▁姨妈	2851
▁预算	2852
▁型号	2853
▁材料	2854
▁纹身	2855
▁悬	2856
▁锦	2857
▁高手	2858
▁作者	2859
▁类似	2860
▁委	2861
▁探	2862
▁33	2863
▁170	2864
▁腾讯	2865
▁note	2866
▁仔细	2867
▁回头	2868
▁价钱	2869
▁热闹	2870
▁实际	2871
▁正品	2872
▁台湾	2873
▁科技	2874
▁缩	2875
▁级别	2876
▁正式	2877
▁爱好	2878
▁笨	2879
▁奇葩	2880
▁蓝色	2881
▁妥	2882
▁珍惜	2883
▁而是	2884
▁复习	2885
▁骗人	2886
▁网站	2887
▁如图	2888
▁钻石	2889
▁实验	2890
▁失望	2891
▁染	2892
▁裸	2893
▁抽烟	2894
▁麻辣	2895
▁生命	2896
▁完成	2897
▁娜	2898
▁账号	2899
▁出发	2900
▁开机	2901
▁游泳	2902
▁硬盘	2903
▁卸	2904
▁差距	2905
▁上网	2906
▁出生	2907
▁即将	2908
▁无限	2909
▁式	2910
▁人品	2911
▁时光	2912
▁橙	2913
▁神马	2914
▁轻松	2915
▁良心	2916
▁浮	2917
▁玄	2918
▁尤其	2919
▁丫	2920
▁前排	2921
▁很高	2922
▁眉	2923
▁糊	2924
▁展	2925
▁想象	2926
▁摩托	2927
▁农村	2928
▁卫生	2929
▁蹭	2930
▁趣	2931
▁锻炼	2932
▁苏州	2933
▁惯	2934
▁蟹	2935
▁中学	2936
▁勒	2937
▁LO	2938
▁男孩	2939
▁卖家	2940
▁尽量	2941
▁小伙	2942
if	2943
▁安静	2944
▁深夜	2945
▁允	2946
▁洋	2947
▁无敌	2948
▁语言	2949
▁动作	2950
▁失眠	2951
▁违	2952
▁老人	2953
▁用来	2954
▁变化	2955
▁相当	2956
▁攒	2957
▁真假	2958
▁棉	2959
▁裙子	2960
▁进入	2961
pp	2962
▁送给	2963
▁全套	2964
▁好心	2965
ro	2966
▁想着	2967
▁翻译	2968
▁恒大	2969
▁Z	2970
▁详细	2971
▁均	2972
▁苍	2973
▁两只	2974
▁耗	2975
▁态度	2976
▁敬	2977
▁社团	2978
▁打包	2979
▁聪明	2980
▁决赛	2981
▁内心	2982
▁给力	2983
▁霸气	2984
▁爸妈	2985
▁记住	2986
▁店铺	2987
▁水果	2988
▁汪	2989
▁离婚	2990
▁圣诞	2991
▁win	2992
▁成年	2993
▁济南	2994
▁拜托	2995
▁恩爱	2996
▁萌萌哒	2997
▁售后	2998
▁37	2999
▁十五	3000
▁厘	3001
▁卵	3002
▁繁	3003
▁响	3004
▁吃药	3005
▁事业	3006
▁信号	3007
▁学会	3008
▁94	3009
▁睡着	3010
▁85	3011
▁猴子	3012
▁垫	3013
▁获	3014
▁彻	3015
▁咸鱼	3016
▁最强	3017
▁辞	3018
▁校服	3019
▁壮	3020
▁致	3021
▁自行车	3022
▁趁	3023
▁开发	3024
▁宅	3025
▁做饭	3026
▁肾	3027
▁惠	3028
▁新疆	3029
▁主题	3030
▁帅气	3031
▁众	3032
▁玛	3033
▁物理	3034
▁hi	3035
▁献	3036
▁美术	3037
▁同时	3038
▁广西	3039
▁山西	3040
▁庄	3041
▁回到	3042
▁摸摸	3043
▁捧	3044
▁厘米	3045
▁51	3046
▁寸	3047
▁厅	3048
▁迎	3049
▁躲	3050
▁前辈	3051
▁神经	3052
▁败	3053
▁抢到	3054
▁钓鱼	3055
▁复制	3056
▁笼	3057
▁整天	3058
▁摇	3059
▁月底	3060
▁吓死	3061
▁39	3062
▁辆	3063
▁老实	3064
▁初一	3065
▁寻找	3066
▁叶子	3067
▁看懂	3068
en	3069
▁柯	3070
▁零食	3071
▁短信	3072
▁丧	3073
▁犹	3074
▁缘分	3075
▁作用	3076
▁机智	3077
▁肩	3078
▁幽	3079
▁攻击	3080
▁高铁	3081
▁刮	3082
▁倾	3083
▁中秋	3084
▁过程	3085
▁多么	3086
▁勇士	3087
▁袋	3088
▁盐	3089
▁语文	3090
▁欲	3091
▁铺	3092
▁销售	3093
▁装修	3094
▁棵	3095
▁52	3096
▁火锅	3097
▁理工	3098
▁谷	3099
▁吓人	3100
▁ip	3101
▁专门	3102
▁陕	3103
▁力量	3104
la	3105
▁本事	3106
▁稍微	3107
▁训练	3108
▁1500	3109
▁判	3110
▁41	3111
▁叼	3112
▁教室	3113
▁义	3114
▁品牌	3115
▁故意	3116
▁伸	3117
▁忧	3118
▁妞	3119
▁邓	3120
▁ps	3121
▁提示	3122
▁假期	3123
▁师姐	3124
▁桶	3125
▁召唤	3126
▁抱抱	3127
▁厦门	3128
▁勇气	3129
▁人类	3130
▁投票	3131
▁静静	3132
▁宇宙	3133
▁88	3134
▁温度	3135
▁德国	3136
▁激活	3137
▁夺	3138
▁发给	3139
▁项目	3140
▁依然	3141
▁纪念	3142
▁伪	3143
▁盛	3144
▁愁	3145
▁辽宁	3146
▁建筑	3147
▁页	3148
▁仇	3149
▁警察	3150
▁阵容	3151
▁割	3152
▁凡	3153
▁文字	3154
▁助攻	3155
▁性能	3156
▁画面	3157
▁大小	3158
▁数字	3159
▁笑话	3160
▁一批	3161
▁耳朵	3162
▁肠	3163
▁敏	3164
▁以及	3165
▁想你	3166
▁享	3167
▁兽	3168
▁宜	3169
▁700	3170
▁小弟	3171
▁摄影	3172
▁保持	3173
▁符合	3174
▁多谢	3175
▁中医	3176
▁鸡蛋	3177
▁乃	3178
▁主流	3179
▁跌	3180
▁同事	3181
▁损	3182
▁连续	3183
▁大人	3184
▁卧	3185
▁复读	3186
▁咳	3187
▁提醒	3188
▁遮	3189
▁温暖	3190
▁扑	3191
▁家庭	3192
▁包括	3193
▁眼皮	3194
▁唠	3195
▁LOL	3196
▁看法	3197
▁爷爷	3198
▁格式	3199
▁狐	3200
▁代理	3201
▁滑	3202
▁旅行	3203
▁眼神	3204
▁刘海	3205
▁舍友	3206
▁危险	3207
▁鼻子	3208
▁缸	3209
▁掏	3210
▁澳	3211
▁取消	3212
▁知识	3213
▁偷偷	3214
▁脸上	3215
▁二中	3216
▁65	3217
▁傲	3218
▁比例	3219
▁消费	3220
▁75	3221
▁一斤	3222
▁劝	3223
▁生物	3224
▁净	3225
▁五年	3226
▁回归	3227
▁英文	3228
▁荒	3229
▁驾校	3230
▁大号	3231
▁霍	3232
▁裁	3233
▁妆	3234
▁周六	3235
▁报到	3236
▁提供	3237
▁风扇	3238
▁中文	3239
▁分开	3240
▁发布	3241
▁失去	3242
▁教程	3243
▁合租	3244
▁2017	3245
▁无奈	3246
▁焦	3247
▁动力	3248
▁细节	3249
▁价值	3250
▁罚	3251
▁91	3252
▁搭配	3253
▁机子	3254
ia	3255
▁岂	3256
▁护理	3257
▁皇马	3258
▁星座	3259
▁自信	3260
▁培训	3261
▁卤	3262
▁多长	3263
▁科普	3264
▁葡	3265
▁矿	3266
▁风景	3267
▁仙女	3268
▁44	3269
▁心中	3270
▁接触	3271
▁犬	3272
▁43	3273
▁客户	3274
▁地图	3275
▁滚	3276
▁柳	3277
▁浅	3278
▁看出	3279
▁01	3280
▁匹	3281
▁西瓜	3282
▁怀念	3283
▁遭	3284
▁骂人	3285
▁荷	3286
▁胎	3287
▁谈谈	3288
▁公园	3289
▁虾	3290
▁2014	3291
▁沟	3292
▁看书	3293
▁过分	3294
▁cd	3295
▁抬	3296
▁作死	3297
▁怂	3298
▁咧	3299
▁听听	3300
▁梗	3301
▁08	3302
▁调剂	3303
▁壁纸	3304
▁瓦	3305
▁一辆	3306
▁气质	3307
▁铜	3308
▁丹	3309
▁特效	3310
▁能够	3311
▁姿势	3312
▁租房	3313
▁路人	3314
▁开箱	3315
▁主播	3316
▁诸	3317
▁咖啡	3318
▁优秀	3319
▁CP	3320
ou	3321
▁十八	3322
▁好棒	3323
▁闻	3324
OS	3325
▁科目	3326
▁缓	3327
▁房间	3328
▁莱	3329
▁就怕	3330
▁家伙	3331
▁彻底	3332
▁拿来	3333
▁识	3334
▁下周	3335
▁其它	3336
▁低调	3337
▁差评	3338
▁制作	3339
▁塑	3340
▁较	3341
▁郁	3342
▁肝	3343
▁杆	3344
▁洞	3345
▁依旧	3346
▁螺	3347
▁待遇	3348
▁打工	3349
▁58	3350
▁美美	3351
▁每年	3352
▁鸽	3353
▁举报	3354
▁输入	3355
▁池	3356
▁大连	3357
▁被子	3358
▁镜头	3359
▁中考	3360
▁多数	3361
▁高清	3362
▁最美	3363
▁够用	3364
▁包子	3365
▁体检	3366
▁巅	3367
▁晋	3368
▁磕	3369
▁口味	3370
▁她说	3371
▁宾	3372
▁带走	3373
▁信用	3374
▁吊打	3375
▁惊喜	3376
▁仿	3377
▁流畅	3378
▁签名	3379
▁投资	3380
▁循	3381
▁徒弟	3382
▁啪	3383
▁尸	3384
▁猎	3385
▁09	3386
▁抖	3387
me	3388
▁咦	3389
▁末	3390
▁狗粮	3391
▁砖	3392
▁美人	3393
▁侠	3394
▁曹	3395
▁打架	3396
▁毫无	3397
▁陌生	3398
▁师范	3399
▁这位	3400
▁以内	3401
▁捉	3402
▁疯狂	3403
▁面前	3404
▁排位	3405
▁强大	3406
▁桂	3407
▁葡萄	3408
▁伟	3409
▁驾照	3410
▁射手	3411
ad	3412
▁吸引	3413
▁人才	3414
▁苦逼	3415
▁难看	3416
▁ok	3417
▁何必	3418
▁自从	3419
▁程度	3420
▁帽子	3421
▁尔	3422
▁地球	3423
▁蚊	3424
▁预测	3425
▁机场	3426
▁当兵	3427
▁联赛	3428
▁阔	3429
▁偶像	3430
▁角度	3431
▁理想	3432
▁文件	3433
▁曝	3434
▁遗憾	3435
▁次元	3436
▁绕	3437
▁雾	3438
▁医学	3439
▁避	3440
▁玩耍	3441
▁能量	3442
▁成长	3443
▁揍	3444
▁这部	3445
▁首页	3446
▁令	3447
▁cm	3448
▁化学	3449
▁02	3450
▁独立	3451
▁施	3452
▁三千	3453
▁辣条	3454
▁植	3455
▁难度	3456
▁且	3457
▁嗷	3458
▁47	3459
姆斯	3460
us	3461
▁大街	3462
▁嘲	3463
▁噜	3464
▁即使	3465
▁限制	3466
▁晨	3467
▁怒	3468
▁收入	3469
▁开门	3470
▁潜水	3471
▁ss	3472
▁汇	3473
▁遥	3474
▁93	3475
▁右边	3476
▁处男	3477
▁左边	3478
▁俄	3479
▁360	3480
▁挑战	3481
▁按照	3482
▁先生	3483
▁表达	3484
▁随时	3485
▁记忆	3486
is	3487
▁捡到	3488
or	3489
▁捞	3490
▁意外	3491
▁飘过	3492
▁好帅	3493
▁绿色	3494
▁综合	3495
▁电动	3496
▁无线	3497
▁下雪	3498
▁巴萨	3499
▁土豆	3500
▁闷	3501
▁巅峰	3502
▁券	3503
▁高速	3504
▁般	3505
▁歌手	3506
▁外观	3507
▁造型	3508
▁受伤	3509
▁闲置	3510
▁红米	3511
▁报考	3512
▁iP	3513
▁哄	3514
▁暗恋	3515
▁相机	3516
▁92	3517
▁箱子	3518
▁到货	3519
▁澡	3520
▁似乎	3521
▁神奇	3522
▁初恋	3523
▁购买	3524
▁专升	3525
▁交通	3526
▁in	3527
▁五一	3528
▁专升本	3529
▁这儿	3530
▁固态	3531
▁应用	3532
▁沈阳	3533
▁晴	3534
▁艾迪	3535
▁or	3536
▁手动	3537
▁竹	3538
▁饱	3539
▁精品	3540
▁关照	3541
▁大专	3542
▁暖男	3543
▁玩儿	3544
▁防守	3545
▁主人	3546
ve	3547
▁值钱	3548
▁嘎	3549
▁好处	3550
▁搬砖	3551
▁国外	3552
▁陕西	3553
▁尖	3554
▁bug	3555
▁会好	3556
▁悟	3557
▁分期	3558
▁07	3559
▁赖	3560
▁吼	3561
▁提升	3562
▁人员	3563
▁验证	3564
▁本身	3565
▁粤	3566
▁邮费	3567
▁浓	3568
▁梅西	3569
▁大爷	3570
▁能否	3571
ing	3572
▁削	3573
▁平均	3574
▁詹姆斯	3575
▁下单	3576
▁白银	3577
▁完结	3578
▁住宿	3579
▁裂	3580
▁客气	3581
ifi	3582
▁脖	3583
▁原装	3584
▁等于	3585
▁双十	3586
▁高级	3587
▁到家	3588
▁忠	3589
ol	3590
▁吃货	3591
▁峰	3592
▁埋	3593
▁东方	3594
▁两千	3595
▁统一	3596
▁海贼	3597
▁今日	3598
▁总会	3599
▁家长	3600
▁面对	3601
▁燕	3602
▁科比	3603
▁定位	3604
▁困难	3605
▁摘	3606
▁死人	3607
▁尝试	3608
▁110	3609
▁越好	3610
▁233	3611
▁办公	3612
▁女子	3613
▁幸运	3614
▁OK	3615
▁49	3616
▁羞	3617
▁大妈	3618
▁教官	3619
▁雕	3620
▁大陆	3621
▁补考	3622
▁阅	3623
▁扩	3624
▁例	3625
▁双子	3626
▁循环	3627
▁付款	3628
▁散热	3629
▁废话	3630
▁出手	3631
▁勤	3632
▁敌	3633
▁错误	3634
▁正确	3635
▁小小	3636
▁从小	3637
▁学历	3638
▁术	3639
▁南昌	3640
▁奈	3641
▁金融	3642
▁天猫	3643
▁奶奶	3644
▁痘痘	3645
▁打球	3646
▁消失	3647
▁部队	3648
▁好事	3649
▁堪	3650
▁61	3651
▁空气	3652
▁肌肉	3653
▁婆婆	3654
▁媒	3655
▁碧	3656
▁蒸	3657
▁输出	3658
▁勉	3659
▁蛋糕	3660
▁大声	3661
▁套餐	3662
▁答应	3663
▁演技	3664
▁早餐	3665
▁莲	3666
▁包装	3667
▁合理	3668
▁吾	3669
▁抹	3670
▁失恋	3671
▁年代	3672
▁固定	3673
▁奶茶	3674
▁就业	3675
▁一名	3676
▁矫	3677
▁完整	3678
▁名单	3679
▁大众	3680
▁根据	3681
▁蜂	3682
▁长相	3683
▁旗舰	3684
▁允许	3685
▁对手	3686
▁合肥	3687
▁善良	3688
▁和谐	3689
▁旺	3690
▁预定	3691
▁练习	3692
▁精灵	3693
▁心酸	3694
▁重启	3695
▁46	3696
▁一月	3697
▁扶	3698
▁落地	3699
▁05	3700
▁钥	3701
▁罪	3702
▁金刚	3703
▁士	3704
▁热水	3705
▁app	3706
▁罐	3707
▁鲜肉	3708
▁预告	3709
▁暴露	3710
▁贪	3711
▁最终	3712
▁炎	3713
▁彼	3714
▁报警	3715
▁变得	3716
ang	3717
▁队长	3718
▁外卖	3719
▁设定	3720
▁提高	3721
▁象	3722
▁添	3723
▁贷款	3724
▁250	3725
▁配件	3726
▁199	3727
▁凌晨	3728
▁享受	3729
▁文艺	3730
▁达到	3731
▁外国	3732
▁难得	3733
▁表演	3734
▁井	3735
▁妥妥	3736
▁壕	3737
ar	3738
▁画风	3739
▁排队	3740
▁钥匙	3741
▁相处	3742
▁一手	3743
▁透明	3744
▁楚	3745
▁俱	3746
▁郁闷	3747
▁吵架	3748
▁搜索	3749
▁宽带	3750
▁车子	3751
▁浩	3752
▁03	3753
▁商量	3754
▁做梦	3755
▁自我	3756
▁告白	3757
▁连接	3758
▁饺	3759
▁赠	3760
▁驱动	3761
▁确认	3762
▁开花	3763
▁水瓶	3764
▁桌子	3765
▁瞧	3766
▁信仰	3767
▁超越	3768
▁诱	3769
▁注定	3770
▁周边	3771
▁130	3772
▁青年	3773
▁手写	3774
▁进行	3775
▁市区	3776
▁小狗	3777
▁梁	3778
▁原价	3779
▁杠	3780
▁其中	3781
▁一号	3782
▁火箭	3783
▁汗	3784
▁女王	3785
▁嫉	3786
▁甚至	3787
▁绝望	3788
▁加一	3789
▁白金	3790
▁事件	3791
▁收拾	3792
▁麻将	3793
▁54	3794
▁仁	3795
▁56	3796
▁煎	3797
ab	3798
▁精彩	3799
▁扬	3800
▁面包	3801
▁婚姻	3802
▁打脸	3803
▁芒	3804
▁尺寸	3805
▁来到	3806
▁秘密	3807
▁星星	3808
▁于是	3809
▁新区	3810
▁佩服	3811
▁经过	3812
▁犹豫	3813
▁175	3814
▁加班	3815
▁日语	3816
▁嫉妒	3817
▁种子	3818
▁周围	3819
▁手工	3820
▁工具	3821
▁贵州	3822
▁翔	3823
▁伯	3824
▁淋	3825
▁仪	3826
▁斑	3827
▁礼拜	3828
▁剁	3829
▁摊	3830
▁wifi	3831
▁堂	3832
▁转让	3833
▁脖子	3834
▁顺丰	3835
▁强迫	3836
▁说法	3837
▁贫	3838
▁59	3839
▁饺子	3840
▁菲	3841
▁高端	3842
▁pro	3843
▁气死	3844
▁伦	3845
▁太丑	3846
▁框	3847
▁想念	3848
▁通宵	3849
▁桩	3850
▁委屈	3851
▁组合	3852
▁趴	3853
▁匹配	3854
▁一根	3855
▁王子	3856
▁搂	3857
▁沙发	3858
▁新鲜	3859
▁辅导	3860
▁四级	3861
▁巨蟹	3862
▁折腾	3863
▁06	3864
▁拦	3865
▁蹦	3866
▁三楼	3867
▁可否	3868
▁形容	3869
▁耐心	3870
▁清新	3871
▁拿去	3872
▁境	3873
▁费用	3874
▁酱油	3875
▁并且	3876
▁服从	3877
▁糟	3878
▁卤煮	3879
▁淡定	3880
▁打完	3881
▁灌	3882
▁啤	3883
▁欧冠	3884
▁句子	3885
▁81	3886
▁复杂	3887
▁优势	3888
▁好感	3889
▁现代	3890
▁亮点	3891
▁发动	3892
▁卢	3893
▁周五	3894
▁摩羯	3895
▁逆袭	3896
▁牛奶	3897
▁挽	3898
▁双十一	3899
▁丸	3900
▁要钱	3901
▁偿	3902
▁寿	3903
▁袜	3904
▁典	3905
▁小哥	3906
oss	3907
▁假如	3908
▁烧烤	3909
▁某些	3910
▁痴	3911
▁搞定	3912
▁足够	3913
▁手指	3914
▁穿越	3915
▁挣钱	3916
▁350	3917
▁豆腐	3918
▁摄像	3919
▁眼里	3920
▁祭	3921
▁忽悠	3922
▁个子	3923
▁原创	3924
▁融	3925
▁懵	3926
▁平常	3927
▁物流	3928
▁期末	3929
▁吕	3930
▁始	3931
▁霜	3932
▁预约	3933
▁贤	3934
▁降价	3935
▁姜	3936
▁2018	3937
▁幼儿	3938
▁怼	3939
▁老鼠	3940
▁cos	3941
▁悲伤	3942
▁一期	3943
▁操场	3944
▁接近	3945
▁差别	3946
▁ios	3947
▁乘	3948
▁天空	3949
▁政治	3950
▁正经	3951
▁族	3952
▁帕	3953
▁金毛	3954
▁舍得	3955
▁中介	3956
▁导致	3957
▁阻	3958
▁再次	3959
▁春天	3960
▁53	3961
▁刹	3962
▁辩	3963
▁正版	3964
▁护肤	3965
▁五百	3966
▁bb	3967
▁草莓	3968
▁勿扰	3969
▁营养	3970
▁进球	3971
▁描	3972
▁画画	3973
▁前提	3974
▁凤凰	3975
▁丢人	3976
▁欧洲	3977
▁小伙子	3978
▁全家	3979
▁反而	3980
▁开放	3981
▁家乡	3982
▁sh	3983
▁灿	3984
▁思想	3985
▁毛线	3986
▁早起	3987
▁孕	3988
▁有效	3989
▁增加	3990
▁眼光	3991
▁瞅	3992
▁抠	3993
▁团队	3994
▁几率	3995
▁锤子	3996
ic	3997
▁同志	3998
▁胡子	3999
▁心动	4000
▁智障	4001
▁双鱼	4002
▁公务	4003
▁眼泪	4004
▁户口	4005
▁闺女	4006
▁拯	4007
▁周年	4008
▁神器	4009
▁适应	4010
▁醒来	4011
▁佐	4012
▁鼠标	4013
▁策	4014
▁迈	4015
▁安利	4016
▁崩溃	4017
▁拯救	4018
▁护士	4019
▁脆	4020
▁66	4021
▁奖励	4022
▁复活	4023
▁奋	4024
▁面子	4025
▁税	4026
▁萧	4027
▁真人	4028
▁白羊	4029
am	4030
▁粮	4031
▁贺电	4032
▁门票	4033
▁柜	4034
▁年底	4035
▁上线	4036
▁元旦	4037
▁特殊	4038
▁目的	4039
▁房价	4040
▁露珠	4041
▁教学	4042
▁十分	4043
▁液	4044
▁78	4045
▁战争	4046
▁扭	4047
▁它们	4048
▁进步	4049
▁辞职	4050
▁渣男	4051
▁嘴巴	4052
▁民族	4053
▁低价	4054
▁顺眼	4055
▁两人	4056
▁开头	4057
▁圈子	4058
▁绵	4059
▁烈	4060
▁笼子	4061
▁公寓	4062
▁鲁能	4063
▁妇	4064
▁痒	4065
▁十三	4066
▁越狱	4067
▁iPhone	4068
▁永久	4069
▁宾馆	4070
葫芦	4071
▁主机	4072
▁轰	4073
▁配合	4074
▁舰	4075
▁划算	4076
▁周一	4077
▁美食	4078
▁百万	4079
▁实现	4080
▁立马	4081
▁赫	4082
▁邀	4083
▁04	4084
▁商务	4085
▁缝	4086
▁mi	4087
▁正面	4088
▁相对	4089
▁还算	4090
▁淮	4091
▁调戏	4092
▁肉肉	4093
▁做人	4094
▁卖萌	4095
▁坐车	4096
▁外套	4097
▁暖暖	4098
▁生产	4099
▁至今	4100
▁范围	4101
▁72	4102
▁何以	4103
▁做完	4104
▁岗	4105
▁爆发	4106
▁帐	4107
▁顺利	4108
▁打击	4109
▁掰	4110
▁突破	4111
▁公务员	4112
▁同款	4113
▁浇	4114
▁赏	4115
▁本子	4116
▁赐	4117
▁泉	4118
▁巴西	4119
▁扛	4120
▁追求	4121
▁啤酒	4122
▁兑	4123
▁单机	4124
▁审核	4125
▁伞	4126
▁听歌	4127
▁闲鱼	4128
▁出场	4129
▁塑料	4130
▁流行	4131
▁死亡	4132
▁整理	4133
▁别闹	4134
▁bi	4135
▁地点	4136
▁原图	4137
▁期间	4138
▁PS	4139
▁粤语	4140
▁麻麻	4141
▁付出	4142
▁妮	4143
▁苏宁	4144
▁迷茫	4145
▁吹牛	4146
▁好歹	4147
▁歌曲	4148
▁成本	4149
▁播放	4150
▁僵	4151
▁理论	4152
▁库里	4153
▁戒指	4154
▁撤	4155
▁披	4156
▁投诉	4157
▁解锁	4158
▁湾	4159
▁冒泡	4160
▁打扰	4161
▁积分	4162
le	4163
▁洪	4164
▁邻	4165
▁上门	4166
▁路飞	4167
▁跨年	4168
▁县城	4169
▁灵魂	4170
▁自家	4171
▁老头	4172
▁修复	4173
▁熟人	4174
▁盾	4175
▁营业	4176
▁觉醒	4177
▁初二	4178
un	4179
▁究	4180
▁全身	4181
▁话费	4182
▁统计	4183
▁早日	4184
▁国安	4185
▁岳	4186
▁创业	4187
▁前期	4188
▁董	4189
▁男子	4190
▁哲	4191
▁boss	4192
▁捐	4193
▁俱乐	4194
▁敲	4195
▁金币	4196
▁VS	4197
▁设备	4198
▁弓	4199
▁俱乐部	4200
▁宗	4201
▁衬	4202
▁同桌	4203
▁140	4204
▁大姐	4205
▁正规	4206
▁指甲	4207
▁害羞	4208
▁花园	4209
▁联想	4210
▁黑白	4211
▁靴	4212
▁燃	4213
▁时期	4214
▁成就	4215
▁孤单	4216
▁玩具	4217
▁调查	4218
ir	4219
▁企业	4220
▁do	4221
▁工业	4222
▁公布	4223
▁宏	4224
▁形象	4225
▁cdx	4226
▁氪	4227
▁萝卜	4228
▁炉	4229
▁恰	4230
▁水晶	4231
▁淘汰	4232
▁煤	4233
▁续航	4234
▁咔	4235
▁凑合	4236
▁长腿	4237
▁黄色	4238
▁陪伴	4239
▁检测	4240
▁大战	4241
▁昆明	4242
▁路由	4243
▁意识	4244
▁最佳	4245
▁165	4246
▁旋	4247
▁机电	4248
▁攻略	4249
▁删除	4250
▁营销	4251
家庄	4252
▁过后	4253
▁yy	4254
▁手续	4255
▁手感	4256
▁黑龙	4257
▁雄	4258
▁蝴	4259
▁到位	4260
▁傻子	4261
▁搓	4262
▁九月	4263
▁腹肌	4264
▁900	4265
▁好评	4266
▁体会	4267
▁伐	4268
▁负责	4269
▁挂科	4270
▁芒果	4271
▁孝	4272
▁发票	4273
▁行业	4274
▁黑子	4275
▁ti	4276
▁一夜	4277
▁捷	4278
▁矛	4279
▁强行	4280
▁蝴蝶	4281
▁勉强	4282
▁阳台	4283
▁爱吃	4284
▁买房	4285
▁姬	4286
▁背后	4287
▁4.	4288
▁巡	4289
▁硕	4290
▁籽	4291
▁坦克	4292
▁满足	4293
▁业务	4294
▁壶	4295
大利	4296
▁传奇	4297
▁办理	4298
▁曼联	4299
▁海南	4300
▁服装	4301
▁好运	4302
▁鸽子	4303
▁肖	4304
▁东莞	4305
▁票房	4306
▁后卫	4307
▁大事	4308
▁宝石	4309
▁冲动	4310
▁520	4311
▁上下	4312
▁那年	4313
▁邮箱	4314
▁领养	4315
▁曝光	4316
▁教师	4317
▁绑定	4318
▁概率	4319
▁去掉	4320
▁缺点	4321
▁校长	4322
▁魏	4323
▁韦	4324
▁夺冠	4325
▁喝水	4326
▁vs	4327
▁文章	4328
▁则	4329
▁舞蹈	4330
vo	4331
▁坑爹	4332
▁发挥	4333
▁否则	4334
▁花花	4335
▁揭	4336
▁石家庄	4337
▁扇	4338
▁内部	4339
▁持续	4340
▁睡醒	4341
▁脑袋	4342
▁土木	4343
▁销量	4344
▁累死	4345
▁黑暗	4346
▁吻	4347
▁粥	4348
▁恩恩	4349
▁档次	4350
▁vi	4351
▁十万	4352
▁天真	4353
▁师大	4354
▁批发	4355
▁打字	4356
▁调整	4357
▁流浪	4358
▁地下	4359
▁火影	4360
▁疑问	4361
▁提问	4362
▁隐藏	4363
▁临时	4364
▁金色	4365
▁牛肉	4366
▁倒数	4367
▁好美	4368
▁行动	4369
▁幅	4370
▁信心	4371
▁钱包	4372
▁题目	4373
▁加速	4374
▁脑洞	4375
▁馒	4376
▁啃	4377
▁1200	4378
▁cpu	4379
▁128	4380
▁从此	4381
▁瘫	4382
▁季节	4383
▁无力	4384
▁用户	4385
▁好呀	4386
▁合同	4387
▁网速	4388
▁定制	4389
▁管用	4390
▁破解	4391
▁还剩	4392
▁桃花	4393
▁沃	4394
▁TM	4395
▁68	4396
▁企鹅	4397
▁生病	4398
其妙	4399
▁专辑	4400
▁校友	4401
▁植物	4402
▁古风	4403
▁链	4404
▁葫芦	4405
▁队伍	4406
▁运行	4407
▁感人	4408
▁规定	4409
▁莫名其妙	4410
▁屠	4411
▁程序	4412
▁馒头	4413
▁酒吧	4414
▁买车	4415
▁刷机	4416
▁江湖	4417
▁辉	4418
▁郎	4419
▁慎	4420
▁乳	4421
▁收视	4422
▁一觉	4423
▁金牛	4424
▁蔡	4425
▁南宁	4426
▁相同	4427
▁单独	4428
▁62	4429
▁光棍	4430
▁停电	4431
▁人数	4432
▁首发	4433
▁那位	4434
▁平衡	4435
▁媒体	4436
▁索尼	4437
▁57	4438
▁加盟	4439
▁补充	4440
▁尚	4441
▁盘点	4442
▁靓	4443
▁满意	4444
▁八字	4445
▁青铜	4446
▁情绪	4447
▁争取	4448
▁优先	4449
▁阿拉	4450
▁哩	4451
▁慕	4452
▁退货	4453
▁急求	4454
▁清晰	4455
▁亦	4456
▁赶快	4457
▁傲娇	4458
▁89	4459
▁乖乖	4460
▁仓鼠	4461
▁轩	4462
▁心痛	4463
▁赶脚	4464
▁鸣	4465
▁夸张	4466
▁热情	4467
▁网友	4468
▁泽	4469
▁ex	4470
▁同行	4471
▁潘	4472
▁被窝	4473
▁穆	4474
▁月亮	4475
▁泰迪	4476
▁再买	4477
▁铃	4478
▁上岸	4479
▁69	4480
▁行为	4481
▁剃	4482
▁拥抱	4483
▁日期	4484
▁洛阳	4485
▁悲剧	4486
▁芝	4487
▁蚊子	4488
▁时刻	4489
▁橘	4490
▁魔法	4491
▁桌面	4492
▁规则	4493
et	4494
▁岁月	4495
▁卖给	4496
▁活跃	4497
▁猫咪	4498
▁呼吸	4499
▁有限	4500
▁拐	4501
▁梨	4502
▁如今	4503
▁导演	4504
oot	4505
▁主力	4506
▁老虎	4507
at	4508
▁矫情	4509
▁泰国	4510
▁驴	4511
▁举牌	4512
ay	4513
▁朵	4514
▁天生	4515
▁节操	4516
▁哎呦	4517
▁姚	4518
▁指纹	4519
▁裁判	4520
▁动手	4521
▁绘	4522
▁相关	4523
▁浴	4524
▁噶	4525
▁崇	4526
▁家族	4527
▁替补	4528
▁哒哒	4529
▁伸手	4530
▁大约	4531
▁显得	4532
▁悠	4533
▁鹿晗	4534
▁槽	4535
▁牧	4536
▁陶	4537
▁道歉	4538
▁保修	4539
克力	4540
▁加点	4541
▁保存	4542
▁爷们	4543
▁获得	4544
▁中药	4545
▁感到	4546
▁ad	4547
▁剧场	4548
▁清理	4549
▁针对	4550
▁蜘	4551
▁公开	4552
▁纯洁	4553
▁工商	4554
▁段位	4555
▁逻	4556
▁一季	4557
▁骨头	4558
▁大量	4559
▁金属	4560
▁共同	4561
▁玉米	4562
▁翻车	4563
▁商家	4564
▁强势	4565
▁段子	4566
▁上床	4567
▁欢乐	4568
▁培养	4569
▁劳资	4570
▁蜘蛛	4571
▁证据	4572
▁主场	4573
▁沾	4574
▁周日	4575
▁一线	4576
▁势	4577
▁中华	4578
▁过敏	4579
▁神秘	4580
▁宁愿	4581
▁悟空	4582
▁逻辑	4583
▁驾驶	4584
▁450	4585
▁启动	4586
▁地理	4587
▁女性	4588
▁何时	4589
▁代价	4590
▁天秤	4591
▁网名	4592
▁鼓励	4593
▁涨价	4594
▁中超	4595
▁pl	4596
▁师父	4597
▁室内	4598
▁嫂	4599
▁对着	4600
▁关机	4601
▁准确	4602
▁童鞋	4603
▁骄	4604
▁舌	4605
▁出事	4606
▁普通话	4607
▁就该	4608
▁手游	4609
▁斜	4610
▁跳舞	4611
▁变形	4612
▁84	4613
▁抑	4614
▁鄙	4615
▁卫视	4616
▁奉	4617
▁毛钱	4618
▁黑人	4619
▁抄袭	4620
▁网店	4621
▁修改	4622
▁班长	4623
▁疫	4624
▁央	4625
▁直男	4626
▁2500	4627
▁柔	4628
▁重复	4629
▁羽毛	4630
▁袜子	4631
▁幼稚	4632
▁住在	4633
▁逮	4634
▁卸载	4635
▁晚饭	4636
ow	4637
▁发动机	4638
▁粉色	4639
▁高数	4640
▁十天	4641
▁极品	4642
▁下课	4643
▁极限	4644
▁翅	4645
▁更加	4646
▁将就	4647
▁阶段	4648
▁悄	4649
▁就叫	4650
▁叉	4651
▁仍	4652
▁掐	4653
▁福州	4654
▁周杰	4655
▁工地	4656
▁出国	4657
▁假货	4658
▁内涵	4659
▁厌	4660
▁公平	4661
▁法国	4662
▁进攻	4663
▁总结	4664
▁非洲	4665
▁马路	4666
▁套装	4667
▁美版	4668
▁自考	4669
▁高配	4670
▁为止	4671
▁地位	4672
▁八月	4673
▁维修	4674
▁那时	4675
▁幸好	4676
▁商城	4677
▁成色	4678
▁168	4679
▁押	4680
▁邀请	4681
12	4682
▁mm	4683
▁打折	4684
▁妻	4685
▁兴奋	4686
▁像素	4687
▁全程	4688
▁百合	4689
▁西藏	4690
▁完事	4691
▁人心	4692
▁浑	4693
▁扒皮	4694
oy	4695
▁起步	4696
▁万能	4697
▁哇塞	4698
▁巴黎	4699
▁睁	4700
▁停车	4701
▁棒子	4702
▁安心	4703
▁嗓	4704
▁收获	4705
▁模拟	4706
▁登录	4707
▁节日	4708
▁解放	4709
▁前途	4710
▁狐狸	4711
ei	4712
▁膝	4713
▁尊重	4714
▁两点	4715
▁祈	4716
▁埃	4717
es	4718
▁摸头	4719
▁软妹	4720
▁黎	4721
▁戒色	4722
go	4723
▁root	4724
▁内蒙	4725
▁背影	4726
▁路线	4727
▁协会	4728
▁ta	4729
▁63	4730
▁法律	4731
▁难听	4732
▁铁路	4733
▁皇帝	4734
▁部门	4735
▁奴	4736
PP	4737
▁刚来	4738
▁带来	4739
▁渡	4740
▁优酷	4741
▁魅力	4742
▁人人	4743
▁补课	4744
▁盯	4745
▁加强	4746
▁活该	4747
▁劫	4748
▁67	4749
▁整体	4750
▁皆	4751
▁衡	4752
▁逛街	4753
▁骑车	4754
▁主持	4755
▁援	4756
▁保养	4757
▁绣	4758
▁餐厅	4759
▁秃	4760
▁字体	4761
▁电气	4762
▁即可	4763
▁总之	4764
▁网易	4765
▁新车	4766
▁自学	4767
▁一模	4768
▁写完	4769
▁万年	4770
▁周杰伦	4771
▁后台	4772
▁动态	4773
▁现货	4774
▁夜班	4775
▁分别	4776
▁观察	4777
▁优化	4778
▁天然	4779
▁坨	4780
▁大王	4781
▁诚心	4782
▁字母	4783
▁五月	4784
▁月饼	4785
▁中央	4786
▁坚强	4787
▁许多	4788
▁七天	4789
▁某人	4790
▁登记	4791
▁俊	4792
▁斩	4793
▁77	4794
▁请假	4795
▁姓名	4796
▁手表	4797
▁机箱	4798
▁拍摄	4799
▁彼此	4800
▁兮	4801
▁一碗	4802
▁两种	4803
▁愿望	4804
▁班级	4805
▁跑路	4806
▁情缘	4807
▁头上	4808
▁178	4809
▁备胎	4810
ee	4811
▁奶粉	4812
▁750	4813
▁口水	4814
▁收集	4815
▁奢	4816
▁万达	4817
▁课程	4818
▁185	4819
mm	4820
▁奋斗	4821
▁广播	4822
▁半月	4823
▁科幻	4824
▁虫子	4825
▁世纪	4826
▁朴	4827
▁pp	4828
▁那儿	4829
▁泡面	4830
▁胜利	4831
▁手绘	4832
▁打野	4833
▁哎哟	4834
▁啵	4835
▁早饭	4836
▁蜀	4837
▁外援	4838
▁症状	4839
▁感激	4840
▁留名	4841
▁组团	4842
▁饿死	4843
▁敏感	4844
▁开启	4845
▁当地	4846
▁国服	4847
▁孟	4848
▁倒霉	4849
▁儿童	4850
▁同城	4851
▁三国	4852
▁秀秀	4853
▁大型	4854
▁英国	4855
▁咳咳	4856
▁责	4857
▁网通	4858
▁重装	4859
▁巧克力	4860
▁合格	4861
▁太原	4862
▁车站	4863
▁快速	4864
▁伤不起	4865
▁授	4866
▁拜仁	4867
▁每日	4868
▁祸	4869
▁吃饱	4870
▁一趟	4871
▁运费	4872
▁充值	4873
▁可乐	4874
▁镜子	4875
▁改名	4876
▁歧	4877
▁娇	4878
▁听话	4879
▁co	4880
▁叠	4881
▁87	4882
▁早晚	4883
▁观众	4884
▁明信	4885
▁耗电	4886
▁兜	4887
▁贾	4888
▁不知	4889
▁昌	4890
▁打卡	4891
▁风险	4892
▁寺	4893
▁大头	4894
▁明信片	4895
▁名额	4896
▁战队	4897
▁豆瓣	4898
▁面积	4899
▁心脏	4900
▁打分	4901
▁啦啦	4902
▁发贴	4903
▁丶	4904
▁单子	4905
▁YY	4906
▁温州	4907
罗斯	4908
▁早晨	4909
▁成员	4910
▁宁波	4911
▁实惠	4912
▁三中	4913
▁怨	4914
▁将来	4915
▁春节	4916
▁代言	4917
▁片子	4918
▁贡	4919
▁袁	4920
▁患	4921
▁可靠	4922
▁礼包	4923
▁上传	4924
▁腊	4925
▁烦恼	4926
▁女装	4927
▁两万	4928
▁报告	4929
▁矛盾	4930
▁*	4931
▁击	4932
▁欧巴	4933
▁栏	4934
▁刷新	4935
▁法师	4936
▁难怪	4937
▁补录	4938
▁微笑	4939
▁究竟	4940
BA	4941
▁见识	4942
▁小吃	4943
▁浪漫	4944
▁把握	4945
▁下水	4946
▁枝	4947
▁战士	4948
▁竞争	4949
▁政策	4950
▁妙	4951
▁柴	4952
▁底下	4953
▁骄傲	4954
▁83	4955
▁一秒	4956
▁漆	4957
▁商业	4958
▁无锡	4959
▁留给	4960
▁忧伤	4961
▁案	4962
▁熊猫	4963
▁前后	4964
▁发热	4965
▁快快	4966
▁补水	4967
▁悄悄	4968
▁鹰	4969
▁十六	4970
▁公斤	4971
▁洁	4972
▁阁	4973
▁半场	4974
▁理智	4975
▁马甲	4976
▁乙	4977
ry	4978
▁多肉	4979
▁奇艺	4980
▁入门	4981
▁发言	4982
▁歇	4983
▁暖气	4984
▁发表	4985
▁CPU	4986
▁界面	4987
▁婚纱	4988
▁冷静	4989
▁额度	4990
▁恐惧	4991
▁太帅	4992
▁拉拉	4993
▁能带	4994
▁实物	4995
▁头疼	4996
▁清明	4997
▁当天	4998
▁洗衣	4999
▁实用	5000
▁两位	5001
▁忽略	5002
▁打印	5003
▁保安	5004
▁十四	5005
▁战力	5006
▁但愿	5007
▁论文	5008
▁溜达	5009
▁雷锋	5010
▁食物	5011
▁晃	5012
▁模型	5013
▁润	5014
▁画质	5015
▁临床	5016
▁看不起	5017
▁整容	5018
▁那段	5019
▁随机	5020
▁出名	5021
▁潍	5022
▁海报	5023
▁坏人	5024
▁购物	5025
▁闯	5026
▁工厂	5027
li	5028
▁粘人	5029
▁百姓	5030
▁特色	5031
▁强烈	5032
▁抓紧	5033
▁芯	5034
▁奇迹	5035
▁支招	5036
▁前段	5037
▁选手	5038
▁体力	5039
▁上映	5040
▁蜡	5041
▁抛弃	5042
▁疫苗	5043
▁放过	5044
▁观点	5045
▁异性	5046
▁技巧	5047
▁霉	5048
▁棍	5049
▁诱惑	5050
▁吃肉	5051
▁长春	5052
▁彩虹	5053
▁聚会	5054
▁艰	5055
▁甜甜	5056
▁资金	5057
得及	5058
▁概念	5059
▁老妈	5060
▁运营	5061
▁人口	5062
▁核心	5063
▁隆	5064
vp	5065
▁吉林	5066
▁徐州	5067
▁邻居	5068
▁数量	5069
▁台词	5070
▁轴	5071
▁学渣	5072
▁肺	5073
▁主意	5074
▁假装	5075
▁敷	5076
▁十月	5077
▁人设	5078
▁只求	5079
▁饭店	5080
▁氧	5081
▁谦	5082
▁不仅	5083
▁忽然	5084
▁眉毛	5085
▁好冷	5086
▁思考	5087
▁开通	5088
▁下巴	5089
11	5090
▁乐视	5091
▁缠	5092
▁剧透	5093
▁三角	5094
▁素颜	5095
▁ch	5096
▁封面	5097
▁叭	5098
▁GT	5099
▁分配	5100
▁喷子	5101
ff	5102
▁完毕	5103
▁来得及	5104
▁183	5105
▁幻想	5106
▁理发	5107
▁汉服	5108
▁瘫痪	5109
▁尽管	5110
▁破坏	5111
▁爱国	5112
▁俗	5113
▁同人	5114
▁光头	5115
▁俄罗斯	5116
▁干脆	5117
▁抓住	5118
▁参与	5119
▁翘	5120
▁天才	5121
▁开业	5122
▁功夫	5123
▁信任	5124
▁复试	5125
▁建设	5126
▁野生	5127
▁交换	5128
▁员工	5129
▁全场	5130
▁潇	5131
▁声控	5132
▁瑕	5133
▁兰州	5134
▁还给	5135
▁约会	5136
▁无脑	5137
▁天赋	5138
▁冰箱	5139
▁还原	5140
▁维护	5141
▁一篇	5142
▁渐	5143
▁解说	5144
▁650	5145
▁桐	5146
▁下场	5147
▁路口	5148
▁平板	5149
▁求学	5150
▁乌龟	5151
▁凉快	5152
▁退役	5153
▁嘤	5154
▁菩	5155
▁瓜子	5156
▁交钱	5157
▁plus	5158
▁膝盖	5159
▁东京	5160
▁再来	5161
▁个性	5162
▁仰	5163
▁小鱼	5164
▁123	5165
▁中奖	5166
▁薛	5167
▁何况	5168
▁手残	5169
▁盼	5170
▁闲着	5171
▁认证	5172
▁湘	5173
▁退出	5174
▁饮料	5175
▁命运	5176
▁跟风	5177
▁符号	5178
aby	5179
▁晚会	5180
▁磁	5181
▁过节	5182
▁280	5183
▁文明	5184
▁水军	5185
▁大招	5186
▁辣椒	5187
▁86	5188
▁唇	5189
▁战场	5190
ac	5191
▁放学	5192
▁迅	5193
▁沧	5194
▁牙齿	5195
▁订单	5196
▁低于	5197
▁安稳	5198
▁模糊	5199
▁螺丝	5200
▁相比	5201
▁下车	5202
▁西游	5203
▁会长	5204
▁嫁给	5205
▁备注	5206
▁趟	5207
▁人士	5208
▁伤感	5209
▁借钱	5210
▁称呼	5211
▁误会	5212
▁帝国	5213
▁樱花	5214
▁EX	5215
▁小新	5216
▁后宫	5217
▁做工	5218
▁沉默	5219
▁师妹	5220
▁陷	5221
▁司马	5222
▁黑龙江	5223
▁82	5224
▁地主	5225
▁时尚	5226
▁柱	5227
▁买票	5228
▁棋	5229
▁盲	5230
▁庆祝	5231
▁寡	5232
▁蛤	5233
▁左手	5234
▁和好	5235
▁早睡	5236
▁每月	5237
▁唠嗑	5238
▁工大	5239
▁珠子	5240
▁瓶子	5241
▁灰色	5242
▁交警	5243
▁阴阳	5244
▁柠	5245
▁一方	5246
▁地狱	5247
▁iphone	5248
▁柯南	5249
▁抑郁	5250
▁意大利	5251
▁发烧	5252
▁跑到	5253
▁伟大	5254
▁证书	5255
90	5256
▁一盒	5257
▁承受	5258
▁皂	5259
▁字幕	5260
▁科大	5261
▁炖	5262
▁途	5263
▁巨人	5264
▁骚年	5265
op	5266
▁鹅	5267
▁传统	5268
▁激情	5269
▁爆出	5270
▁歧视	5271
▁彭	5272
▁妈呀	5273
▁艳	5274
▁右手	5275
▁朕	5276
▁网页	5277
▁借口	5278
▁楼层	5279
▁投档	5280
▁无爱	5281
▁人工	5282
▁TA	5283
▁规矩	5284
as	5285
▁蘑	5286
▁三月	5287
▁守护	5288
▁就让	5289
▁晚点	5290
▁190	5291
▁博士	5292
▁登陆	5293
▁渠	5294
▁闪电	5295
▁浏	5296
▁童年	5297
▁肛	5298
▁到期	5299
▁亚洲	5300
▁挥	5301
▁智能	5302
▁大巴	5303
▁大理	5304
▁描述	5305
▁BB	5306
▁报价	5307
▁对待	5308
▁枚	5309
▁原著	5310
▁由于	5311
▁愧	5312
▁直到	5313
▁相互	5314
▁喝茶	5315
▁好笑	5316
▁真棒	5317
▁从未	5318
▁佬	5319
TV	5320
▁收购	5321
▁选修	5322
▁orz	5323
▁奥特	5324
▁蕾	5325
▁崔	5326
▁造成	5327
一样	5328
▁一模一样	5329
▁益	5330
▁纵	5331
▁股票	5332
▁牡	5333
▁利息	5334
▁丽江	5335
▁三观	5336
▁临沂	5337
▁天涯	5338
▁翅膀	5339
▁碳	5340
▁勇敢	5341
▁伏	5342
▁仇恨	5343
▁律	5344
▁印度	5345
▁玩意儿	5346
▁新款	5347
▁酸奶	5348
▁全集	5349
▁霸道	5350
▁友谊	5351
▁十七	5352
▁编剧	5353
▁保健	5354
▁指望	5355
▁盗版	5356
▁飞行	5357
▁尘	5358
▁文学	5359
▁客观	5360
▁和尚	5361
▁弱智	5362
▁全面	5363
▁挂机	5364
▁分辨	5365
▁蘑菇	5366
▁路边	5367
▁紫色	5368
▁僵尸	5369
▁re	5370
▁反馈	5371
▁人们	5372
▁将军	5373
▁潍坊	5374
▁集合	5375
▁进化	5376
▁三方	5377
▁短袖	5378
▁普遍	5379
▁删掉	5380
▁胳	5381
▁四大	5382
▁帧	5383
▁畅	5384
▁瑕疵	5385
▁后续	5386
▁疾	5387
▁导航	5388
▁枣	5389
▁回收	5390
▁全球	5391
▁您好	5392
▁前锋	5393
88	5394
▁天冷	5395
▁长久	5396
▁审美	5397
▁福袋	5398
▁me	5399
ui	5400
▁1080	5401
▁用完	5402
▁释	5403
▁商店	5404
▁清华	5405
▁专卖	5406
▁碎片	5407
▁瑟	5408
▁主义	5409
▁顶级	5410
▁瓷	5411
▁baby	5412
▁哀	5413
▁什	5414
▁现象	5415
▁上市	5416
▁单挑	5417
▁模特	5418
▁高度	5419
▁交往	5420
▁mo	5421
▁现金	5422
▁公路	5423
▁分钱	5424
▁孙子	5425
▁摆摊	5426
▁躺着	5427
▁图标	5428
▁刹车	5429
▁瞎说	5430
▁始终	5431
▁浦	5432
▁尝尝	5433
▁穿过	5434
▁判断	5435
▁求救	5436
▁涉	5437
▁婚礼	5438
▁盗墓	5439
▁母亲	5440
▁捕	5441
▁提到	5442
▁成品	5443
▁耽	5444
▁抚	5445
▁高点	5446
▁失误	5447
▁山寨	5448
▁很丑	5449
▁交给	5450
▁度过	5451
▁调皮	5452
▁饭卡	5453
▁热门	5454
▁朗	5455
▁硬件	5456
al	5457
▁屏蔽	5458
▁3500	5459
▁专用	5460
▁急需	5461
▁重修	5462
▁菠	5463
▁下山	5464
▁侵	5465
▁老爸	5466
▁黄瓜	5467
▁后果	5468
▁自制	5469
▁膏	5470
▁退伍	5471
▁太太	5472
麒麟	5473
40	5474
▁作文	5475
▁基因	5476
▁大洋	5477
▁共享	5478
▁两边	5479
利亚	5480
▁江南	5481
▁亡	5482
▁留学	5483
▁痕	5484
▁核桃	5485
▁冲突	5486
▁造价	5487
▁中专	5488
▁原版	5489
▁鄙视	5490
▁道具	5491
▁卓	5492
▁nb	5493
▁明月	5494
▁夫妻	5495
▁齐全	5496
▁不必	5497
▁以来	5498
▁人和	5499
▁从头	5500
▁长安	5501
▁菊	5502
▁归来	5503
▁台风	5504
▁好找	5505
▁胳膊	5506
▁情节	5507
▁规划	5508
▁大胆	5509
▁大帝	5510
▁耀	5511
▁叫做	5512
ps	5513
▁宝马	5514
▁吸血	5515
▁关门	5516
▁哑	5517
▁引起	5518
基亚	5519
▁恶魔	5520
▁放到	5521
▁暧	5522
▁效率	5523
▁关闭	5524
▁轨	5525
▁生存	5526
▁地震	5527
▁漫展	5528
▁英超	5529
▁芳	5530
▁台式	5531
▁min	5532
▁冯	5533
▁渴	5534
▁1800	5535
▁四月	5536
▁学前	5537
▁米兰	5538
▁丐	5539
▁烟台	5540
▁架子	5541
▁行李	5542
▁忒	5543
▁枕	5544
▁蒂	5545
▁出道	5546
▁责任	5547
▁友情	5548
▁香蕉	5549
▁定义	5550
▁he	5551
▁双排	5552
▁锁屏	5553
▁钢琴	5554
▁坎	5555
▁大伙	5556
▁狙	5557
▁载	5558
▁正宗	5559
▁考场	5560
▁著	5561
▁谨	5562
▁近期	5563
▁龙珠	5564
▁牡丹	5565
▁进口	5566
▁长高	5567
▁粒	5568
▁嫖	5569
▁修车	5570
▁on	5571
▁境界	5572
▁捧场	5573
▁豪华	5574
▁肤	5575
▁硬伤	5576
▁诺基亚	5577
▁品质	5578
▁父亲	5579
▁网盘	5580
▁三大	5581
▁入学	5582
▁嗓子	5583
ao	5584
▁油耗	5585
▁浏览	5586
▁敢问	5587
▁天上	5588
▁迟早	5589
▁推送	5590
▁须	5591
▁丈	5592
▁百年	5593
▁两句	5594
▁战术	5595
▁颠	5596
▁豹	5597
▁降级	5598
▁中毒	5599
▁阴影	5600
▁哈喽	5601
▁和平	5602
▁退款	5603
▁巴掌	5604
▁出差	5605
▁富士	5606
▁映	5607
▁招呼	5608
▁专柜	5609
▁so	5610
▁折磨	5611
▁扯淡	5612
▁嘲讽	5613
▁梦到	5614
▁迁	5615
▁一脚	5616
▁端午	5617
▁73	5618
▁标志	5619
▁76	5620
▁柏	5621
▁薇	5622
▁扁	5623
▁中场	5624
▁海军	5625
▁尽力	5626
▁挖掘	5627
▁难以	5628
▁食品	5629
▁球衣	5630
▁点点	5631
▁网址	5632
▁老弟	5633
▁垂	5634
▁放手	5635
▁认得	5636
▁暧昧	5637
▁蚂	5638
▁开口	5639
▁栽	5640
▁需求	5641
▁秋天	5642
▁晶	5643
▁暴击	5644
▁悦	5645
▁评分	5646
▁高跟	5647
▁丰富	5648
▁华硕	5649
▁忍住	5650
▁杨洋	5651
▁大道	5652
▁口红	5653
▁走过	5654
▁瑜	5655
▁代码	5656
克斯	5657
▁疤	5658
▁五毛	5659
▁废物	5660
▁绳	5661
▁至尊	5662
▁逾	5663
▁二级	5664
▁颖	5665
▁韵	5666
▁放松	5667
▁火星	5668
▁原本	5669
▁近视	5670
▁155	5671
▁脂	5672
▁心灵	5673
▁赣	5674
▁其余	5675
▁命中	5676
▁排行	5677
▁春晚	5678
▁查查	5679
▁碟	5680
▁积极	5681
▁强制	5682
▁贡献	5683
▁巫	5684
▁文笔	5685
▁场景	5686
▁饮食	5687
▁懂事	5688
▁踢球	5689
▁靠近	5690
▁主任	5691
▁夕	5692
▁打人	5693
▁婷	5694
▁小猫	5695
▁及格	5696
▁欺骗	5697
▁亲戚	5698
▁公分	5699
▁传销	5700
▁古代	5701
▁饰	5702
▁限定	5703
▁深深	5704
▁莫非	5705
▁雷霆	5706
▁膜拜	5707
▁甘肃	5708
▁艾玛	5709
▁被虐	5710
▁配音	5711
▁康复	5712
▁拨	5713
▁优越	5714
▁只好	5715
▁欧美	5716
▁申花	5717
▁集体	5718
▁莉	5719
▁杨幂	5720
▁机构	5721
▁殿	5722
▁模仿	5723
▁穷人	5724
▁蝎	5725
▁vx	5726
▁爱过	5727
▁沟通	5728
▁外星	5729
▁公安	5730
▁六级	5731
▁单曲	5732
▁日记	5733
▁瞅瞅	5734
▁动车	5735
▁看清	5736
▁策划	5737
▁学位	5738
▁农民	5739
▁钉	5740
▁敬业	5741
▁阿根	5742
▁点击	5743
▁完蛋	5744
▁迟到	5745
▁大雨	5746
▁哈登	5747
▁考证	5748
▁水笔	5749
▁买好	5750
▁盖楼	5751
▁中山	5752
▁表妹	5753
▁荆	5754
▁臂	5755
▁预售	5756
▁喇	5757
▁加工	5758
▁冥	5759
▁听见	5760
▁逗逼	5761
▁一支	5762
▁锋	5763
▁早已	5764
▁包养	5765
▁专家	5766
▁公共	5767
▁感染	5768
▁过期	5769
▁弗	5770
▁美白	5771
▁骑行	5772
▁嘟	5773
▁相遇	5774
▁利用	5775
▁表哥	5776
▁当成	5777
▁黏	5778
▁沪	5779
▁拍卖	5780
▁论坛	5781
▁助手	5782
▁祛	5783
ai	5784
▁织	5785
▁放大	5786
▁使劲	5787
▁遛	5788
▁夜猫	5789
▁小刀	5790
▁倒闭	5791
▁难吃	5792
▁公子	5793
▁病毒	5794
▁邪恶	5795
▁阿里	5796
▁阿根廷	5797
▁不良	5798
▁水货	5799
▁炼	5800
▁心思	5801
▁计时	5802
▁贴膜	5803
▁出口	5804
▁知足	5805
▁you	5806
▁制造	5807
▁卖出	5808
▁小黑	5809
▁跑分	5810
▁好丑	5811
▁愚	5812
七八	5813
不觉	5814
▁不知不觉	5815
▁钩	5816
▁丝袜	5817
▁奸	5818
▁贩	5819
▁单反	5820
▁拽	5821
▁an	5822
▁sp	5823
▁550	5824
▁振	5825
▁天堂	5826
▁险	5827
▁SB	5828
▁cf	5829
▁牛仔	5830
▁副本	5831
▁乔丹	5832
▁上瘾	5833
▁师弟	5834
▁厂家	5835
▁经理	5836
▁老年	5837
▁搭理	5838
▁己	5839
▁午饭	5840
▁拜拜	5841
▁最早	5842
▁剁手	5843
▁战绩	5844
▁太热	5845
▁爱心	5846
▁太早	5847
▁御姐	5848
▁精英	5849
▁被偷	5850
▁彩票	5851
▁后排	5852
▁东东	5853
▁想死	5854
▁焊	5855
▁走路	5856
▁总裁	5857
▁211	5858
▁纯属	5859
▁鳄	5860
▁阜	5861
▁落后	5862
▁征集	5863
▁藤	5864
▁李易	5865
▁总共	5866
▁私人	5867
▁尸体	5868
▁自提	5869
▁1600	5870
▁车祸	5871
▁六月	5872
▁优点	5873
▁花生	5874
▁蜗	5875
▁马赛	5876
▁柠檬	5877
▁反对	5878
▁虚拟	5879
ie	5880
▁李易峰	5881
▁暖和	5882
▁揉	5883
▁才叫	5884
▁十字	5885
▁捂	5886
▁竞技	5887
▁频道	5888
▁恐怕	5889
▁网游	5890
▁查询	5891
▁安逸	5892
▁震惊	5893
▁380	5894
▁逛逛	5895
▁沦	5896
▁表面	5897
▁逾期	5898
▁每周	5899
▁轻易	5900
▁龙虾	5901
▁产生	5902
▁天地	5903
▁总算	5904
15	5905
▁枯	5906
▁央视	5907
▁下降	5908
▁标配	5909
▁卡卡	5910
▁肠胃	5911
▁老王	5912
▁花开	5913
▁翻新	5914
▁综艺	5915
▁国足	5916
▁成人	5917
▁79	5918
▁毅	5919
▁970	5920
▁兑换	5921
▁部落	5922
▁果实	5923
▁梦幻	5924
ke	5925
▁抽奖	5926
▁顺序	5927
▁双手	5928
▁乎	5929
▁封号	5930
▁弹幕	5931
▁组装	5932
▁口腔	5933
▁翼	5934
▁所在	5935
▁素材	5936
▁崽	5937
▁相似	5938
▁农历	5939
▁多远	5940
▁道德	5941
▁仅仅	5942
▁板凳	5943
▁随手	5944
▁用品	5945
▁gt	5946
▁冒险	5947
▁新开	5948
▁月薪	5949
▁癌	5950
▁羊肉	5951
▁回合	5952
▁制服	5953
▁延迟	5954
▁发财	5955
▁按摩	5956
▁渠道	5957
▁古装	5958
▁照相	5959
▁劳动	5960
▁放开	5961
▁兆	5962
▁侮	5963
▁阅读	5964
▁剧本	5965
▁手办	5966
▁得分	5967
▁列表	5968
▁辰	5969
▁锐	5970
▁大赛	5971
▁对话	5972
▁嘲笑	5973
▁笑笑	5974
▁弥	5975
▁陈奕	5976
▁改造	5977
▁冤	5978
▁冷门	5979
▁mate	5980
▁坟	5981
▁爵	5982
▁be	5983
▁米饭	5984
▁多次	5985
▁包包	5986
▁侮辱	5987
▁嫂子	5988
ch	5989
▁今早	5990
▁马刺	5991
▁一体	5992
▁南阳	5993
▁迫	5994
▁自卑	5995
▁大白	5996
▁拆迁	5997
▁奥运	5998
▁番外	5999
▁相爱	6000
▁及时	6001
▁上场	6002
▁遵	6003
▁方案	6004
gh	6005
▁沐	6006
▁沿	6007
▁斗鱼	6008
▁胡说	6009
▁动静	6010
▁理性	6011
▁菇	6012
▁定期	6013
▁周四	6014
▁影视	6015
▁荷兰	6016
▁费劲	6017
▁集团	6018
▁举手	6019
▁基地	6020
▁方言	6021
▁乾	6022
▁喉	6023
▁嘘	6024
▁ed	6025
▁机票	6026
▁樱桃	6027
▁电瓶	6028
▁可信	6029
▁枫	6030
▁舅	6031
▁西北	6032
▁点球	6033
▁打听	6034
▁捣	6035
▁睿	6036
▁li	6037
▁逆天	6038
▁iOS	6039
▁澳门	6040
▁太平	6041
▁特点	6042
▁北大	6043
▁耽误	6044
▁陈奕迅	6045
▁粪	6046
▁少数	6047
▁神仙	6048
▁山地	6049
▁手套	6050
▁一笑	6051
▁胡歌	6052
▁网线	6053
▁缩写	6054
▁慈	6055
▁治愈	6056
▁衬衫	6057
▁在校	6058
▁老夫	6059
▁158	6060
▁财务	6061
▁乱七八	6062
▁罗马	6063
▁冻死	6064
14	6065
▁之外	6066
▁只用	6067
▁白白	6068
▁水印	6069
▁变身	6070
▁储	6071
▁胃口	6072
▁咋整	6073
▁驻	6074
▁泡泡	6075
▁卖掉	6076
▁电梯	6077
▁珍珠	6078
▁乡下	6079
▁上帝	6080
▁乒	6081
▁之路	6082
▁贵阳	6083
▁打针	6084
▁周三	6085
▁唐山	6086
▁行情	6087
▁省内	6088
▁APP	6089
▁掩	6090
▁乱七八糟	6091
▁强化	6092
▁魔兽	6093
▁册	6094
▁携	6095
▁240	6096
▁铭	6097
▁洗脑	6098
▁真诚	6099
▁从前	6100
▁五星	6101
▁纯粹	6102
▁银色	6103
▁正义	6104
▁车牌	6105
▁这块	6106
▁往下	6107
▁小子	6108
▁亲友	6109
▁开房	6110
▁深渊	6111
▁覆	6112
tv	6113
▁创造	6114
▁弃坑	6115
▁住院	6116
▁森林	6117
▁太冷	6118
▁序	6119
▁收留	6120
▁板子	6121
▁置	6122
▁毛衣	6123
▁人肉	6124
▁粽	6125
▁悲催	6126
▁mx	6127
▁美容	6128
ver	6129
▁TV	6130
▁次数	6131
▁赞同	6132
▁励	6133
▁桂林	6134
▁赵丽	6135
▁外省	6136
▁当真	6137
▁限量	6138
▁马克	6139
▁物品	6140
▁找回	6141
▁席	6142
▁噩	6143
▁机油	6144
▁高达	6145
▁严肃	6146
▁小鸟	6147
▁很早	6148
▁侄	6149
▁吃亏	6150
▁集中	6151
▁过气	6152
▁终究	6153
▁峰峰	6154
▁wh	6155
▁虹	6156
▁教训	6157
▁220	6158
▁弄好	6159
▁远离	6160
▁鸭子	6161
▁禁止	6162
▁影子	6163
▁椅	6164
▁噫	6165
▁西班	6166
▁出血	6167
▁情商	6168
▁西班牙	6169
▁美颜	6170
千骨	6171
▁MV	6172
▁铲	6173
▁城管	6174
▁塘	6175
▁辨	6176
▁cc	6177
▁称号	6178
▁授权	6179
▁说事	6180
▁昵	6181
▁深刻	6182
▁口袋	6183
▁祝贺	6184
▁瑶	6185
▁袖	6186
▁犀	6187
▁腐女	6188
▁匆	6189
▁猩	6190
▁跳楼	6191
▁俩人	6192
▁翡	6193
▁庙	6194
▁芽	6195
▁1300	6196
▁魔王	6197
▁反复	6198
▁位数	6199
▁子弹	6200
▁威武	6201
▁学车	6202
▁厨房	6203
▁抵抗	6204
▁力气	6205
▁蛋白	6206
▁直视	6207
▁马赛克	6208
▁谷歌	6209
▁未必	6210
▁步行	6211
▁家具	6212
▁吱	6213
▁元素	6214
▁番茄	6215
▁砂	6216
▁花千骨	6217
▁结构	6218
▁拉屎	6219
▁条狗	6220
▁多余	6221
▁请客	6222
▁衰	6223
▁张家	6224
▁韩剧	6225
▁反弹	6226
▁烦躁	6227
▁大气	6228
▁酱紫	6229
▁橡	6230
▁天王	6231
▁卑	6232
▁亲自	6233
▁他人	6234
▁威胁	6235
▁杯子	6236
▁泳	6237
▁麒麟	6238
▁向上	6239
▁赵丽颖	6240
▁询	6241
▁别扭	6242
▁监控	6243
▁预计	6244
▁记者	6245
▁盈	6246
▁芙	6247
▁纪录	6248
▁捆	6249
▁商场	6250
兰特	6251
▁电量	6252
▁铝	6253
▁内地	6254
▁奥特曼	6255
▁选项	6256
▁三轮	6257
▁爪子	6258
▁螃	6259
▁黑屋	6260
▁越南	6261
▁单车	6262
▁岗位	6263
▁马云	6264
▁在于	6265
▁流水	6266
▁拿出	6267
▁晋级	6268
▁被动	6269
▁剂	6270
ly	6271
▁档案	6272
▁泛	6273
▁夫人	6274
▁轮胎	6275
▁加价	6276
▁黄牛	6277
▁战友	6278
▁自用	6279
▁通用	6280
▁万分	6281
▁猫猫	6282
▁戈	6283
▁扮	6284
▁保定	6285
▁每人	6286
▁房租	6287
▁诈	6288
▁妃	6289
▁热爱	6290
▁扬州	6291
▁钢化	6292
▁上火	6293
▁太子	6294
▁州	6295
▁热度	6296
▁证件	6297
▁刺客	6298
▁小事	6299
▁恕	6300
▁74	6301
▁开封	6302
▁气氛	6303
▁买家	6304
▁人性	6305
▁克制	6306
▁得罪	6307
▁dota	6308
▁出处	6309
▁鸣人	6310
▁令人	6311
▁琪	6312
▁车架	6313
▁面板	6314
▁光明	6315
▁198	6316
▁螃蟹	6317
▁指挥	6318
▁mini	6319
▁自助	6320
▁打扮	6321
▁透露	6322
▁125	6323
▁ins	6324
▁人机	6325
▁做事	6326
▁励志	6327
▁捅	6328
▁电机	6329
▁教授	6330
▁粉红	6331
▁进度	6332
▁如意	6333
▁睡眠	6334
▁二战	6335
▁音质	6336
▁决心	6337
▁醒醒	6338
▁985	6339
▁必然	6340
▁线路	6341
▁受到	6342
▁怕怕	6343
▁婴	6344
▁960	6345
▁牢	6346
▁EXO	6347
▁馅	6348
▁汁	6349
▁翠	6350
▁缴	6351
▁岩	6352
▁定金	6353
▁奏	6354
▁仓库	6355
▁彩礼	6356
▁260	6357
▁公会	6358
▁群众	6359
▁雷神	6360
▁西南	6361
▁kg	6362
▁亚冠	6363
▁地板	6364
▁推广	6365
▁乐意	6366
▁体质	6367
▁常州	6368
▁结尾	6369
▁七年	6370
▁上路	6371
▁箭	6372
▁蝶	6373
▁缺钱	6374
▁三人	6375
ala	6376
▁改装	6377
▁嘴里	6378
▁感慨	6379
▁擅	6380
lay	6381
▁好坏	6382
▁个别	6383
▁点评	6384
▁转移	6385
▁马尾	6386
▁同步	6387
▁tm	6388
▁初始	6389
▁娜娜	6390
▁平方	6391
▁死神	6392
▁大力	6393
▁曼城	6394
▁西部	6395
▁转会	6396
▁新版	6397
▁大门	6398
▁咕	6399
▁里边	6400
▁投入	6401
▁排除	6402
▁橘子	6403
▁祖国	6404
▁悲哀	6405
▁小组	6406
ah	6407
▁多看	6408
▁网购	6409
▁航空	6410
▁胜率	6411
▁全职	6412
▁湖人	6413
▁结合	6414
▁卷子	6415
▁开店	6416
▁平胸	6417
▁快手	6418
不尽	6419
▁救救	6420
▁AD	6421
▁状况	6422
▁172	6423
▁海边	6424
▁吨	6425
▁蜂蜜	6426
▁椰	6427
▁人头	6428
▁翻墙	6429
▁偏偏	6430
▁吴亦	6431
▁海鲜	6432
▁吴亦凡	6433
▁啪啪	6434
▁诚信	6435
▁噩梦	6436
iss	6437
▁荡	6438
▁发抖	6439
▁徽	6440
▁互动	6441
▁马桶	6442
▁滋	6443
▁座位	6444
▁权限	6445
▁截止	6446
▁剑三	6447
▁尤文	6448
▁堡	6449
▁睡前	6450
富帅	6451
▁淫	6452
▁翡翠	6453
▁71	6454
▁昵称	6455
▁洒	6456
▁改善	6457
▁门将	6458
▁馋	6459
▁激光	6460
▁渔	6461
▁严格	6462
▁激素	6463
▁随缘	6464
▁芦	6465
▁季后	6466
▁胆子	6467
▁叽	6468
▁杂志	6469
▁天后	6470
▁利益	6471
▁同情	6472
▁季后赛	6473
▁议	6474
▁单词	6475
▁柜子	6476
▁详情	6477
▁葛	6478
▁发达	6479
▁坚决	6480
▁平民	6481
▁探讨	6482
▁收益	6483
▁醋	6484
▁诸葛	6485
oc	6486
▁定时	6487
▁年度	6488
▁战神	6489
▁雀	6490
▁果子	6491
▁鲤	6492
▁财经	6493
▁low	6494
▁比比	6495
▁蒋	6496
▁玛丽	6497
it	6498
▁萨摩	6499
▁添加	6500
▁认错	6501
▁做成	6502
▁480	6503
▁飙	6504
▁幽默	6505
▁炒作	6506
▁勋	6507
▁损失	6508
▁by	6509
▁坑人	6510
▁下架	6511
▁爆料	6512
▁泸	6513
▁将近	6514
▁鞭	6515
▁喇叭	6516
▁炫耀	6517
▁项链	6518
▁化工	6519
▁凹	6520
▁报销	6521
▁能干	6522
▁ds	6523
▁时装	6524
▁浑身	6525
▁球场	6526
▁看得	6527
▁谦虚	6528
▁葱	6529
▁函	6530
▁开水	6531
▁思维	6532
▁王道	6533
▁坡	6534
▁亲人	6535
▁体型	6536
▁典型	6537
▁一串	6538
▁豆豆	6539
▁配色	6540
▁矮子	6541
▁预科	6542
▁双方	6543
▁打败	6544
▁上升	6545
▁香水	6546
▁育	6547
▁领取	6548
▁首付	6549
▁千里	6550
▁经管	6551
▁妨	6552
▁甩卖	6553
▁签约	6554
▁合照	6555
▁采访	6556
▁版权	6557
▁自主	6558
▁NBA	6559
▁芭	6560
▁茅	6561
▁体现	6562
▁自身	6563
▁终结	6564
▁肩膀	6565
▁地摊	6566
▁重生	6567
▁构	6568
▁蚂蚁	6569
▁鹤	6570
▁任意	6571
▁棕	6572
▁资本	6573
▁舌头	6574
▁吃醋	6575
▁夜晚	6576
▁告别	6577
cm	6578
▁眼中	6579
▁上单	6580
▁抱怨	6581
▁凛	6582
▁精力	6583
▁谱	6584
▁预订	6585
▁菜鸟	6586
▁糙	6587
▁tv	6588
▁一战	6589
re	6590
▁逐	6591
▁CD	6592
▁丫头	6593
▁默认	6594
▁代替	6595
▁杏	6596
▁淑	6597
▁事故	6598
▁大圣	6599
▁真题	6600
▁梦见	6601
▁廉	6602
▁榴	6603
16	6604
▁帐号	6605
▁人均	6606
▁恶人	6607
▁海洋	6608
▁堕	6609
▁撒娇	6610
▁省钱	6611
▁大同	6612
▁低端	6613
▁狂魔	6614
▁送货	6615
▁潜力	6616
比亚	6617
▁剥	6618
▁公告	6619
▁占有	6620
▁杜兰特	6621
▁新浪	6622
▁轻轻	6623
▁阿森	6624
▁疲	6625
▁感想	6626
▁正太	6627
▁边框	6628
▁监督	6629
▁开关	6630
▁非诚	6631
▁做出	6632
▁陪同	6633
▁骚扰	6634
▁血统	6635
▁愤	6636
▁兼容	6637
▁出厂	6638
▁反感	6639
▁长城	6640
▁中分	6641
▁兔兔	6642
▁一类	6643
▁小花	6644
▁佛山	6645
▁老爷	6646
▁鲨	6647
▁复合	6648
▁权利	6649
▁玲	6650
▁写字	6651
▁情感	6652
▁短裤	6653
▁底线	6654
▁口碑	6655
▁必备	6656
▁钢铁	6657
▁店家	6658
物浦	6659
▁看待	6660
▁咬人	6661
▁候	6662
▁来啦	6663
▁恶意	6664
▁洗头	6665
▁发出	6666
▁汉化	6667
▁利物浦	6668
▁联合	6669
▁财运	6670
▁息	6671
▁把手	6672
▁韦德	6673
▁劈	6674
▁铂	6675
▁繁殖	6676
▁谨慎	6677
▁握手	6678
▁特价	6679
▁MI	6680
▁校花	6681
▁GD	6682
▁专属	6683
▁此刻	6684
▁污染	6685
▁淹	6686
▁礼貌	6687
▁万人	6688
▁墨迹	6689
▁晴天	6690
▁舞台	6691
▁碾	6692
▁相差	6693
▁见谅	6694
▁屯	6695
▁务	6696
▁东南	6697
▁装饰	6698
▁领先	6699
▁买卖	6700
▁代练	6701
▁导师	6702
▁绵阳	6703
▁熏	6704
▁加成	6705
▁笔试	6706
▁队员	6707
▁语气	6708
▁简介	6709
▁美剧	6710
▁莎	6711
▁活捉	6712
▁讲话	6713
▁拌	6714
▁谭	6715
▁降低	6716
▁哔	6717
▁模样	6718
▁书记	6719
▁外表	6720
▁幂	6721
▁怡	6722
▁淡淡	6723
▁跑男	6724
▁柚	6725
▁断电	6726
▁充满	6727
▁囧	6728
▁疙	6729
▁各自	6730
▁188	6731
▁拼车	6732
▁祖宗	6733
▁西门	6734
▁心碎	6735
▁搁	6736
▁民谣	6737
▁108	6738
▁PK	6739
▁上衣	6740
▁奈何	6741
▁本质	6742
um	6743
▁正脸	6744
▁保留	6745
▁养老	6746
▁法学	6747
▁迷人	6748
▁vivo	6749
▁患者	6750
▁围巾	6751
▁仿佛	6752
▁高富帅	6753
▁院校	6754
▁监狱	6755
▁一言	6756
▁停止	6757
▁重量	6758
▁女方	6759
▁姆	6760
▁能发	6761
▁光线	6762
▁凝	6763
▁避免	6764
▁消耗	6765
▁打车	6766
▁场地	6767
▁贞	6768
▁苟	6769
▁南山	6770
▁献给	6771
▁拼命	6772
▁aj	6773
▁露脸	6774
▁评测	6775
▁重置	6776
▁熄	6777
▁星空	6778
▁试卷	6779
▁按键	6780
▁羽绒	6781
▁八一	6782
ut	6783
▁奶妈	6784
▁欧文	6785
▁频率	6786
▁规律	6787
▁乒乓	6788
▁潇洒	6789
▁ing	6790
冰冰	6791
▁稻	6792
▁擅长	6793
▁菠萝	6794
▁灾	6795
▁慢热	6796
▁通信	6797
▁~	6798
▁两把	6799
▁散步	6800
▁盯着	6801
▁窗户	6802
▁粽子	6803
▁轮回	6804
▁外号	6805
▁小黄	6806
▁残忍	6807
▁疙瘩	6808
18	6809
▁省电	6810
▁囤	6811
▁仲	6812
▁纽	6813
▁商品	6814
▁主页	6815
▁养成	6816
▁嘉宾	6817
▁182	6818
▁明确	6819
▁门派	6820
▁忍者	6821
▁乞	6822
▁宰	6823
▁合影	6824
▁特产	6825
▁恋人	6826
▁斧	6827
▁信誉	6828
ga	6829
▁南通	6830
▁大于	6831
▁莲花	6832
▁握爪	6833
▁硅	6834
▁拿走	6835
▁车票	6836
▁保佑	6837
▁哈尔	6838
▁派出	6839
▁面条	6840
▁小店	6841
▁SS	6842
▁小人	6843
▁通关	6844
IF	6845
▁万岁	6846
尔西	6847
▁猎人	6848
▁爬山	6849
▁女士	6850
▁屈	6851
▁修炼	6852
▁th	6853
▁屋里	6854
▁宣布	6855
▁大会	6856
▁回国	6857
▁新机	6858
▁半价	6859
▁上色	6860
▁踹	6861
▁货源	6862
▁防御	6863
▁暗示	6864
▁保障	6865
▁JJ	6866
▁开到	6867
▁挫	6868
▁煎饼	6869
▁应届	6870
▁挨打	6871
ge	6872
▁连着	6873
▁泼	6874
▁往后	6875
▁tf	6876
▁口罩	6877
▁意向	6878
▁打发	6879
▁一口	6880
▁雾霾	6881
▁173	6882
▁工艺	6883
▁感激不尽	6884
▁精华	6885
▁叛	6886
▁补习	6887
▁收钱	6888
▁桃子	6889
▁施工	6890
▁自古	6891
uo	6892
▁菌	6893
▁匆匆	6894
▁业余	6895
▁竖	6896
▁富士康	6897
▁纱	6898
▁减少	6899
▁用力	6900
▁得瑟	6901
▁眼前	6902
▁无言	6903
▁喃	6904
▁尬	6905
▁阴历	6906
▁2013	6907
▁深情	6908
▁接口	6909
▁嗒	6910
▁金木	6911
▁上限	6912
▁猪肉	6913
▁三亚	6914
▁哈士	6915
▁皮卡	6916
▁白条	6917
▁超人	6918
▁洗面	6919
▁气息	6920
▁饶	6921
▁手镯	6922
▁试用	6923
▁侯	6924
▁中锋	6925
▁小偷	6926
▁教材	6927
▁物业	6928
▁遥远	6929
▁周二	6930
▁内衣	6931
▁st	6932
▁可笑	6933
▁江浙	6934
▁协议	6935
▁公众	6936
▁坚定	6937
▁LL	6938
▁稳稳	6939
▁飞车	6940
▁切尔西	6941
▁诊	6942
▁姥	6943
▁一朵	6944
▁不可	6945
▁木头	6946
▁该死	6947
▁腰带	6948
▁物质	6949
▁姻	6950
▁互换	6951
▁小腿	6952
▁访	6953
▁吧龄	6954
▁哈士奇	6955
▁行政	6956
▁邮件	6957
▁VI	6958
▁昭	6959
▁毁灭	6960
▁示	6961
▁喝醉	6962
▁友好	6963
▁保罗	6964
▁够呛	6965
▁驾驭	6966
▁土狗	6967
▁2019	6968
▁此时	6969
▁天亮	6970
▁常见	6971
▁八卦	6972
▁茶叶	6973
▁自营	6974
▁高贵	6975
▁搬家	6976
▁氏	6977
▁嘚	6978
17	6979
▁刑	6980
▁学徒	6981
▁千年	6982
▁库存	6983
▁钙	6984
▁别怕	6985
▁形式	6986
▁生死	6987
▁精致	6988
▁出货	6989
▁备用	6990
▁款式	6991
▁元宵	6992
▁休闲	6993
▁105	6994
▁流泪	6995
▁少见	6996
▁谎	6997
▁鑫	6998
▁月光	6999
▁阿尔	7000
▁鲫	7001
▁银河	7002
▁980	7003
▁普及	7004
▁浇水	7005
▁府	7006
▁甘心	7007
▁诚意	7008
▁团长	7009
▁阿森纳	7010
▁霸王	7011
▁恍	7012
▁细胞	7013
▁背面	7014
▁襄	7015
心病	7016
▁幼师	7017
▁开会	7018
▁辜	7019
▁会考	7020
▁电商	7021
▁男性	7022
▁录音	7023
▁绝版	7024
▁农药	7025
▁粗暴	7026
▁宋茜	7027
▁解封	7028
▁163	7029
▁刘诗	7030
▁戒烟	7031
▁想吐	7032
▁豁	7033
▁反驳	7034
▁姻缘	7035
▁微微	7036
▁债	7037
▁终极	7038
▁坤	7039
▁芝麻	7040
▁工人	7041
▁拉萨	7042
▁贝尔	7043
▁方便面	7044
▁促	7045
▁阻止	7046
▁伤口	7047
▁择	7048
▁趋	7049
▁保底	7050
▁幸亏	7051
▁妄	7052
▁其次	7053
▁一个	7054
▁大海	7055
▁昏	7056
▁一口气	7057
▁鸿	7058
▁乐趣	7059
▁球星	7060
▁救命	7061
▁珠海	7062
▁涵	7063
▁做法	7064
心病狂	7065
▁丧心病狂	7066
▁长江	7067
▁梳	7068
▁背包	7069
▁观音	7070
▁大盘	7071
▁刷屏	7072
▁美团	7073
▁水泥	7074
▁硬币	7075
▁一见	7076
▁小点	7077
▁赞助	7078
▁拾	7079
▁歪歪	7080
▁蛤蟆	7081
▁实践	7082
▁尽快	7083
▁锁骨	7084
▁发光	7085
▁dn	7086
▁数码	7087
▁吧唧	7088
▁KTV	7089
▁瞳	7090
▁轰炸	7091
▁奥迪	7092
▁华夏	7093
▁承包	7094
▁网球	7095
▁瞄	7096
▁大片	7097
▁逍	7098
▁大衣	7099
▁皇家	7100
▁逝	7101
▁到达	7102
▁流程	7103
▁二胎	7104
▁考验	7105
▁惊艳	7106
▁材质	7107
▁格子	7108
▁QW	7109
▁智慧	7110
▁出自	7111
▁哼哼	7112
▁椅子	7113
▁揪	7114
▁铂金	7115
▁合成	7116
▁怪兽	7117
▁芜	7118
▁星月	7119
▁天龙	7120
▁弄死	7121
ap	7122
▁派出所	7123
▁中单	7124
▁反派	7125
▁思念	7126
▁弦	7127
▁顶配	7128
▁弧	7129
▁姐弟	7130
▁自觉	7131
▁疏	7132
▁九级	7133
▁成果	7134
▁安好	7135
▁红红	7136
▁远方	7137
▁株	7138
▁奔驰	7139
▁侦	7140
▁创意	7141
▁十九	7142
▁咪	7143
▁秋裤	7144
▁邮政	7145
▁ho	7146
▁来电	7147
▁诡	7148
▁打牌	7149
▁拆开	7150
▁美元	7151
▁稀有	7152
▁卧底	7153
▁展示	7154
olo	7155
▁搬到	7156
▁心心	7157
▁各地	7158
▁伺	7159
▁蝙	7160
▁合金	7161
▁拖鞋	7162
▁敌人	7163
▁拓	7164
OT	7165
▁生化	7166
▁纳闷	7167
▁发泄	7168
▁搭讪	7169
▁空军	7170
▁强度	7171
▁睫	7172
▁三生	7173
▁两场	7174
▁贴纸	7175
▁古剑	7176
▁高层	7177
▁征服	7178
▁舒适	7179
▁转到	7180
▁活泼	7181
▁颗粒	7182
▁墓	7183
▁外貌	7184
▁犯规	7185
▁仙人	7186
▁往事	7187
▁绅	7188
▁貂	7189
▁汕	7190
▁邵	7191
▁识别	7192
▁过瘾	7193
▁max	7194
▁赐教	7195
▁渴望	7196
iao	7197
▁一无	7198
▁喘	7199
▁go	7200
▁律师	7201
▁今儿	7202
▁讲究	7203
▁鹦	7204
▁神话	7205
▁泄	7206
▁艺人	7207
▁皇冠	7208
▁卿	7209
▁客场	7210
▁挽回	7211
▁坠	7212
▁书包	7213
▁清醒	7214
▁造谣	7215
▁慧	7216
▁exo	7217
▁课本	7218
▁押金	7219
▁bo	7220
▁四中	7221
▁起点	7222
▁灯光	7223
▁CC	7224
▁胖胖	7225
▁交大	7226
▁头条	7227
▁复仇	7228
▁调理	7229
▁人妖	7230
ua	7231
▁pk	7232
▁光环	7233
▁澡堂	7234
▁后盖	7235
▁复发	7236
▁杠杠	7237
▁轮子	7238
▁蔬	7239
▁江山	7240
▁百科	7241
▁澄	7242
▁中旬	7243
▁消化	7244
▁接待	7245
▁郊	7246
▁房产	7247
▁算命	7248
▁补偿	7249
▁侧面	7250
22	7251
▁回报	7252
▁草原	7253
▁辜负	7254
▁榆	7255
▁诛	7256
▁束	7257
▁来源	7258
▁疗	7259
▁可恶	7260
▁痕迹	7261
▁二维	7262
▁4500	7263
▁fa	7264
▁奢侈	7265
▁亲妈	7266
▁追到	7267
▁世间	7268
▁很远	7269
▁微星	7270
▁教主	7271
▁比分	7272
▁刃	7273
▁菩提	7274
▁闪光	7275
▁巾	7276
▁琳	7277
▁闺密	7278
▁掌握	7279
▁大桥	7280
▁报复	7281
▁传染	7282
▁演出	7283
▁家养	7284
▁想笑	7285
▁相思	7286
▁饼干	7287
▁1400	7288
▁薪	7289
▁突出	7290
▁一炮	7291
▁查看	7292
▁记性	7293
▁况	7294
▁外语	7295
▁承诺	7296
▁贵族	7297
▁瑟瑟	7298
▁愣	7299
▁立刻	7300
▁黑点	7301
▁吉祥	7302
▁两家	7303
▁鱼缸	7304
pl	7305
▁思路	7306
▁执着	7307
▁果果	7308
▁虽说	7309
▁鹦鹉	7310
▁乐园	7311
▁手臂	7312
▁热血	7313
▁祈祷	7314
▁成立	7315
▁瑜伽	7316
▁中意	7317
▁乐观	7318
▁例子	7319
▁夸奖	7320
▁广电	7321
▁窗口	7322
▁闪退	7323
▁六一	7324
▁地域	7325
▁瞧瞧	7326
▁捉急	7327
▁笙	7328
▁苑	7329
▁插件	7330
▁车辆	7331
iF	7332
▁脱坑	7333
▁加分	7334
▁头盔	7335
▁车主	7336
▁太瘦	7337
▁真理	7338
▁专一	7339
▁QWQ	7340
▁低头	7341
▁失业	7342
▁虐心	7343
▁额头	7344
▁武警	7345
▁拧	7346
▁风雨	7347
▁糯	7348
▁住校	7349
▁巨星	7350
▁炸弹	7351
▁没收	7352
▁芬	7353
▁异常	7354
▁咒	7355
▁主线	7356
▁纤	7357
▁出炉	7358
▁温馨	7359
▁公式	7360
▁比亚	7361
▁沉迷	7362
▁猩猩	7363
▁车队	7364
▁su	7365
▁济宁	7366
▁嚎	7367
▁碍	7368
▁se	7369
▁夜深	7370
▁骗钱	7371
iFi	7372
▁自私	7373
▁一票	7374
▁月季	7375
▁大夫	7376
▁一键	7377
▁最萌	7378
▁卦	7379
▁阿弥	7380
▁AB	7381
牺牲	7382
ice	7383
▁保级	7384
▁泉州	7385
▁团结	7386
PS	7387
▁午安	7388
▁齿	7389
▁胆小	7390
▁洗脸	7391
▁咽	7392
▁水库	7393
▁滑稽	7394
▁通道	7395
▁丸子	7396
▁甄	7397
▁势力	7398
▁时空	7399
▁契	7400
▁军人	7401
▁天台	7402
▁雏	7403
▁闭嘴	7404
▁见证	7405
▁塌	7406
▁奖金	7407
▁230	7408
▁保暖	7409
▁频繁	7410
▁吃掉	7411
▁大方	7412
▁文理	7413
▁来袭	7414
▁呕	7415
▁牺牲	7416
▁贸	7417
▁知名	7418
▁缅	7419
▁而言	7420
▁衣柜	7421
▁心事	7422
▁手艺	7423
▁凸	7424
▁赔钱	7425
▁栗	7426
▁蓝牙	7427
▁芯片	7428
▁伙食	7429
▁全民	7430
▁小妹	7431
▁笨蛋	7432
▁压缩	7433
▁刘诗诗	7434
▁离家	7435
▁编辑	7436
▁娘娘	7437
▁觉着	7438
▁待机	7439
▁袄	7440
▁偶然	7441
▁暗影	7442
▁足协	7443
▁淄	7444
▁因素	7445
▁形态	7446
▁分辨率	7447
▁蛆	7448
▁情怀	7449
ter	7450
▁功率	7451
▁反击	7452
▁蜜蜂	7453
▁利润	7454
▁刷卡	7455
▁吸收	7456
▁维持	7457
▁混合	7458
▁道路	7459
▁专硕	7460
▁水电	7461
▁风云	7462
▁撇	7463
▁部位	7464
21	7465
▁忌	7466
▁作战	7467
▁106	7468
钟情	7469
▁惊呆	7470
▁播出	7471
▁蝙蝠	7472
▁一见钟情	7473
▁原则	7474
▁错觉	7475
▁婴儿	7476
▁家教	7477
▁ste	7478
▁仨	7479
▁情书	7480
▁sm	7481
▁320	7482
▁神兽	7483
▁阿迪	7484
▁余生	7485
▁面具	7486
▁搞错	7487
▁101	7488
▁超神	7489
▁信阳	7490
▁de	7491
▁谜	7492
▁城区	7493
▁发售	7494
▁鸡汤	7495
▁蔬菜	7496
▁南充	7497
▁115	7498
▁农大	7499
▁女仆	7500
▁刁	7501
▁睫毛	7502
▁补丁	7503
▁连胜	7504
▁底薪	7505
▁对应	7506
▁支援	7507
▁上架	7508
▁丧尸	7509
▁有才	7510
▁消防	7511
▁进水	7512
▁对付	7513
▁播音	7514
▁津	7515
陀佛	7516
▁阿弥陀佛	7517
▁铅	7518
▁末日	7519
▁伺候	7520
▁喜好	7521
▁大宝	7522
▁转身	7523
▁宵	7524
▁二哥	7525
▁泰山	7526
▁死去	7527
▁哪样	7528
▁老二	7529
▁满分	7530
▁魔术	7531
▁耐克	7532
▁噻	7533
▁诅	7534
▁往往	7535
▁分解	7536
▁卫校	7537
▁死活	7538
▁多想	7539
▁高人	7540
▁串串	7541
▁南门	7542
▁相反	7543
▁ipad	7544
▁ab	7545
45	7546
▁元宝	7547
▁一旦	7548
▁万事	7549
▁碰见	7550
▁退休	7551
▁缺少	7552
▁亩	7553
▁实名	7554
▁通话	7555
▁一致	7556
▁倩	7557
▁手串	7558
▁干活	7559
▁皱	7560
▁奔跑	7561
▁赠送	7562
▁喝完	7563
▁天佑	7564
▁傻傻	7565
▁笑容	7566
▁名称	7567
▁自恋	7568
▁高校	7569
密达	7570
▁助学	7571
▁美瞳	7572
▁处处	7573
▁朝阳	7574
▁覆盖	7575
▁人事	7576
▁总分	7577
▁烟花	7578
▁诅咒	7579
▁书店	7580
▁稀罕	7581
▁勺	7582
▁高仿	7583
▁过人	7584
▁免得	7585
▁咳嗽	7586
▁角落	7587
▁音响	7588
▁BU	7589
▁芜湖	7590
25	7591
▁备份	7592
▁捎	7593
23	7594
▁感恩	7595
▁无双	7596
▁原始	7597
▁打扫	7598
▁祸害	7599
▁脂肪	7600
▁叹	7601
▁青海	7602
▁题材	7603
▁佐助	7604
▁大队	7605
▁好学	7606
▁合并	7607
▁1700	7608
▁谣	7609
▁浩气	7610
▁点卡	7611
▁迷路	7612
▁哈尔滨	7613
▁骨折	7614
▁地产	7615
▁绅士	7616
▁pvp	7617
▁上船	7618
▁准时	7619
▁剑圣	7620
▁发育	7621
▁点名	7622
▁罗斯	7623
▁重视	7624
▁vip	7625
▁小叶	7626
▁工会	7627
▁伙计	7628
▁唐嫣	7629
▁帆	7630
▁夜里	7631
▁get	7632
▁晚餐	7633
▁楼梯	7634
▁检验	7635
▁邹	7636
▁顺风	7637
▁十大	7638
▁范冰冰	7639
▁坏事	7640
▁石油	7641
▁可用	7642
▁对眼	7643
▁物价	7644
▁常规	7645
▁1100	7646
▁倒贴	7647
▁思密达	7648
▁小苗	7649
▁ovo	7650
▁叮	7651
▁生涯	7652
更新	7653
IN	7654
▁双休	7655
▁筒	7656
▁孤儿	7657
▁家用	7658
▁留意	7659
▁航母	7660
▁逍遥	7661
▁火花	7662
▁当做	7663
▁烦人	7664
▁码字	7665
▁950	7666
24	7667
▁人格	7668
▁过度	7669
▁假发	7670
▁入住	7671
▁原理	7672
▁计较	7673
▁帝都	7674
▁嘎嘎	7675
▁俯	7676
▁岁数	7677
▁珊	7678
▁夜宵	7679
▁姐夫	7680
▁生长	7681
▁街头	7682
▁卑微	7683
▁韭	7684
▁黑屏	7685
▁cs	7686
▁往年	7687
▁招工	7688
▁白发	7689
▁pc	7690
▁嘟嘟	7691
▁发芽	7692
▁杆子	7693
▁岭	7694
▁太短	7695
▁布丁	7696
▁一世	7697
▁单间	7698
▁红灯	7699
▁林更新	7700
▁余额	7701
▁坦白	7702
▁点歌	7703
▁申诉	7704
▁盟	7705
▁对口	7706
▁疯子	7707
▁二维码	7708
▁逸	7709
▁相见	7710
▁稀饭	7711
▁卫星	7712
▁存款	7713
▁月子	7714
▁降温	7715
▁葬	7716
▁同居	7717
▁贬	7718
▁出价	7719
▁听力	7720
▁花心	7721
▁怪物	7722
kg	7723
▁掉线	7724
▁4.5	7725
▁作弊	7726
▁艺考	7727
▁肯德	7728
▁实战	7729
▁庆幸	7730
▁吐血	7731
▁搬运	7732
▁直言	7733
▁丁丁	7734
▁可比	7735
▁头晕	7736
▁自称	7737
▁sk	7738
▁筋	7739
▁崛	7740
▁工科	7741
▁顿时	7742
▁甜蜜	7743
▁参观	7744
▁指定	7745
▁艰难	7746
▁ap	7747
▁国王	7748
▁场面	7749
▁切换	7750
▁补贴	7751
io	7752
▁亨	7753
▁春风	7754
▁迷你	7755
▁WiFi	7756
第一	7757
▁俺们	7758
▁良辰	7759
▁表姐	7760
▁分子	7761
▁暮	7762
▁小丑	7763
▁排骨	7764
▁肯德基	7765
▁稿	7766
▁窄	7767
▁视觉	7768
▁页面	7769
▁下限	7770
▁可行	7771
▁打法	7772
▁老娘	7773
▁超频	7774
▁成语	7775
▁深陷	7776
▁天下第一	7777
▁洲	7778
▁心跳	7779
▁吃喝	7780
▁退学	7781
▁拟	7782
▁要紧	7783
▁名人	7784
▁660	7785
▁小苹果	7786
▁外边	7787
▁颈	7788
▁卡里	7789
▁steam	7790
▁办事	7791
▁凄	7792
86	7793
▁儒	7794
▁厨师	7795
▁观看	7796
▁祥	7797
▁警告	7798
▁隔离	7799
▁平凡	7800
▁猜测	7801
UI	7802
▁zh	7803
▁DN	7804
▁区域	7805
▁蓝翔	7806
▁重大	7807
▁诚实	7808
▁师哥	7809
▁心得	7810
▁戒赌	7811
▁米粉	7812
▁ac	7813
▁嚼	7814
▁悔	7815
▁未知	7816
▁馍	7817
▁ne	7818
▁耿	7819
▁红烧	7820
▁绿灯	7821
▁哆	7822
▁惊现	7823
▁适当	7824
▁小马	7825
▁收人	7826
▁索隆	7827
▁编号	7828
▁最长	7829
▁痣	7830
▁禽	7831
▁攀	7832
▁风暴	7833
▁改进	7834
▁背锅	7835
▁性质	7836
▁蜀黍	7837
▁别墅	7838
▁问候	7839
▁外挂	7840
▁老区	7841
▁藕	7842
▁传球	7843
▁糟糕	7844
▁调教	7845
▁巷	7846
▁后边	7847
▁爱丽	7848
▁都市	7849
▁袋子	7850
▁茂	7851
▁薯	7852
▁军事	7853
▁军团	7854
▁烤肉	7855
▁四人	7856
▁崛起	7857
▁料子	7858
▁脆弱	7859
▁二狗	7860
▁八级	7861
▁186	7862
▁下图	7863
▁重开	7864
▁重来	7865
▁榴莲	7866
▁日照	7867
▁背叛	7868
▁孕妇	7869
▁580	7870
▁药店	7871
▁助理	7872
▁去世	7873
▁手法	7874
▁手柄	7875
▁暴躁	7876
▁联考	7877
▁幕	7878
▁依赖	7879
▁love	7880
▁逢	7881
▁闹心	7882
▁脱离	7883
▁闽	7884
▁单人	7885
▁压抑	7886
▁VIP	7887
▁后腰	7888
▁征婚	7889
▁意味	7890
▁日文	7891
▁通常	7892
▁鞠	7893
▁吕布	7894
▁国企	7895
▁新娘	7896
▁禅	7897
▁晚睡	7898
▁经营	7899
▁期望	7900
▁格林	7901
▁漫长	7902
▁囊	7903
▁logo	7904
om	7905
▁新华	7906
▁装机	7907
▁TAT	7908
▁手段	7909
▁狙击	7910
▁班车	7911
▁迎接	7912
▁预言	7913
▁先锋	7914
▁总体	7915
▁solo	7916
▁写真	7917
▁删减	7918
▁加热	7919
▁嫁接	7920
▁长度	7921
▁图案	7922
▁步步	7923
▁楠	7924
▁荔	7925
▁诞	7926
▁卡组	7927
▁鸡腿	7928
▁泡沫	7929
▁西亚	7930
▁dala	7931
▁同班	7932
▁电竞	7933
▁戴尔	7934
▁死心	7935
▁牵手	7936
▁龄	7937
▁下铺	7938
▁失踪	7939
▁平行	7940
▁社区	7941
▁茄	7942
▁答疑	7943
▁红尘	7944
▁君子	7945
▁薄荷	7946
▁二月	7947
▁初级	7948
▁仍然	7949
▁独自	7950
▁母校	7951
▁adc	7952
▁氛	7953
▁明哥	7954
▁况且	7955
▁逃课	7956
▁压制	7957
▁荣誉	7958
▁PV	7959
▁誓	7960
▁改革	7961
如此	7962
▁内马	7963
▁遗传	7964
▁臣	7965
▁调节	7966
▁异界	7967
▁汝	7968
▁迎新	7969
▁现任	7970
▁辐	7971
▁大米	7972
▁自豪	7973
▁鬼子	7974
▁守望	7975
▁魔鬼	7976
▁挠	7977
▁华丽	7978
▁碾压	7979
▁诉	7980
▁大脑	7981
▁韩语	7982
▁太极	7983
▁后门	7984
▁网卡	7985
▁姓氏	7986
▁冰淇	7987
▁看点	7988
▁dalao	7989
▁旭	7990
▁自取	7991
▁询问	7992
▁扳	7993
▁披风	7994
▁停水	7995
▁巨大	7996
▁过于	7997
叶草	7998
▁母狗	7999
▁梭	8000
▁未婚	8001
▁氛围	8002
▁邮寄	8003
19	8004
▁没劲	8005
▁继承	8006
▁135	8007
▁招募	8008
▁绍	8009
▁剑灵	8010
▁闪闪	8011
▁清洁	8012
▁交代	8013
▁午餐	8014
▁犀利	8015
▁拇	8016
▁摩擦	8017
▁起飞	8018
▁阴天	8019
▁关节	8020
▁创新	8021
▁2012	8022
▁社保	8023
▁广大	8024
▁演绎	8025
▁枕头	8026
▁环保	8027
▁危机	8028
▁永恒	8029
▁羞涩	8030
▁质疑	8031
▁仗	8032
▁嗷嗷	8033
▁固件	8034
▁点心	8035
▁西湖	8036
▁罚款	8037
▁祛痘	8038
▁猫粮	8039
▁赌博	8040
oom	8041
▁提成	8042
▁木耳	8043
▁穷游	8044
▁嗦	8045
▁上牌	8046
▁270	8047
▁惩	8048
▁搞搞	8049
▁踏实	8050
28	8051
▁湛	8052
▁混乱	8053
▁保守	8054
▁出钱	8055
▁慎重	8056
▁蓬	8057
▁丨	8058
▁丢脸	8059
AN	8060
▁讽	8061
▁野鸡	8062
▁上边	8063
▁养活	8064
▁分裂	8065
▁干部	8066
▁媚	8067
▁糕	8068
▁奥斯	8069
▁开工	8070
▁彪	8071
▁提出	8072
▁勾引	8073
▁剪刀	8074
▁建立	8075
▁分离	8076
▁心机	8077
▁贱人	8078
▁小卡	8079
▁韭菜	8080
▁东门	8081
▁全能	8082
▁色彩	8083
▁口音	8084
▁无尽	8085
▁直径	8086
▁胶带	8087
▁艾斯	8088
▁回应	8089
▁南站	8090
▁认可	8091
▁边缘	8092
98	8093
马逊	8094
im	8095
▁we	8096
▁规模	8097
▁蜗牛	8098
▁176	8099
▁噪	8100
▁金鱼	8101
▁安康	8102
▁硕士	8103
▁嚣	8104
▁酒精	8105
▁录像	8106
▁电车	8107
▁狗血	8108
▁放水	8109
▁绕道	8110
▁大鱼	8111
▁汤圆	8112
▁同性	8113
▁蒜	8114
▁同胞	8115
▁医疗	8116
▁棒棒糖	8117
▁1060	8118
▁筷	8119
▁盘子	8120
▁万圣	8121
▁夏季	8122
▁小车	8123
▁这天	8124
▁巢	8125
▁五官	8126
▁公母	8127
▁星球	8128
▁石榴	8129
▁改版	8130
▁憨	8131
▁出息	8132
▁发誓	8133
▁三无	8134
▁提名	8135
▁试一	8136
▁PP	8137
▁导游	8138
▁空白	8139
▁RM	8140
▁李白	8141
▁品味	8142
▁闹钟	8143
▁合体	8144
▁明日	8145
ng	8146
▁舟	8147
▁农业	8148
▁卡贴	8149
▁补办	8150
▁818	8151
胞胎	8152
▁CF	8153
▁刻意	8154
▁折扣	8155
▁趋势	8156
▁言论	8157
▁=	8158
▁毅力	8159
▁啰	8160
▁换机	8161
▁估价	8162
▁学业	8163
▁柚子	8164
old	8165
▁挣扎	8166
▁搅	8167
▁向往	8168
▁隐形	8169
▁挪	8170
▁好使	8171
▁尽情	8172
▁man	8173
▁登场	8174
▁名气	8175
▁处于	8176
▁无耻	8177
▁大将	8178
▁刀剑	8179
▁一座	8180
▁干点	8181
▁清早	8182
▁长途	8183
▁煲	8184
▁850	8185
▁标签	8186
▁卫衣	8187
▁新品	8188
▁男士	8189
▁亚马逊	8190
▁蒙古	8191
▁溪	8192
▁冰淇淋	8193
▁威海	8194
▁忍受	8195
▁暴雨	8196
▁郑爽	8197
▁也敢	8198
▁年少	8199
▁老表	8200
▁绿帽	8201
▁传媒	8202
▁操心	8203
▁绯	8204
▁苏北	8205
▁打造	8206
▁关掉	8207
▁嚣张	8208
▁教务	8209
▁试一试	8210
▁邯	8211
▁淄博	8212
▁转换	8213
▁免疫	8214
▁无所	8215
▁皇后	8216
▁阿哲	8217
▁镯	8218
▁op	8219
▁客人	8220
▁赣州	8221
▁涛	8222
▁遥控	8223
▁雪花	8224
▁鲤鱼	8225
▁嚯	8226
▁极端	8227
▁符文	8228
▁美味	8229
▁膨	8230
▁乡镇	8231
▁生态	8232
▁小牛	8233
▁挂件	8234
▁张艺	8235
▁理财	8236
▁要点	8237
▁and	8238
▁沃尔	8239
▁问答	8240
▁鲨鱼	8241
▁涩	8242
▁义务	8243
▁乐乐	8244
▁直达	8245
▁破产	8246
▁锯	8247
▁射门	8248
▁年薪	8249
▁撸啊	8250
▁邪教	8251
▁男方	8252
▁dnf	8253
▁吉利	8254
▁小明	8255
▁杰伦	8256
▁MM	8257
▁威少	8258
▁磨合	8259
▁cb	8260
▁冷清	8261
▁小猪	8262
▁花儿	8263
▁鲫鱼	8264
▁撸啊撸	8265
▁诡异	8266
▁台球	8267
▁开局	8268
▁路子	8269
▁饰品	8270
▁js	8271
▁土地	8272
▁脸红	8273
▁181	8274
▁原来如此	8275
▁收银	8276
▁大地	8277
▁210	8278
▁卡顿	8279
▁朱婷	8280
▁棚	8281
▁大本	8282
▁抬头	8283
▁迷彩	8284
▁公公	8285
▁失落	8286
▁上山	8287
▁更换	8288
▁中等	8289
▁影像	8290
▁风水	8291
▁口气	8292
▁le	8293
▁半身	8294
▁队形	8295
不及	8296
▁客运	8297
▁无辜	8298
▁国语	8299
▁遗忘	8300
▁豆浆	8301
▁视力	8302
▁霆	8303
▁北站	8304
▁娘家	8305
▁岸	8306
▁出没	8307
▁攒钱	8308
▁月卡	8309
▁火腿	8310
▁童话	8311
▁金钱	8312
▁递	8313
▁boy	8314
▁呼呼	8315
▁堵车	8316
▁电工	8317
▁乞丐	8318
▁发霉	8319
▁口子	8320
▁通讯	8321
霹雳	8322
▁店主	8323
▁讽刺	8324
▁印记	8325
▁蜜蜡	8326
▁抽风	8327
▁喜剧	8328
▁惊讶	8329
▁打磨	8330
▁愚人	8331
▁每晚	8332
▁前进	8333
▁高分	8334
ong	8335
▁脸型	8336
▁阳历	8337
▁ni	8338
▁复查	8339
▁外形	8340
▁对号	8341
▁渡劫	8342
▁能源	8343
▁智力	8344
▁叙	8345
▁新加	8346
▁top	8347
ind	8348
▁灯泡	8349
▁败家	8350
▁大牌	8351
▁衫	8352
▁内向	8353
▁滤	8354
▁氪金	8355
▁期中	8356
▁花样	8357
▁蝎子	8358
▁内马尔	8359
▁震撼	8360
▁模具	8361
▁武装	8362
▁海外	8363
▁还款	8364
▁vp	8365
▁新乡	8366
▁红发	8367
▁妍	8368
▁修仙	8369
▁大发	8370
▁打钱	8371
▁海盗	8372
▁订婚	8373
▁卖完	8374
▁猿	8375
▁国米	8376
▁妖精	8377
▁上身	8378
▁小熊	8379
▁TF	8380
▁表弟	8381
▁提莫	8382
▁小胖	8383
▁花盆	8384
▁本田	8385
▁导弹	8386
▁拿钱	8387
▁寡妇	8388
▁狗肉	8389
▁梅花	8390
▁零件	8391
▁军队	8392
▁韩版	8393
▁魔都	8394
▁商丘	8395
▁大侠	8396
▁心意	8397
▁离合	8398
▁原地	8399
▁泰安	8400
▁黛	8401
▁梯	8402
▁哗	8403
▁无效	8404
▁容量	8405
▁约炮	8406
▁橙色	8407
▁娘炮	8408
▁寿命	8409
▁盐城	8410
▁佑	8411
▁死机	8412
▁高高	8413
▁竿	8414
▁堕落	8415
▁夜市	8416
▁平米	8417
▁筷子	8418
▁倒车	8419
▁心眼	8420
▁曹操	8421
▁眠	8422
▁buff	8423
▁诛仙	8424
▁妖怪	8425
▁寻人	8426
▁拉面	8427
▁神舟	8428
▁蛙	8429
▁跪舔	8430
▁群主	8431
▁吃苦	8432
▁院长	8433
▁掏粪	8434
▁王牌	8435
▁AC	8436
▁重发	8437
▁水准	8438
▁法院	8439
▁琢	8440
拉多	8441
▁大厦	8442
▁GDP	8443
▁本体	8444
▁武功	8445
▁脉	8446
▁二期	8447
▁北海	8448
▁形状	8449
▁传播	8450
▁邢	8451
▁如来	8452
▁唧	8453
▁周岁	8454
▁感叹	8455
▁观望	8456
▁放生	8457
▁短期	8458
▁说服	8459
▁听得	8460
▁心烦	8461
▁关联	8462
▁资深	8463
▁茫	8464
▁泰坦	8465
▁寨	8466
▁三哥	8467
▁前景	8468
▁嘴唇	8469
▁良好	8470
▁看透	8471
▁肥皂	8472
▁恐龙	8473
▁忆	8474
▁惠州	8475
▁饵	8476
▁复印	8477
▁酥	8478
▁后代	8479
▁橡皮	8480
▁预感	8481
▁菇凉	8482
▁少爷	8483
▁城建	8484
▁崇拜	8485
▁本本	8486
▁自来	8487
▁亚索	8488
▁主演	8489
▁五中	8490
▁老李	8491
▁走心	8492
▁铃声	8493
▁为难	8494
▁嘚瑟	8495
▁两岁	8496
▁共勉	8497
▁ak	8498
▁墙上	8499
以对	8500
▁白头	8501
▁电费	8502
▁辐射	8503
▁剪辑	8504
▁解救	8505
▁无言以对	8506
▁难忘	8507
▁抱紧	8508
▁整机	8509
▁耐用	8510
▁MX	8511
▁常驻	8512
▁柳州	8513
▁开播	8514
▁听懂	8515
▁妮可	8516
▁邯郸	8517
▁特长	8518
▁修罗	8519
▁颤	8520
▁原生	8521
▁经纪	8522
▁2333	8523
▁户型	8524
▁认同	8525
▁轻微	8526
▁一无所	8527
▁愤怒	8528
▁水冷	8529
▁眼圈	8530
▁独特	8531
▁2800	8532
▁北门	8533
▁情敌	8534
▁坐骑	8535
▁好惨	8536
▁孵	8537
▁狠狠	8538
▁拱	8539
▁宿管	8540
▁必定	8541
▁茉	8542
▁正片	8543
▁可见	8544
▁讲解	8545
▁包容	8546
▁手链	8547
▁—	8548
▁威力	8549
▁西红	8550
▁抠脚	8551
▁帮会	8552
▁日系	8553
▁吼吼	8554
▁矿泉	8555
▁阜阳	8556
▁琼	8557
▁新歌	8558
▁主子	8559
▁花痴	8560
▁比亚迪	8561
▁不亮	8562
▁触发	8563
▁眼缘	8564
▁人群	8565
▁走开	8566
▁小樱	8567
▁社长	8568
▁隐身	8569
▁鼻涕	8570
▁鲸	8571
▁增强	8572
▁常识	8573
▁欢喜	8574
▁郊区	8575
▁高通	8576
▁庞	8577
▁zz	8578
▁淑女	8579
▁AM	8580
▁橙子	8581
▁为人	8582
▁光临	8583
▁翻身	8584
▁域	8585
▁二批	8586
▁乐队	8587
▁内蒙古	8588
▁情歌	8589
▁花都	8590
▁例如	8591
▁ktv	8592
▁圣人	8593
▁配图	8594
▁亲身	8595
▁亲切	8596
▁体系	8597
▁身价	8598
▁世勋	8599
▁电压	8600
uang	8601
▁行星	8602
▁猪猪	8603
▁biu	8604
▁ht	8605
▁平淡	8606
▁深入	8607
▁体能	8608
▁长生	8609
▁搏	8610
▁菏	8611
▁白痴	8612
▁打理	8613
▁职位	8614
▁自在	8615
▁同伴	8616
▁暴风	8617
▁霹雳	8618
▁冒充	8619
▁初心	8620
▁小鸡	8621
▁龙女	8622
▁签证	8623
▁匿	8624
▁外婆	8625
▁诞生	8626
▁330	8627
▁筹	8628
▁孔雀	8629
▁征信	8630
▁新城	8631
ki	8632
▁琉	8633
▁丑女	8634
▁西红柿	8635
▁刨	8636
▁录制	8637
▁棉花	8638
▁开场	8639
▁TT	8640
▁仙剑	8641
▁说得	8642
▁保真	8643
▁邮票	8644
▁车型	8645
▁沫	8646
▁鲍	8647
▁大风	8648
▁饲	8649
▁瞌	8650
▁值班	8651
▁剖	8652
▁书法	8653
▁No	8654
▁糊涂	8655
▁做错	8656
▁拍拍	8657
▁毛子	8658
▁名片	8659
▁车友	8660
▁尹	8661
▁苗子	8662
▁AA	8663
▁学友	8664
▁有问	8665
必答	8666
▁壳子	8667
▁有问必答	8668
▁主攻	8669
▁致敬	8670
▁鹏	8671
▁喉咙	8672
▁廊	8673
▁聘	8674
▁水表	8675
▁荧	8676
ine	8677
▁缓解	8678
▁无名	8679
▁景点	8680
▁疑惑	8681
▁up	8682
▁人力	8683
▁对抗	8684
▁清仓	8685
▁追回	8686
▁鳄鱼	8687
▁园林	8688
▁悬念	8689
▁停产	8690
▁双卡	8691
▁小气	8692
▁jj	8693
▁红豆	8694
▁复古	8695
▁激烈	8696
el	8697
▁只限	8698
▁冬眠	8699
▁瘦子	8700
▁笛	8701
▁内幕	8702
▁松鼠	8703
▁恁	8704
▁钦	8705
▁哲学	8706
▁批评	8707
▁洗发	8708
▁图纸	8709
▁水壶	8710
▁凳	8711
▁传单	8712
▁嗑	8713
▁寻思	8714
▁残疾	8715
▁气球	8716
▁炉石	8717
▁820	8718
▁供电	8719
▁复刻	8720
▁行程	8721
▁预备	8722
▁IP	8723
▁眼角	8724
▁美腿	8725
▁被盗	8726
▁瘾	8727
▁开张	8728
▁空虚	8729
▁万里	8730
▁解惑	8731
▁此生	8732
▁晾	8733
▁深度	8734
▁远远	8735
▁XX	8736
▁腹黑	8737
▁表格	8738
▁177	8739
▁一心	8740
▁人大	8741
▁看病	8742
▁充实	8743
▁大楼	8744
▁食欲	8745
▁丘	8746
▁杰克	8747
▁南北	8748
▁汉中	8749
德华	8750
▁下边	8751
▁早期	8752
▁转账	8753
▁MIUI	8754
▁蟑	8755
▁一幕	8756
▁mp	8757
▁抵制	8758
▁熙	8759
▁平静	8760
▁等人	8761
▁赠品	8762
乍到	8763
▁床单	8764
▁退回	8765
来乍到	8766
▁miui	8767
▁常用	8768
▁龙哥	8769
▁纷	8770
▁煎熬	8771
▁卡片	8772
▁叻	8773
▁七彩	8774
▁省份	8775
▁而来	8776
▁街道	8777
▁香味	8778
▁蜕	8779
▁首饰	8780
▁奥利	8781
▁BUG	8782
到晚	8783
拿大	8784
▁冷漠	8785
▁山大	8786
▁西装	8787
▁桔	8788
▁打断	8789
▁打破	8790
▁1050	8791
▁兰花	8792
▁泸州	8793
▁用处	8794
▁误导	8795
▁求婚	8796
▁站街	8797
▁终身	8798
▁绩	8799
▁陨	8800
▁报废	8801
▁溃	8802
▁开除	8803
▁熟练	8804
▁努比亚	8805
▁三种	8806
▁菩萨	8807
▁初来乍到	8808
▁大龄	8809
▁厄	8810
▁国贸	8811
▁溜溜	8812
▁1070	8813
▁西游记	8814
▁多万	8815
▁账户	8816
▁违章	8817
▁西边	8818
▁2200	8819
▁火机	8820
▁虎牙	8821
▁棺	8822
▁古城	8823
▁王俊	8824
▁青山	8825
▁冬季	8826
▁全力	8827
▁大图	8828
▁张嘴	8829
▁管家	8830
▁说谎	8831
▁禽兽	8832
▁宵夜	8833
▁梦中	8834
▁虚伪	8835
▁贫困	8836
▁2600	8837
▁六天	8838
▁高职	8839
▁厂子	8840
▁情报	8841
▁张杰	8842
▁魔方	8843
▁措	8844
▁酿	8845
▁时不	8846
▁火龙	8847
▁经贸	8848
▁暗黑	8849
▁违法	8850
▁2020	8851
▁药学	8852
▁赵云	8853
▁镶	8854
▁遮天	8855
▁蟑螂	8856
▁转眼	8857
▁付费	8858
▁困扰	8859
▁部长	8860
▁gta	8861
▁丙	8862
▁裹	8863
▁DI	8864
▁MA	8865
▁田园	8866
▁鱼塘	8867
▁零下	8868
▁磅	8869
▁亚军	8870
▁自驾	8871
▁配角	8872
▁加拿大	8873
▁旗袍	8874
▁刘亦	8875
▁菏泽	8876
▁专注	8877
▁冷水	8878
▁序列	8879
▁建业	8880
▁di	8881
OSS	8882
▁南瓜	8883
▁张艺兴	8884
▁二线	8885
▁拆封	8886
▁挡住	8887
▁移民	8888
▁鼬	8889
▁DD	8890
▁格格	8891
▁混沌	8892
▁股市	8893
▁老马	8894
▁喜爱	8895
▁红颜	8896
▁美人鱼	8897
▁霞	8898
▁星际	8899
▁青蛙	8900
▁改编	8901
▁强求	8902
▁勤快	8903
▁瞌睡	8904
▁初音	8905
▁嘉兴	8906
▁离谱	8907
▁fz	8908
▁制度	8909
▁视角	8910
▁air	8911
▁昆山	8912
▁残酷	8913
▁用钱	8914
▁词组	8915
▁刘亦菲	8916
▁渝	8917
▁小雨	8918
▁抱住	8919
▁jk	8920
▁标点	8921
▁职高	8922
▁乍	8923
▁建行	8924
▁校内	8925
▁蓉	8926
▁支撑	8927
▁辟	8928
▁大红	8929
▁双胞胎	8930
▁轿	8931
▁影院	8932
▁链子	8933
▁鲁大	8934
▁天黑	8935
▁应援	8936
哈哈	8937
▁内线	8938
▁贩子	8939
▁风筝	8940
▁饥	8941
▁AK	8942
▁大汉	8943
▁琢磨	8944
▁踏板	8945
▁声明	8946
▁安庆	8947
▁家属	8948
▁借给	8949
▁院子	8950
▁吟	8951
▁靖	8952
▁从事	8953
▁夫妇	8954
▁流弊	8955
▁流星	8956
▁天河	8957
▁bd	8958
▁太忙	8959
▁顾客	8960
▁谋	8961
▁mv	8962
▁九江	8963
▁丛	8964
▁蓝天	8965
▁挽留	8966
▁牙套	8967
▁五号	8968
▁大明	8969
▁海绵	8970
▁愈	8971
▁合唱	8972
▁四代	8973
▁亭	8974
▁gg	8975
▁糖糖	8976
▁奶油	8977
▁汕头	8978
▁死宅	8979
▁王俊凯	8980
▁鼎	8981
▁妇女	8982
▁卡西	8983
▁油门	8984
▁蔷	8985
▁XD	8986
▁mc	8987
▁平面	8988
▁必胜	8989
▁脸大	8990
▁256	8991
▁糖果	8992
▁绿茶	8993
▁剧组	8994
▁唧唧	8995
▁票价	8996
▁新加坡	8997
▁雕刻	8998
▁禁言	8999
▁167	9000
▁执行	9001
▁邱	9002
▁团体	9003
▁年终	9004
▁出汗	9005
OP	9006
▁特征	9007
35	9008
▁省会	9009
▁104	9010
▁惜	9011
▁划痕	9012
▁结论	9013
▁街舞	9014
▁tt	9015
▁德玛	9016
▁老外	9017
▁僧	9018
▁倾向	9019
▁锁定	9020
▁吸烟	9021
▁怀抱	9022
▁正月	9023
▁nba	9024
▁叶插	9025
▁恼	9026
▁上位	9027
▁发车	9028
▁庭	9029
▁养殖	9030
▁单元	9031
▁存钱	9032
▁痛快	9033
▁变速	9034
▁领证	9035
▁162	9036
▁巨头	9037
▁跳过	9038
▁不败	9039
▁惯例	9040
▁拼音	9041
▁欧尼	9042
▁晒黑	9043
▁牌照	9044
▁174	9045
75	9046
▁惦	9047
▁生理	9048
sh	9049
▁简历	9050
▁婉	9051
▁偏远	9052
▁种族	9053
▁腿毛	9054
ku	9055
▁停留	9056
▁密度	9057
▁连云	9058
▁基金	9059
▁比特	9060
▁饭菜	9061
▁一袋	9062
▁功力	9063
▁叶片	9064
▁远程	9065
▁相约	9066
▁笑着	9067
▁抢购	9068
▁刘备	9069
▁汉堡	9070
▁休假	9071
va	9072
▁东风	9073
▁垫底	9074
▁炒股	9075
▁推销	9076
▁黄河	9077
▁祁	9078
▁BOSS	9079
▁注重	9080
▁修理	9081
▁大全	9082
▁排球	9083
▁袭	9084
▁吓哭	9085
▁地面	9086
▁大雪	9087
▁差价	9088
▁贸易	9089
▁2400	9090
▁劣	9091
▁自理	9092
▁阵营	9093
▁变色	9094
▁高于	9095
▁幺	9096
▁学科	9097
▁瓣	9098
▁ml	9099
▁丐帮	9100
▁伪装	9101
▁低级	9102
▁大婶	9103
▁差异	9104
▁粮食	9105
▁西方	9106
▁过户	9107
▁口感	9108
▁气势	9109
▁附魔	9110
▁发明	9111
▁白酒	9112
▁充气	9113
▁显然	9114
▁解脱	9115
▁争议	9116
▁荔枝	9117
▁解散	9118
▁电器	9119
▁苍蝇	9120
▁play	9121
▁一听	9122
▁轮毂	9123
▁还钱	9124
▁魔女	9125
▁沙漠	9126
▁按时	9127
▁指标	9128
▁合一	9129
▁结伴	9130
▁掀	9131
▁CM	9132
▁弄成	9133
▁课表	9134
▁重温	9135
▁声优	9136
▁金牌	9137
不来	9138
▁力度	9139
▁一针	9140
▁从新	9141
▁hold	9142
▁摆脱	9143
▁步骤	9144
▁病人	9145
▁素描	9146
▁mod	9147
▁大唐	9148
▁清洗	9149
▁透气	9150
▁高温	9151
▁初学	9152
▁浴室	9153
▁药丸	9154
▁豆子	9155
▁长毛	9156
▁月经	9157
▁颁	9158
▁后腿	9159
▁宿迁	9160
▁快船	9161
▁打动	9162
▁暑期	9163
▁音量	9164
▁全校	9165
▁私下	9166
▁下线	9167
▁华山	9168
▁开盘	9169
▁无忧	9170
▁女排	9171
▁药水	9172
▁蚁	9173
▁保湿	9174
▁再试	9175
▁时不时	9176
bo	9177
▁em	9178
▁欲望	9179
▁女团	9180
▁玩法	9181
▁十足	9182
▁真真	9183
▁坊	9184
▁引进	9185
▁绍兴	9186
▁思聪	9187
▁自爆	9188
▁芙蓉	9189
▁马来	9190
▁邦	9191
▁关羽	9192
▁极速	9193
▁繁华	9194
▁移植	9195
▁反手	9196
▁家园	9197
▁夜景	9198
▁苏联	9199
▁伤人	9200
▁白眼	9201
▁发呆	9202
▁泰达	9203
▁矫正	9204
▁泡妞	9205
▁顽	9206
▁兄台	9207
▁奖品	9208
▁快捷	9209
▁蚌	9210
▁请求	9211
▁孬	9212
▁黄山	9213
▁米线	9214
▁大帅	9215
▁耗子	9216
▁矜	9217
▁焦虑	9218
▁日出	9219
▁王八	9220
▁自拔	9221
▁船长	9222
▁黑猫	9223
▁pve	9224
▁茄子	9225
▁喜感	9226
▁187	9227
▁机型	9228
▁灵活	9229
▁炒饭	9230
▁身后	9231
▁搭档	9232
▁鲁大师	9233
▁en	9234
▁预报	9235
▁一天到晚	9236
▁滨	9237
▁快餐	9238
▁home	9239
所欲	9240
▁考察	9241
▁金丝	9242
▁风机	9243
▁脚步	9244
▁剪掉	9245
▁头脑	9246
▁宜宾	9247
▁野外	9248
▁青菜	9249
▁总部	9250
▁晚期	9251
▁沁	9252
▁洗车	9253
斯加	9254
▁午夜	9255
▁喵喵	9256
▁圆通	9257
▁内测	9258
▁名义	9259
▁消毒	9260
▁超大	9261
▁鸡肉	9262
出来	9263
▁秤	9264
▁故障	9265
▁门面	9266
▁防晒	9267
▁凡人	9268
▁离校	9269
▁傅	9270
▁峡	9271
▁史诗	9272
TC	9273
▁栀	9274
▁网咖	9275
▁伊布	9276
▁热心	9277
▁脑壳	9278
▁MVP	9279
格兰	9280
▁逆转	9281
▁灿烈	9282
▁商贸	9283
▁徽章	9284
▁绒	9285
▁火力	9286
▁技师	9287
▁招收	9288
▁疲劳	9289
▁膨胀	9290
▁东站	9291
▁倾城	9292
▁占领	9293
▁推迟	9294
▁睡衣	9295
▁黑头	9296
▁柿	9297
▁义乌	9298
▁高新	9299
▁华东	9300
▁微胖	9301
▁线条	9302
▁过关	9303
13	9304
▁手持	9305
▁绳子	9306
▁东部	9307
▁机制	9308
▁葵	9309
▁傻瓜	9310
ma	9311
▁金华	9312
▁繁体	9313
▁166	9314
▁貂蝉	9315
▁618	9316
▁提交	9317
▁星爷	9318
无故	9319
▁寻求	9320
▁新东	9321
▁件套	9322
▁层次	9323
▁面相	9324
▁打雷	9325
▁区分	9326
▁形成	9327
▁拇指	9328
▁苦恼	9329
▁眼线	9330
▁写错	9331
▁意境	9332
▁连云港	9333
▁pr	9334
▁vy	9335
▁狗头	9336
▁CA	9337
▁返回	9338
▁嵩	9339
▁亮度	9340
▁首都	9341
▁冲击	9342
▁感触	9343
▁不朽	9344
▁今夜	9345
▁盈利	9346
▁傍	9347
▁woc	9348
▁小型	9349
▁担当	9350
▁ED	9351
▁怎能	9352
▁球王	9353
▁送来	9354
▁陌陌	9355
紫棋	9356
▁低音	9357
▁名次	9358
▁吹风	9359
▁清纯	9360
▁牙膏	9361
▁中途	9362
▁爵士	9363
▁分明	9364
▁前台	9365
会儿	9366
▁热点	9367
▁许愿	9368
▁姑姑	9369
▁学员	9370
▁慕斯	9371
▁古董	9372
▁氵	9373
▁合伙	9374
▁彩色	9375
▁公积	9376
▁知己	9377
▁银子	9378
▁米娜	9379
▁编导	9380
26	9381
▁五大	9382
▁分区	9383
▁合法	9384
▁结实	9385
▁已婚	9386
▁扑街	9387
▁荷花	9388
▁365	9389
▁at	9390
▁一亿	9391
▁眼力	9392
▁公积金	9393
▁机动	9394
▁认领	9395
▁包裹	9396
▁对头	9397
▁半斤	9398
▁私密	9399
▁卢克	9400
▁水吧	9401
▁犯法	9402
▁纳尼	9403
▁黎明	9404
▁hd	9405
▁多特	9406
▁氧化	9407
▁长寿	9408
▁it	9409
▁隐私	9410
▁秦皇	9411
▁增长	9412
▁客厅	9413
▁签字	9414
▁过时	9415
▁障	9416
▁盛世	9417
▁柱子	9418
▁买菜	9419
▁空乘	9420
▁磕碰	9421
▁和田	9422
▁掏钱	9423
▁千玺	9424
▁闻到	9425
▁路痴	9426
▁骷	9427
以为	9428
▁涉及	9429
▁床位	9430
▁状元	9431
▁全开	9432
▁出路	9433
▁参数	9434
▁梓	9435
▁乐器	9436
▁文凭	9437
▁燃烧	9438
▁黑化	9439
▁星辰	9440
▁测评	9441
▁建工	9442
▁热火	9443
▁人文	9444
▁嫁人	9445
▁无非	9446
▁定做	9447
▁死掉	9448
▁夏日	9449
▁mvp	9450
▁军校	9451
▁赔偿	9452
▁蒲	9453
▁不安	9454
▁吃住	9455
▁终老	9456
▁新东方	9457
▁包含	9458
▁罐头	9459
▁运输	9460
▁统治	9461
▁读研	9462
▁钞	9463
▁大象	9464
▁智齿	9465
▁is	9466
▁难熬	9467
▁武大	9468
▁灵感	9469
▁km	9470
▁优质	9471
▁蔷薇	9472
▁310	9473
▁high	9474
▁山治	9475
▁澳洲	9476
▁廊坊	9477
▁志同	9478
▁沙雕	9479
▁脏话	9480
▁克拉	9481
▁否认	9482
▁锡	9483
▁电力	9484
▁领悟	9485
▁绝壁	9486
▁两根	9487
▁二货	9488
▁压惊	9489
▁炫舞	9490
▁109	9491
▁德阳	9492
衣库	9493
▁东边	9494
拳道	9495
▁天一	9496
▁旅馆	9497
▁消灭	9498
▁开朗	9499
▁茉莉	9500
▁诈骗	9501
▁出卖	9502
▁毛巾	9503
▁成龙	9504
▁优衣库	9505
▁莹	9506
▁排气	9507
▁榨	9508
▁琅	9509
▁瞒	9510
▁掉漆	9511
▁自愿	9512
▁麦当	9513
▁欸	9514
▁德州	9515
▁吃糖	9516
▁龙族	9517
▁法拉	9518
▁向前	9519
▁校草	9520
▁胖次	9521
▁NB	9522
▁国旗	9523
▁小四	9524
▁天梯	9525
▁小镇	9526
▁成分	9527
▁皇上	9528
▁vpn	9529
▁强调	9530
▁也罢	9531
▁温泉	9532
▁come	9533
▁日游	9534
▁炫酷	9535
▁摸着	9536
▁粘贴	9537
▁手势	9538
▁缓存	9539
▁4.4	9540
▁耻	9541
▁骷髅	9542
道合	9543
▁元老	9544
▁吵醒	9545
▁干燥	9546
▁山里	9547
▁手环	9548
▁武林	9549
▁一档	9550
▁专心	9551
▁函数	9552
▁宜昌	9553
▁特典	9554
▁解析	9555
▁溶	9556
▁总统	9557
▁分身	9558
▁电磁	9559
▁矜持	9560
▁志同道合	9561
▁乱斗	9562
▁国民	9563
▁配饰	9564
▁邓紫棋	9565
▁PC	9566
▁电路	9567
▁喔喔	9568
▁吴邪	9569
▁商人	9570
▁冲锋	9571
▁婶	9572
▁露露	9573
▁茜	9574
▁lg	9575
▁mua	9576
▁细小	9577
▁陵	9578
▁结缘	9579
不忍	9580
orry	9581
▁答题	9582
▁湛江	9583
▁印花	9584
▁气场	9585
▁奇妙	9586
▁扇子	9587
▁wu	9588
▁同龄	9589
▁房东	9590
▁春秋	9591
▁xs	9592
▁投篮	9593
▁豪门	9594
▁自闭	9595
▁多发	9596
▁丢失	9597
▁跆	9598
▁二人	9599
▁忘掉	9600
▁相片	9601
▁衡阳	9602
▁越野	9603
▁震动	9604
▁肇	9605
彦祖	9606
▁潮汕	9607
▁献血	9608
▁人像	9609
▁惦记	9610
▁唤	9611
▁财富	9612
▁子女	9613
▁小红	9614
▁武侠	9615
▁变异	9616
不忍睹	9617
▁夏尔	9618
▁观赏	9619
▁颓	9620
▁婷婷	9621
▁海棠	9622
▁渐渐	9623
▁旋转	9624
▁电流	9625
▁凳子	9626
▁调到	9627
▁雪糕	9628
▁惨不忍睹	9629
鞍山	9630
▁天鹅	9631
▁赶不	9632
▁烂尾	9633
▁立场	9634
▁混血	9635
▁棉袄	9636
▁短腿	9637
aber	9638
▁460	9639
▁睇	9640
▁思域	9641
▁芦荟	9642
▁阎	9643
▁得出	9644
▁扣分	9645
▁火山	9646
▁痘印	9647
▁优雅	9648
▁前方	9649
▁太白	9650
▁雅思	9651
▁便便	9652
▁720	9653
▁发行	9654
▁这份	9655
▁久久	9656
▁光荣	9657
▁2300	9658
ey	9659
▁岚	9660
▁指数	9661
▁明朝	9662
▁剪短	9663
▁洗脚	9664
▁神作	9665
▁白兔	9666
▁乐山	9667
▁兵长	9668
▁唯有	9669
▁台州	9670
▁推理	9671
▁炸鸡	9672
▁萤	9673
▁反映	9674
▁奸商	9675
▁手腕	9676
▁存档	9677
▁寄生	9678
▁诸位	9679
▁起诉	9680
▁色差	9681
▁冠希	9682
▁装甲	9683
▁火烧	9684
▁封闭	9685
▁推特	9686
▁远征	9687
▁卸妆	9688
▁早操	9689
▁毒瘤	9690
▁身子	9691
▁申通	9692
▁睿智	9693
▁东海	9694
▁看穿	9695
▁一姐	9696
▁阿拉斯加	9697
▁凉皮	9698
▁惩罚	9699
▁教会	9700
▁日月	9701
▁微软	9702
▁龙头	9703
▁接收	9704
▁便秘	9705
▁问好	9706
▁相识	9707
▁刘德华	9708
▁名牌	9709
▁镯子	9710
▁馨	9711
▁卡住	9712
▁女帝	9713
▁终点	9714
▁AV	9715
▁今生	9716
▁炫富	9717
▁铠	9718
▁出线	9719
▁神龙	9720
▁报纸	9721
ina	9722
▁分组	9723
▁ig	9724
▁多情	9725
▁胸口	9726
▁头饰	9727
▁珍贵	9728
▁mmp	9729
▁嚒	9730
▁传授	9731
▁双人	9732
▁慢点	9733
▁猪蹄	9734
▁花式	9735
▁火焰	9736
▁机关	9737
▁小七	9738
▁遂	9739
▁反过	9740
▁邮局	9741
安特	9742
▁si	9743
▁合集	9744
▁支架	9745
▁选课	9746
▁饮水	9747
▁屋子	9748
▁烧饼	9749
▁致命	9750
▁掺	9751
▁毛孔	9752
▁直升	9753
▁舜	9754
▁携带	9755
▁接龙	9756
▁1.	9757
▁头顶	9758
▁楼盘	9759
▁汉族	9760
▁中路	9761
▁深处	9762
▁爆棚	9763
co	9764
▁雁	9765
▁新建	9766
▁海口	9767
▁美利	9768
▁184	9769
俊杰	9770
▁sa	9771
▁时差	9772
▁捷安特	9773
▁干爹	9774
▁负担	9775
▁三网	9776
▁丈母	9777
▁对外	9778
▁缺乏	9779
▁达州	9780
85	9781
MG	9782
▁扦	9783
糊涂	9784
▁兄妹	9785
▁廉价	9786
▁郡	9787
▁种植	9788
▁fps	9789
▁暂停	9790
▁躺枪	9791
▁全名	9792
▁浮云	9793
▁青龙	9794
▁周期	9795
▁完工	9796
▁挑拨	9797
▁帝王	9798
▁真美	9799
▁大便	9800
▁蓝颜	9801
▁注销	9802
▁火爆	9803
▁才华	9804
▁输球	9805
▁皮带	9806
▁违规	9807
▁跆拳道	9808
▁秦皇岛	9809
▁当场	9810
▁箫	9811
▁夕阳	9812
▁阅兵	9813
▁漳	9814
▁骡	9815
▁康熙	9816
eng	9817
▁好车	9818
▁替代	9819
▁牛皮	9820
▁节食	9821
▁反过来	9822
▁鱿	9823
▁师院	9824
▁染色	9825
▁刷牙	9826
▁大厅	9827
▁画师	9828
▁香菜	9829
▁萎	9830
▁大刀	9831
▁富贵	9832
▁店名	9833
▁汽油	9834
▁隔着	9835
▁shi	9836
▁嗜	9837
▁居住	9838
▁带给	9839
▁出柜	9840
▁扭曲	9841
▁卧室	9842
▁拍戏	9843
▁替换	9844
▁解除	9845
▁猪脚	9846
▁泗	9847
▁双倍	9848
▁富婆	9849
▁唱吧	9850
▁大嘴	9851
▁爽快	9852
▁高音	9853
▁删贴	9854
▁调侃	9855
▁设施	9856
▁磨损	9857
▁昊	9858
▁纠缠	9859
▁聊城	9860
▁书籍	9861
▁足以	9862
▁不幸	9863
▁怜	9864
▁树林	9865
▁演戏	9866
▁iPad	9867
▁亲密	9868
▁客车	9869
▁取暖	9870
▁腊肉	9871
▁一哥	9872
▁周口	9873
▁打仗	9874
▁吴彦祖	9875
▁冻结	9876
▁安阳	9877
▁炒菜	9878
▁旷	9879
不可	9880
▁口号	9881
▁前置	9882
▁吓唬	9883
▁士兵	9884
▁曲子	9885
▁汇总	9886
▁秋冬	9887
▁缴费	9888
▁限时	9889
▁禹	9890
▁转正	9891
▁依靠	9892
▁礼品	9893
▁680	9894
▁忐	9895
▁Qw	9896
▁削弱	9897
▁取得	9898
▁潮流	9899
▁盖子	9900
▁宴	9901
▁GG	9902
▁420	9903
▁off	9904
▁陶瓷	9905
▁漏洞	9906
27	9907
▁殇	9908
▁中年	9909
▁ms	9910
▁管住	9911
▁通风	9912
▁高能	9913
▁合约	9914
▁姥姥	9915
▁日后	9916
▁春季	9917
▁奥斯卡	9918
▁坛	9919
▁公道	9920
▁小生	9921
▁传送	9922
▁男装	9923
▁萍	9924
▁慎入	9925
▁地名	9926
▁虞	9927
▁宝鸡	9928
▁幻影	9929
▁西甲	9930
▁皮卡丘	9931
▁one	9932
ook	9933
▁蓝屏	9934
▁拘	9935
▁情深	9936
▁sorry	9937
▁户外	9938
▁梧	9939
▁大麦	9940
▁字数	9941
▁拖拉	9942
▁清水	9943
▁短篇	9944
▁红酒	9945
▁罗汉	9946
▁高楼	9947
▁RMB	9948
▁伽	9949
▁姚明	9950
▁侦探	9951
▁漫威	9952
▁达人	9953
▁报应	9954
▁藏獒	9955
▁误解	9956
▁昕	9957
▁养生	9958
▁忐忑	9959
▁猪头	9960
▁荆州	9961
到大	9962
▁口语	9963
▁尿尿	9964
▁捣乱	9965
▁硫	9966
▁cv	9967
▁临摹	9968
▁后背	9969
▁含义	9970
▁圣母	9971
▁壮哉	9972
▁拉布	9973
▁淮安	9974
▁跑车	9975
▁dx	9976
▁tx	9977
▁比利	9978
▁释放	9979
▁四叶草	9980
▁承担	9981
▁爆破	9982
▁谎言	9983
▁来临	9984
▁舅舅	9985
▁初代	9986
▁戒掉	9987
▁名声	9988
▁峨	9989
之谦	9990
▁尊严	9991
▁扮演	9992
▁枝条	9993
▁沙子	9994
▁太空	9995
▁原型	9996
▁显存	9997
▁老毕	9998
▁亲生	9999
▁章鱼	10000
▁联机	10001
▁双眼	10002
▁搜搜	10003
▁头皮	10004
▁沧州	10005
▁鱿鱼	10006
IFI	10007
▁中原	10008
▁狠心	10009
▁联网	10010
▁QwQ	10011
▁三线	10012
▁全体	10013
▁占用	10014
▁鄂	10015
▁一款	10016
▁哭泣	10017
▁挨着	10018
▁赢球	10019
▁薛之谦	10020
▁从小到大	10021
th	10022
润发	10023
▁小鹿	10024
▁打码	10025
▁活人	10026
▁丈母娘	10027
▁新欢	10028
▁无缘	10029
▁麦当劳	10030
阵子	10031
▁上铺	10032
▁滋味	10033
▁离职	10034
▁无缘无故	10035
▁药物	10036
▁魔力	10037
▁忍着	10038
▁大奖	10039
▁挂号	10040
▁指南	10041
▁收徒	10042
▁木木	10043
▁难免	10044
▁一项	10045
▁大坑	10046
▁室外	10047
▁伍	10048
▁流血	10049
▁LG	10050
▁友善	10051
▁涂装	10052
▁三期	10053
▁套房	10054
▁底子	10055
▁觅	10056
▁果冻	10057
zi	10058
▁好转	10059
▁敷衍	10060
▁确诊	10061
▁随着	10062
▁场子	10063
▁长袖	10064
斯特	10065
▁乌鸦	10066
▁破烂	10067
▁脚下	10068
▁皖	10069
▁发炎	10070
▁纸巾	10071
▁拎	10072
▁一律	10073
▁大名	10074
▁情愿	10075
▁统招	10076
▁陈赫	10077
▁号称	10078
▁大炮	10079
▁红牛	10080
▁腔	10081
▁to	10082
▁气温	10083
gb	10084
▁两者	10085
▁做菜	10086
▁台灯	10087
▁河里	10088
不着	10089
▁四强	10090
▁大吉	10091
▁捆绑	10092
▁机车	10093
▁宁可	10094
▁料理	10095
▁荣幸	10096
▁不二	10097
▁权健	10098
▁分段	10099
▁放肆	10100
▁弟子	10101
▁王朝	10102
▁入职	10103
▁赶不上	10104
▁汉语	10105
▁轨道	10106
▁做题	10107
▁中南	10108
▁战狼	10109
▁伯贤	10110
▁502	10111
▁驱虫	10112
▁意甲	10113
▁零点	10114
▁集训	10115
▁兹	10116
▁店长	10117
▁行车	10118
▁互联	10119
▁小样	10120
▁蒽	10121
▁脸蛋	10122
▁瞪	10123
73	10124
▁付钱	10125
▁砍死	10126
▁背心	10127
▁常年	10128
▁解压	10129
ak	10130
▁种类	10131
▁路费	10132
ck	10133
▁梵	10134
▁光纤	10135
▁融合	10136
▁迅雷	10137
▁马拉	10138
▁觉悟	10139
▁酷爱	10140
▁红薯	10141
▁财政	10142
▁话唠	10143
▁外交	10144
▁蓄	10145
▁老桩	10146
▁说得好	10147
之年	10148
OM	10149
▁军装	10150
▁fzl	10151
▁小强	10152
▁碉	10153
▁卡号	10154
▁著名	10155
▁大灯	10156
▁拉稀	10157
▁母鸡	10158
▁敦	10159
▁紧急	10160
▁370	10161
▁产业	10162
▁组成	10163
▁橄	10164
▁艾伦	10165
▁高低	10166
▁鸦	10167
▁大车	10168
▁ha	10169
▁可悲	10170
▁可耻	10171
▁DIY	10172
不得	10173
▁上交	10174
▁细腻	10175
boy	10176
▁旺旺	10177
▁补助	10178
▁贴心	10179
▁种草	10180
▁摁	10181
▁房源	10182
▁许嵩	10183
▁白板	10184
▁协调	10185
▁佳能	10186
▁冰冰	10187
▁喷漆	10188
▁学子	10189
▁DNF	10190
▁冰雪	10191
▁搞好	10192
▁零售	10193
▁褪	10194
罗拉	10195
▁缩水	10196
▁跑跑	10197
▁领域	10198
▁附加	10199
▁3200	10200
▁惹不起	10201
▁橄榄	10202
▁资产	10203
ra	10204
▁提档	10205
▁签收	10206
▁辉煌	10207
▁亮瞎	10208
产期	10209
▁棺材	10210
▁299	10211
▁谣言	10212
▁北鼻	10213
▁填报	10214
▁小宝	10215
▁旋风	10216
▁预产期	10217
▁听完	10218
▁屠龙	10219
▁红花	10220
▁黑夜	10221
▁襄阳	10222
▁各类	10223
▁后者	10224
▁人教	10225
儿八	10226
▁中兴	10227
▁井盖	10228
▁大致	10229
▁金星	10230
▁韶	10231
▁一匹	10232
▁金庸	10233
29	10234
▁现役	10235
▁书名	10236
▁扦插	10237
▁桂花	10238
▁漫漫	10239
▁自来水	10240
▁py	10241
▁作息	10242
▁往前	10243
▁被查	10244
▁鞋垫	10245
▁高档	10246
▁Pro	10247
ue	10248
▁黄蜂	10249
▁夜场	10250
▁格斗	10251
▁wow	10252
▁四张	10253
▁猝	10254
▁配方	10255
▁紫檀	10256
▁解开	10257
▁边牧	10258
▁假面	10259
▁封印	10260
▁平平	10261
▁墨镜	10262
▁网管	10263
▁哨	10264
▁徘	10265
▁卡特	10266
▁张国	10267
▁出院	10268
▁仙子	10269
▁幽灵	10270
▁进展	10271
▁林俊杰	10272
▁纺	10273
▁中通	10274
▁当家	10275
▁毒舌	10276
▁财大	10277
ub	10278
▁万物	10279
▁下期	10280
▁积累	10281
▁预防	10282
▁马丁	10283
▁大棚	10284
▁油条	10285
▁睁眼	10286
▁焖	10287
▁AP	10288
▁保温	10289
▁随身	10290
▁外壳	10291
▁失忆	10292
▁阉	10293
▁麻木	10294
▁车费	10295
▁大本营	10296
▁廖	10297
▁海底	10298
▁试水	10299
▁鸡翅	10300
▁楼顶	10301
▁鼓掌	10302
▁一字	10303
▁噪音	10304
▁民政	10305
▁直线	10306
▁羞羞	10307
▁高调	10308
▁清风	10309
▁买单	10310
▁再战	10311
▁尺码	10312
▁怕死	10313
▁血压	10314
NG	10315
▁毫米	10316
▁续约	10317
▁saber	10318
▁写给	10319
▁带动	10320
▁收养	10321
▁曦	10322
▁gd	10323
▁片段	10324
▁许昌	10325
▁一阵子	10326
火火	10327
▁作图	10328
▁大厂	10329
▁玖	10330
▁一卡	10331
▁缘故	10332
▁遛狗	10333
▁飙车	10334
▁法拉利	10335
▁挨骂	10336
▁爱玩	10337
▁VP	10338
▁很乖	10339
▁水神	10340
▁好耍	10341
▁从业	10342
▁安检	10343
▁先进	10344
▁韩服	10345
▁突击	10346
闻乐	10347
▁泪点	10348
▁阁下	10349
闻乐见	10350
▁喜闻乐见	10351
▁偏爱	10352
▁洗手	10353
▁佣	10354
▁咿	10355
▁my	10356
▁货车	10357
▁一无所有	10358
▁轿车	10359
▁时机	10360
▁汽修	10361
▁银币	10362
▁妻子	10363
▁瘦腿	10364
▁予	10365
▁乌鲁	10366
▁摆设	10367
▁痴情	10368
▁SM	10369
▁天线	10370
▁真话	10371
▁酸菜	10372
▁门槛	10373
▁麻油	10374
▁外出	10375
▁荧光	10376
▁难找	10377
▁转行	10378
▁火线	10379
▁灵异	10380
▁徘徊	10381
▁护照	10382
▁sd	10383
▁玄幻	10384
▁红眼	10385
▁碰瓷	10386
▁雇	10387
▁唐门	10388
▁老友	10389
▁水深	10390
▁职院	10391
▁运城	10392
▁重播	10393
▁捕捉	10394
▁gtx	10395
▁全天	10396
▁尸鬼	10397
▁弥补	10398
▁车库	10399
▁口头	10400
▁插座	10401
▁有生	10402
▁鹰眼	10403
▁郝	10404
▁地盘	10405
▁女婿	10406
▁新兵	10407
▁清除	10408
▁唯独	10409
▁欧阳	10410
▁陀	10411
▁cn	10412
▁供暖	10413
▁巧合	10414
▁空中	10415
▁质感	10416
▁GTA	10417
▁糯米	10418
▁领到	10419
▁NO	10420
▁安妮	10421
▁强力	10422
▁290	10423
▁战地	10424
▁无趣	10425
▁死飞	10426
▁洁癖	10427
▁首选	10428
▁曰	10429
▁侄子	10430
▁意志	10431
▁日服	10432
▁碉堡	10433
▁缝隙	10434
▁遵义	10435
▁一卡通	10436
▁外校	10437
▁公认	10438
▁兰博	10439
▁遭遇	10440
▁WIFI	10441
▁守门	10442
▁焦作	10443
▁脚趾	10444
▁太矮	10445
▁密集	10446
▁别哭	10447
▁剧照	10448
▁烟火	10449
▁衡水	10450
▁饭堂	10451
78	10452
▁偷懒	10453
▁内饰	10454
▁学籍	10455
▁文玩	10456
▁肌肤	10457
▁花鸟	10458
▁眷	10459
拉克	10460
▁反光	10461
▁哇哈哈	10462
▁斑马	10463
▁热烈	10464
▁触摸	10465
▁陆续	10466
儿八经	10467
▁正儿八经	10468
▁冷战	10469
▁沦落	10470
▁凌乱	10471
▁原味	10472
▁地道	10473
▁双清	10474
▁宁夏	10475
▁椰子	10476
▁洋气	10477
▁彦	10478
▁圈圈	10479
▁薰	10480
▁145	10481
西亚	10482
▁反抗	10483
▁麦迪	10484
▁列车	10485
▁绿豆	10486
▁显摆	10487
▁精通	10488
▁唱功	10489
▁过冬	10490
▁霓	10491
▁AT	10492
▁EM	10493
▁乌鲁木	10494
▁拉布拉多	10495
▁通病	10496
▁乌鲁木齐	10497
▁篮板	10498
▁连跪	10499
▁体谅	10500
▁上街	10501
▁答对	10502
▁俯卧	10503
▁地瓜	10504
▁布鲁	10505
▁大山	10506
▁妄想	10507
▁秘书	10508
▁阴谋	10509
▁夏目	10510
▁对焦	10511
▁编程	10512
PPO	10513
▁原文	10514
▁发觉	10515
▁血腥	10516
▁慰	10517
▁溢	10518
▁拜年	10519
▁捡漏	10520
▁牙疼	10521
▁酋	10522
ood	10523
▁北美	10524
▁富力	10525
▁带队	10526
▁侏	10527
▁加载	10528
▁南大	10529
▁肆	10530
▁博格	10531
▁折叠	10532
▁读者	10533
▁ADC	10534
▁大包	10535
▁本土	10536
为力	10537
▁上进	10538
▁大和	10539
▁无能	10540
▁限速	10541
▁无能为力	10542
▁华北	10543
▁南海	10544
▁呛	10545
▁凤姐	10546
▁刷图	10547
▁完好	10548
▁违和	10549
33	10550
▁全包	10551
▁出装	10552
▁港行	10553
▁波波	10554
▁规格	10555
▁雪山	10556
▁消炎	10557
▁129	10558
▁全日	10559
▁极致	10560
▁卡尔	10561
▁杨紫	10562
▁比熊	10563
▁ko	10564
▁咸阳	10565
尼尔	10566
▁战胜	10567
▁拳头	10568
▁叨	10569
▁途径	10570
▁磊	10571
▁收回	10572
▁酷狗	10573
▁飞天	10574
▁乱入	10575
▁冤枉	10576
▁南无	10577
▁五级	10578
▁青梅	10579
▁战国	10580
▁红牌	10581
▁车管	10582
▁看得出来	10583
▁杉	10584
▁深海	10585
▁花费	10586
▁追星	10587
▁鉴别	10588
▁铅笔	10589
▁卡牌	10590
▁红旗	10591
▁巩	10592
▁传承	10593
▁独角	10594
▁连载	10595
▁华南	10596
▁身影	10597
恍惚	10598
▁求生	10599
▁悠悠	10600
▁自尊	10601
▁贪心	10602
▁侄女	10603
▁光顾	10604
▁杂物	10605
▁爹妈	10606
▁瘦脸	10607
▁将会	10608
▁幽魂	10609
▁118	10610
▁乏	10611
▁奶爸	10612
▁穿衣	10613
▁长白	10614
▁渺	10615
▁发射	10616
▁赵薇	10617
▁黑车	10618
▁俯卧撑	10619
▁北上	10620
▁真够	10621
▁默契	10622
▁吭	10623
▁酷酷	10624
▁倚	10625
▁对战	10626
▁懿	10627
斯塔	10628
▁实拍	10629
▁澜	10630
▁座椅	10631
▁缅甸	10632
▁171	10633
▁电台	10634
▁白班	10635
▁酷炫	10636
▁坝	10637
▁剩余	10638
▁现状	10639
▁龙泉	10640
▁3800	10641
▁前世	10642
▁张国荣	10643
▁公演	10644
▁发电	10645
▁同乐	10646
▁栗子	10647
▁上榜	10648
ght	10649
▁来年	10650
▁外屏	10651
▁尽头	10652
▁答辩	10653
▁蚌埠	10654
▁MC	10655
▁此处	10656
▁借鉴	10657
▁冬至	10658
▁独家	10659
▁缺陷	10660
▁进货	10661
▁厚度	10662
▁水利	10663
▁2700	10664
pr	10665
▁着火	10666
▁鲜花	10667
▁抛光	10668
▁花絮	10669
▁斗士	10670
▁暴雪	10671
▁牛头	10672
▁理综	10673
▁老爹	10674
▁迹	10675
▁涡	10676
▁白龙	10677
▁医保	10678
▁气候	10679
▁煞	10680
▁憋屈	10681
▁获取	10682
▁刺猬	10683
▁前端	10684
▁珍藏	10685
▁羞耻	10686
▁虾米	10687
▁退档	10688
▁OPPO	10689
▁快播	10690
▁痒痒	10691
▁白点	10692
▁粗糙	10693
▁102	10694
▁摧	10695
▁山水	10696
▁惭	10697
▁凡凡	10698
▁惨案	10699
▁栀子	10700
▁求职	10701
▁全日制	10702
▁际	10703
▁新番	10704
▁东哥	10705
▁懒觉	10706
▁老衲	10707
▁天窗	10708
▁按钮	10709
▁是非	10710
▁体测	10711
▁写出	10712
▁玛瑙	10713
▁省油	10714
▁凶残	10715
▁国美	10716
▁邓超	10717
▁扰	10718
▁一塌	10719
▁含量	10720
▁有生之年	10721
▁倔	10722
▁烘	10723
▁拆机	10724
▁漏光	10725
▁贝壳	10726
▁太平洋	10727
▁即便	10728
▁真名	10729
▁研发	10730
▁周星	10731
▁奥巴	10732
▁手脚	10733
▁一塌糊涂	10734
生素	10735
▁委婉	10736
▁144	10737
▁金卡	10738
▁词汇	10739
▁包车	10740
▁士官	10741
▁跳水	10742
▁103	10743
生生	10744
▁公测	10745
▁客串	10746
▁手抖	10747
▁细心	10748
▁亚瑟	10749
▁华晨	10750
▁定价	10751
▁水彩	10752
▁琅琊	10753
▁164	10754
▁占卜	10755
▁驻马	10756
95	10757
乎乎	10758
▁水分	10759
▁羊毛	10760
▁430	10761
▁涅	10762
▁出身	10763
▁琉璃	10764
▁全屏	10765
▁虚空	10766
▁二轮	10767
▁心慌	10768
▁茫茫	10769
▁提起	10770
▁高压	10771
▁瘦身	10772
▁万恶	10773
▁中外	10774
▁年华	10775
▁酒窝	10776
▁脚本	10777
▁黄昏	10778
畏惧	10779
▁气垫	10780
▁熊熊	10781
▁雯	10782
▁引导	10783
▁推出	10784
▁销魂	10785
▁大眼	10786
▁澳大利	10787
▁唯美	10788
▁布料	10789
▁跪下	10790
▁除夕	10791
▁HD	10792
▁两双	10793
▁武士	10794
▁龙华	10795
▁狸	10796
▁啵啵	10797
▁邢台	10798
▁燥	10799
▁厚道	10800
▁知乎	10801
▁西站	10802
▁五五	10803
▁咕噜	10804
▁成交	10805
▁柿子	10806
▁肤色	10807
ace	10808
▁双头	10809
▁心声	10810
▁心底	10811
▁扔掉	10812
▁鸳	10813
如既	10814
▁出品	10815
如既往	10816
▁一如既往	10817
▁澳大利亚	10818
▁保密	10819
▁年份	10820
▁投降	10821
▁爱丽丝	10822
▁全省	10823
▁大清	10824
▁小二	10825
▁车间	10826
▁鸡毛	10827
▁青云	10828
▁高峰	10829
▁汉奸	10830
▁一行	10831
▁监考	10832
▁趁早	10833
▁社交	10834
▁纠正	10835
▁静音	10836
▁原先	10837
志龙	10838
▁空降	10839
▁sn	10840
▁带领	10841
▁二爷	10842
▁lu	10843
▁招商	10844
▁机枪	10845
▁贝贝	10846
▁心里话	10847
▁眨	10848
▁初次	10849
▁午觉	10850
▁彼岸	10851
▁拜师	10852
▁月租	10853
▁欣慰	10854
▁盖章	10855
▁萨摩耶	10856
▁三和	10857
▁举办	10858
▁进击	10859
▁痞	10860
▁输赢	10861
▁伴侣	10862
▁无损	10863
▁闷骚	10864
▁充足	10865
▁写到	10866
▁右键	10867
▁吊牌	10868
▁言情	10869
▁弩	10870
▁几何	10871
▁纹路	10872
▁平等	10873
▁翻盘	10874
▁肥肉	10875
▁红红火火	10876
▁boom	10877
▁便当	10878
▁嘴炮	10879
▁套套	10880
▁改过	10881
▁文采	10882
▁海关	10883
▁蛋黄	10884
▁钢笔	10885
▁请勿	10886
▁罐子	10887
▁AJ	10888
▁冲刺	10889
▁头痛	10890
▁取名	10891
▁周目	10892
▁宝珠	10893
▁峨眉	10894
▁减震	10895
▁宽松	10896
▁手相	10897
▁模块	10898
▁瘦瘦	10899
▁直营	10900
是好	10901
耳其	10902
▁大饼	10903
▁156	10904
▁市长	10905
▁鼻血	10906
▁土耳其	10907
▁七星	10908
▁校门	10909
▁淹死	10910
▁疾病	10911
▁约定	10912
建华	10913
▁左转	10914
▁腰疼	10915
▁权志龙	10916
▁假设	10917
▁相声	10918
▁障碍	10919
▁龙猫	10920
▁周星驰	10921
入座	10922
▁对称	10923
▁灿烂	10924
▁白衣	10925
▁对号入座	10926
irl	10927
▁中期	10928
▁增肥	10929
▁恋情	10930
▁惭愧	10931
▁泰州	10932
▁live	10933
▁三世	10934
▁勤奋	10935
▁改动	10936
▁470	10937
▁英格兰	10938
▁出错	10939
▁创作	10940
▁延长	10941
▁Ch	10942
▁中卫	10943
▁纽约	10944
▁杂牌	10945
▁如何是好	10946
▁zx	10947
▁武神	10948
▁陪陪	10949
▁督	10950
▁菜单	10951
▁颓废	10952
无期	10953
▁大写	10954
▁颤抖	10955
▁fi	10956
▁乡村	10957
▁加大	10958
▁琛	10959
▁常常	10960
lc	10961
▁脚踏	10962
▁冷淡	10963
▁延边	10964
▁扫描	10965
▁连锁	10966
▁逃避	10967
▁换装	10968
▁某某	10969
▁越位	10970
▁AMD	10971
▁抗日	10972
▁河边	10973
▁博物	10974
▁淮南	10975
▁美景	10976
▁出家	10977
▁场合	10978
▁会所	10979
▁暗号	10980
▁翻唱	10981
▁整齐	10982
▁葡萄牙	10983
ian	10984
▁万万	10985
▁忧郁	10986
▁肾虚	10987
▁过滤	10988
▁美男	10989
▁花纹	10990
▁行驶	10991
▁某种	10992
▁游客	10993
▁练字	10994
▁豹子	10995
▁pe	10996
▁成型	10997
▁麦克	10998
▁琦	10999
▁技校	11000
▁挑食	11001
▁一倍	11002
▁差劲	11003
▁打底	11004
▁留校	11005
▁跑调	11006
▁琥	11007
▁魔性	11008
▁TOP	11009
ER	11010
▁售票	11011
▁砍价	11012
▁发作	11013
▁惆	11014
▁国防	11015
▁无影	11016
▁青花	11017
▁偏向	11018
▁资质	11019
▁179	11020
48	11021
▁掰弯	11022
▁邓肯	11023
▁金球	11024
▁事物	11025
▁洗浴	11026
▁季度	11027
▁业主	11028
▁简称	11029
▁罪恶	11030
▁宗教	11031
▁客栈	11032
▁月月	11033
▁武术	11034
▁热刺	11035
▁转载	11036
▁颈椎	11037
▁附中	11038
▁带有	11039
▁gp	11040
▁两斤	11041
▁和服	11042
▁校外	11043
▁烂片	11044
▁布吉	11045
▁燕子	11046
▁代课	11047
▁家驹	11048
▁盒装	11049
▁附带	11050
▁mix	11051
▁人海	11052
▁水质	11053
▁磨砂	11054
▁红楼	11055
▁韵达	11056
▁龙门	11057
▁驻马店	11058
▁po	11059
▁与其	11060
恍惚惚	11061
▁恍恍惚惚	11062
▁数控	11063
▁傍晚	11064
▁离别	11065
▁蓝猫	11066
ows	11067
▁腥	11068
▁佳人	11069
▁千千	11070
▁卡拉	11071
▁胃疼	11072
▁人鱼	11073
▁卖点	11074
▁门卫	11075
▁广安	11076
▁衬衣	11077
▁梭哈	11078
▁混蛋	11079
▁红茶	11080
▁蓝光	11081
▁防弹	11082
▁圆圆	11083
▁撞死	11084
▁璐	11085
▁节哀	11086
ds	11087
▁TB	11088
▁双击	11089
▁担保	11090
ank	11091
▁侧脸	11092
▁管子	11093
▁bios	11094
▁澄清	11095
▁赔率	11096
mg	11097
▁伦敦	11098
▁布置	11099
▁当作	11100
▁持久	11101
▁白虎	11102
▁美化	11103
▁390	11104
▁鼻孔	11105
▁帘	11106
▁鳖	11107
▁屠夫	11108
▁里番	11109
▁辨别	11110
▁退钱	11111
▁烙	11112
▁卖房	11113
▁发球	11114
▁维权	11115
▁善待	11116
▁倪	11117
▁崩坏	11118
▁GTX	11119
▁今后	11120
▁杂交	11121
▁炮灰	11122
▁生子	11123
▁同名	11124
▁流年	11125
▁紫薇	11126
▁绑架	11127
▁侍	11128
▁婚后	11129
▁发放	11130
▁如花	11131
▁惊人	11132
▁骁	11133
▁物语	11134
▁换货	11135
▁群体	11136
▁鸡血	11137
▁使命	11138
cc	11139
▁擎	11140
▁惆怅	11141
▁机身	11142
▁雨天	11143
▁499	11144
▁敞	11145
▁煽	11146
▁代步	11147
▁内战	11148
▁特种	11149
▁破戒	11150
▁遍地	11151
▁钛	11152
▁扫地	11153
▁书荒	11154
▁兽医	11155
▁出版	11156
▁剑魂	11157
▁毒药	11158
▁琥珀	11159
▁娄	11160
▁保重	11161
▁瞎扯	11162
▁期货	11163
▁砖头	11164
▁肘	11165
▁做起	11166
▁味儿	11167
▁心急	11168
▁旋律	11169
▁天大	11170
▁表明	11171
马哈	11172
▁杨过	11173
▁星光	11174
▁吃力	11175
▁胸部	11176
▁抵押	11177
▁真空	11178
▁送礼	11179
ri	11180
▁决战	11181
▁四星	11182
▁小乔	11183
▁立体	11184
▁骆	11185
▁远古	11186
55	11187
▁体贴	11188
▁均衡	11189
▁抱团	11190
▁娘子	11191
▁封神	11192
▁笔友	11193
▁补差	11194
▁飘飘	11195
ans	11196
▁坂	11197
▁棍子	11198
▁腮	11199
▁店员	11200
▁航天	11201
▁娜美	11202
▁狂三	11203
▁统考	11204
▁许久	11205
▁较真	11206
▁并非	11207
▁插头	11208
▁清考	11209
▁陪聊	11210
▁垮	11211
▁南湖	11212
▁后勤	11213
▁截屏	11214
▁问句	11215
▁edg	11216
▁卜	11217
▁净化	11218
▁念念	11219
▁景区	11220
▁菲律	11221
▁读完	11222
▁风光	11223
▁歌声	11224
▁点亮	11225
▁纯种	11226
▁迅速	11227
▁核弹	11228
▁武将	11229
▁不屑	11230
▁参赛	11231
▁忍心	11232
▁横扫	11233
▁炮姐	11234
▁吓跑	11235
▁安东	11236
▁表扬	11237
▁the	11238
▁听课	11239
▁底盘	11240
▁菲律宾	11241
▁有福	11242
▁霍建华	11243
如画	11244
▁浦东	11245
▁留级	11246
▁逆战	11247
▁锦鲤	11248
▁楞	11249
▁歌单	11250
▁龙王	11251
▁家电	11252
▁囚	11253
▁伤病	11254
▁蚯	11255
▁政法	11256
▁狗哥	11257
▁结算	11258
▁谅	11259
▁农行	11260
▁可可	11261
▁本金	11262
▁竹子	11263
▁诊所	11264
▁560	11265
▁OMG	11266
▁崖	11267
▁窜	11268
▁交叉	11269
▁各有	11270
▁达成	11271
▁399	11272
▁养眼	11273
▁现身	11274
▁蚯蚓	11275
▁闭眼	11276
▁jo	11277
▁仰卧	11278
▁基督	11279
▁德牧	11280
▁多些	11281
▁htc	11282
▁duang	11283
▁轮组	11284
▁参照	11285
▁忽视	11286
▁拖延	11287
▁走向	11288
▁中级	11289
▁同等	11290
▁抽筋	11291
▁放款	11292
▁天理	11293
▁北边	11294
▁无可	11295
▁汪汪	11296
▁蜡笔	11297
▁焰	11298
▁雅马哈	11299
▁1900	11300
fc	11301
▁品尝	11302
▁手枪	11303
▁169	11304
▁正装	11305
▁波动	11306
▁溺	11307
▁蚕	11308
▁少林	11309
▁香菇	11310
▁760	11311
▁fly	11312
▁电线	11313
▁狂犬	11314
▁帮主	11315
▁配套	11316
▁入口	11317
▁村长	11318
▁永昌	11319
▁看戏	11320
锈钢	11321
▁九九	11322
▁带劲	11323
▁610	11324
▁位子	11325
▁天马	11326
▁精准	11327
▁痛经	11328
▁例外	11329
▁宅男	11330
▁不锈钢	11331
▁孝顺	11332
▁走出	11333
▁黑心	11334
▁兴隆	11335
▁天帝	11336
▁帧数	11337
▁禁区	11338
▁赛车	11339
▁大树	11340
▁完善	11341
▁当当	11342
▁mac	11343
▁CS	11344
▁女星	11345
▁HE	11346
▁整套	11347
▁事项	11348
▁大仙	11349
▁线索	11350
▁鸡肋	11351
▁ga	11352
▁盲目	11353
▁穹	11354
▁孔明	11355
▁底部	11356
▁待见	11357
▁基德	11358
▁薯片	11359
▁证券	11360
▁适用	11361
▁瑞文	11362
vers	11363
▁HTC	11364
▁5500	11365
▁miku	11366
▁祝愿	11367
▁民间	11368
▁陆军	11369
▁夜店	11370
▁影帝	11371
▁扣篮	11372
▁直觉	11373
▁油性	11374
▁点券	11375
▁编制	11376
▁褶	11377
▁bg	11378
▁盆景	11379
▁发音	11380
▁后妈	11381
▁家务	11382
▁逃跑	11383
▁159	11384
▁濮	11385
ore	11386
▁水手	11387
▁胸肌	11388
▁黑金	11389
▁奥利奥	11390
▁仅供	11391
▁心悦	11392
▁柯基	11393
▁油炸	11394
▁鸳鸯	11395
▁魄	11396
▁功劳	11397
▁把持	11398
▁转学	11399
▁戚	11400
▁厂长	11401
▁两字	11402
▁养鱼	11403
▁入伍	11404
▁江北	11405
▁滑板	11406
▁眼花	11407
▁详谈	11408
▁3600	11409
▁gs	11410
▁减速	11411
▁力学	11412
▁调色	11413
▁上台	11414
▁年会	11415
▁油腻	11416
▁ow	11417
▁发送	11418
▁外甥	11419
▁弯弯	11420
▁195	11421
▁个体	11422
▁长假	11423
▁驼	11424
▁华晨宇	11425
▁初见	11426
▁超出	11427
▁争气	11428
▁修行	11429
▁功耗	11430
▁收纳	11431
▁浆	11432
▁Rt	11433
▁充分	11434
▁横店	11435
▁糟蹋	11436
▁蕾丝	11437
▁配对	11438
▁打赌	11439
▁肚脐	11440
▁114	11441
▁聂	11442
▁xp	11443
▁外传	11444
▁外贸	11445
▁打掉	11446
▁赢家	11447
▁八五	11448
▁喰	11449
▁纵横	11450
▁np	11451
▁纯白	11452
▁养猪	11453
▁骑兵	11454
▁淋雨	11455
▁防盗	11456
▁随心	11457
▁力帆	11458
▁平顶	11459
36	11460
▁渗	11461
▁钳	11462
思议	11463
▁寿司	11464
▁小品	11465
▁开户	11466
▁不可思议	11467
▁ol	11468
▁后街	11469
▁学号	11470
▁引擎	11471
▁木兰	11472
▁餐饮	11473
▁Ta	11474
▁光辉	11475
▁太行	11476
▁无望	11477
▁露出	11478
▁心愿	11479
▁豫	11480
▁财产	11481
▁歼	11482
▁叠加	11483
▁沿海	11484
▁车展	11485
▁光速	11486
▁岳阳	11487
▁赢得	11488
▁girl	11489
▁痰	11490
▁古典	11491
巴克	11492
▁蝙蝠侠	11493
▁哪吒	11494
▁日久	11495
▁大润发	11496
所以	11497
▁描写	11498
▁涨停	11499
▁骨架	11500
贝尔	11501
▁楼房	11502
▁注明	11503
▁贝儿	11504
▁四皇	11505
▁尼康	11506
▁老干	11507
▁贤惠	11508
▁氢	11509
▁烊	11510
▁一粒	11511
▁过渡	11512
▁增高	11513
▁找事	11514
▁用途	11515
▁白马	11516
▁额外	11517
▁人称	11518
▁闹腾	11519
▁近战	11520
尔夫	11521
▁滤镜	11522
▁速腾	11523
▁棕色	11524
▁混混	11525
▁茅台	11526
▁VPN	11527
▁出行	11528
▁快进	11529
▁框架	11530
▁美貌	11531
▁6500	11532
▁帐篷	11533
▁ssd	11534
▁郜	11535
▁步枪	11536
▁甜品	11537
▁节约	11538
▁模板	11539
▁die	11540
▁BI	11541
▁慕容	11542
▁控卫	11543
▁唇膏	11544
▁掉价	11545
▁超长	11546
▁康康	11547
▁必修	11548
▁联动	11549
▁回首	11550
▁天平	11551
▁红字	11552
▁讨好	11553
▁漯	11554
▁张飞	11555
▁活力	11556
▁八中	11557
▁刷子	11558
▁美利达	11559
▁定向	11560
▁精油	11561
▁返厂	11562
▁取向	11563
▁失灵	11564
▁清淡	11565
▁要约	11566
▁nice	11567
▁吃素	11568
▁美金	11569
▁闵	11570
▁白花	11571
▁发力	11572
▁凡事	11573
▁绘画	11574
▁nt	11575
▁上涨	11576
▁两节	11577
▁双飞	11578
▁138	11579
▁彬	11580
▁凯源	11581
▁老兵	11582
▁篮子	11583
▁大话	11584
▁战舰	11585
▁ai	11586
▁老三	11587
▁考核	11588
▁产权	11589
▁眼球	11590
▁耐看	11591
▁香香	11592
▁瑞士	11593
▁碧瑶	11594
▁保姆	11595
▁技嘉	11596
▁蓝莓	11597
▁长辈	11598
▁琅琊榜	11599
▁猖	11600
▁龚	11601
▁新图	11602
▁昆仑	11603
▁牛排	11604
▁生育	11605
▁韩信	11606
▁筛	11607
▁联播	11608
▁同类	11609
▁顺产	11610
无忌	11611
▁牛牛	11612
▁2010	11613
尼斯	11614
▁被抢	11615
▁庐	11616
斯拉	11617
▁极度	11618
▁结核	11619
▁跟班	11620
▁鉴赏	11621
▁茨	11622
▁小龙	11623
▁沐浴	11624
▁造假	11625
▁银魂	11626
▁昔	11627
▁朦	11628
▁泵	11629
▁佛教	11630
▁卡刷	11631
▁伴娘	11632
▁想像	11633
▁颁奖	11634
▁前场	11635
▁找出	11636
▁小众	11637
▁小名	11638
▁抱枕	11639
▁清朝	11640
79	11641
dy	11642
▁呱	11643
▁聚餐	11644
汉良	11645
ink	11646
▁美甲	11647
▁野战	11648
▁测量	11649
▁漂流	11650
▁转给	11651
▁hey	11652
▁椒	11653
▁物种	11654
▁稳重	11655
▁绿化	11656
▁转弯	11657
▁通行	11658
▁黑黑	11659
▁否定	11660
▁拔牙	11661
▁李小	11662
▁莉莉	11663
boys	11664
▁钟汉良	11665
▁朔	11666
▁麦子	11667
FC	11668
▁普洱	11669
▁爆头	11670
▁粉底	11671
▁美工	11672
▁何方	11673
▁包浆	11674
▁接送	11675
▁汉字	11676
▁法语	11677
▁海淘	11678
▁逝去	11679
▁沂	11680
▁深奥	11681
▁拖着	11682
▁长篇	11683
三角	11684
▁五行	11685
▁借用	11686
▁干货	11687
▁心头	11688
▁清晨	11689
▁脚丫	11690
▁返校	11691
▁腿短	11692
▁女兵	11693
▁780	11694
▁峡谷	11695
▁必死	11696
▁tpl	11697
bi	11698
▁恺	11699
▁渊	11700
▁懒人	11701
▁热天	11702
▁直系	11703
▁店面	11704
▁执法	11705
▁玩完	11706
▁超赞	11707
▁卡卡西	11708
▁匡	11709
▁王菲	11710
▁分校	11711
▁言语	11712
▁义工	11713
▁抢劫	11714
▁翻翻	11715
▁意愿	11716
ot	11717
▁呈	11718
▁卡巴	11719
▁山区	11720
▁用药	11721
▁惊悚	11722
▁入睡	11723
▁底层	11724
▁武力	11725
▁进门	11726
▁rng	11727
起灵	11728
▁害死	11729
▁验货	11730
▁七七	11731
▁厂商	11732
▁权威	11733
▁遮住	11734
▁博格巴	11735
▁烤鱼	11736
▁输液	11737
ason	11738
▁柒	11739
▁德甲	11740
▁枸	11741
▁小钱	11742
▁披萨	11743
▁拿起	11744
ED	11745
▁旱	11746
▁癌症	11747
▁相逢	11748
▁制裁	11749
▁超高	11750
▁吆	11751
▁分泌	11752
▁发黄	11753
▁泥巴	11754
▁玄学	11755
▁魔道	11756
▁独生	11757
▁阿德	11758
▁坐牢	11759
▁天明	11760
▁团子	11761
▁温和	11762
▁封顶	11763
▁排量	11764
▁政审	11765
▁赤犬	11766
▁马尔	11767
▁丰田	11768
▁揉揉	11769
▁李子	11770
▁绝世	11771
▁卡罗拉	11772
▁图文	11773
▁寒冰	11774
▁松石	11775
▁阳江	11776
▁陨石	11777
▁答复	11778
▁金发	11779
▁sei	11780
ON	11781
▁惧	11782
▁菜刀	11783
▁窗帘	11784
▁迷糊	11785
▁黄牌	11786
▁狄	11787
▁万州	11788
▁妖孽	11789
▁明媚	11790
▁机芯	11791
▁沧桑	11792
umia	11793
▁变相	11794
▁购入	11795
▁星巴克	11796
31	11797
▁er	11798
▁产地	11799
▁危害	11800
▁老汉	11801
▁面瘫	11802
▁2011	11803
▁大屌	11804
▁当下	11805
▁权力	11806
尔特	11807
▁平头	11808
▁张起灵	11809
▁捎带	11810
▁青州	11811
▁音色	11812
▁wuli	11813
▁刀子	11814
▁耳环	11815
▁首次	11816
▁殷	11817
▁破车	11818
不及待	11819
▁可恨	11820
▁天际	11821
▁女娃	11822
▁小五	11823
▁常德	11824
▁贵妃	11825
▁啷	11826
▁迫不及待	11827
▁原石	11828
▁左耳	11829
▁手册	11830
▁蛇精	11831
▁119	11832
▁510	11833
▁金额	11834
▁评估	11835
▁尧	11836
▁窒	11837
▁上古	11838
▁司法	11839
▁吊坠	11840
▁陷入	11841
▁2100	11842
uan	11843
▁死后	11844
▁稀奇	11845
▁鲸鱼	11846
▁107	11847
▁oh	11848
▁五险	11849
▁回放	11850
▁标价	11851
▁清爽	11852
▁out	11853
▁伊斯	11854
▁公正	11855
▁安娜	11856
▁方位	11857
▁晕车	11858
▁熔	11859
▁城南	11860
▁富强	11861
▁忠诚	11862
▁熄火	11863
▁疤痕	11864
▁ban	11865
▁一品	11866
▁出局	11867
▁天桥	11868
▁怕冷	11869
▁恶搞	11870
▁翻倍	11871
▁菠菜	11872
▁比利时	11873
▁揣	11874
▁东营	11875
▁恼火	11876
▁病友	11877
▁短裙	11878
▁诗词	11879
▁三甲	11880
▁分类	11881
▁医科	11882
▁拉姆	11883
▁揭穿	11884
▁冇	11885
▁蹬	11886
▁tp	11887
▁甜心	11888
不住	11889
▁号外	11890
▁武昌	11891
▁蚊帐	11892
▁蜡烛	11893
▁萱	11894
▁人缘	11895
▁998	11896
▁PVP	11897
▁坚信	11898
▁扩散	11899
▁球鞋	11900
▁emm	11901
▁允儿	11902
▁泰妍	11903
▁张家口	11904
▁九州	11905
▁勤劳	11906
▁受罪	11907
▁窗外	11908
▁渭	11909
▁太烂	11910
▁干掉	11911
▁枉	11912
▁镀	11913
▁抗议	11914
▁盒饭	11915
▁红白	11916
▁三叔	11917
▁损坏	11918
▁众人	11919
▁叫声	11920
▁歌唱	11921
▁负面	11922
hi	11923
▁哑铃	11924
▁对决	11925
▁散打	11926
▁奎	11927
▁感应	11928
▁清真	11929
▁绝配	11930
▁德比	11931
▁舜天	11932
▁谅解	11933
▁医药	11934
▁810	11935
八道	11936
▁保卫	11937
▁年费	11938
▁景色	11939
▁疼痛	11940
▁胡说八道	11941
▁迷恋	11942
▁闲聊	11943
▁what	11944
▁售价	11945
▁揪心	11946
▁补完	11947
▁捶	11948
▁镰	11949
里斯	11950
▁晋江	11951
▁迷信	11952
▁铁道	11953
▁zf	11954
▁伊朗	11955
▁具有	11956
▁呼叫	11957
▁平局	11958
▁340	11959
▁促销	11960
▁光盘	11961
▁创建	11962
▁及其	11963
▁无论	11964
▁潜伏	11965
▁开导	11966
▁了不起	11967
▁赋	11968
▁新店	11969
▁问号	11970
▁壹	11971
▁Ma	11972
▁厦大	11973
▁灵敏	11974
▁酷派	11975
▁金花	11976
▁秘籍	11977
▁贯	11978
▁替身	11979
GB	11980
▁另类	11981
▁游玩	11982
▁妞妞	11983
▁黄龙	11984
▁栖	11985
▁展开	11986
▁抽空	11987
▁484	11988
▁内江	11989
▁挑剔	11990
▁新书	11991
▁4200	11992
▁wp	11993
▁关爱	11994
▁好汉	11995
▁石化	11996
▁鄙人	11997
歪歪	11998
▁短句	11999
▁礼服	12000
▁纯净	12001
▁大意	12002
▁留住	12003
▁真事	12004
▁起名	12005
▁ssr	12006
▁爽歪歪	12007
▁老爷子	12008
▁向来	12009
▁颇	12010
▁咿呀	12011
▁枪毙	12012
▁冉	12013
▁大蛇	12014
▁新作	12015
▁SA	12016
▁窒息	12017
▁绩点	12018
▁网费	12019
▁证实	12020
▁避开	12021
▁保时	12022
▁负债	12023
▁观念	12024
▁议价	12025
▁仰望	12026
▁节假	12027
▁镇江	12028
66	12029
▁丢掉	12030
▁明教	12031
▁玉林	12032
▁试验	12033
▁诀	12034
▁专利	12035
▁作家	12036
▁代沟	12037
▁无题	12038
▁锈	12039
西哥	12040
▁出席	12041
▁成真	12042
▁局长	12043
▁李晨	12044
特尔	12045
▁10086	12046
▁文员	12047
▁真情	12048
▁莫斯	12049
▁安东尼	12050
▁雪碧	12051
▁内场	12052
▁通车	12053
▁采购	12054
▁螳	12055
▁阿扎	12056
▁鼻炎	12057
▁SU	12058
▁别动	12059
▁回顾	12060
▁果汁	12061
▁涂鸦	12062
▁躁	12063
▁全队	12064
▁八强	12065
▁得意	12066
▁早恋	12067
▁咆	12068
▁塞尔	12069
▁俏	12070
▁奴隶	12071
▁神威	12072
▁博美	12073
▁同济	12074
▁我叫	12075
▁永生	12076
▁530	12077
▁反转	12078
▁铺子	12079
▁提速	12080
▁墨西哥	12081
▁月球	12082
▁保研	12083
▁保时捷	12084
▁只怕	12085
▁时时	12086
▁汉人	12087
▁鲁尼	12088
▁檀	12089
▁发愁	12090
▁建国	12091
▁明智	12092
▁一方面	12093
▁汪峰	12094
▁骁龙	12095
800	12096
▁一封	12097
▁小兵	12098
▁荒野	12099
▁公牛	12100
▁写作	12101
▁徒步	12102
▁彩蛋	12103
▁野猪	12104
▁阻挡	12105
▁揽	12106
▁依据	12107
▁包头	12108
▁漯河	12109
▁瘪	12110
▁中立	12111
▁带土	12112
▁房贷	12113
▁文案	12114
▁盗号	12115
▁装扮	12116
▁调档	12117
▁进阶	12118
▁难为	12119
▁雅阁	12120
▁岛国	12121
▁道士	12122
▁典礼	12123
▁样式	12124
▁315	12125
▁冀	12126
▁fm	12127
▁入驻	12128
▁公婆	12129
▁尺度	12130
▁裴	12131
▁入侵	12132
▁昨日	12133
▁站台	12134
▁露娜	12135
▁骨灰	12136
▁弘	12137
▁芷	12138
▁墙角	12139
▁收音	12140
▁校车	12141
▁880	12142
▁骡子	12143
拉德	12144
▁掉帧	12145
▁窑	12146
▁抽象	12147
▁风流	12148
▁原子	12149
▁得病	12150
▁非法	12151
▁可口	12152
▁结巴	12153
▁俞	12154
▁轮滑	12155
▁安图	12156
▁株洲	12157
▁梨花	12158
▁胶水	12159
▁银川	12160
▁棱	12161
▁呆毛	12162
▁大黄	12163
▁山顶	12164
▁521	12165
▁合资	12166
▁深沉	12167
▁神圣	12168
▁苍云	12169
▁见解	12170
▁诱人	12171
▁历年	12172
▁珊瑚	12173
▁脱发	12174
▁鞭炮	12175
▁狡	12176
▁超哥	12177
▁SD	12178
▁剩女	12179
▁实况	12180
▁清空	12181
▁麻醉	12182
OD	12183
ppy	12184
▁举行	12185
▁对线	12186
▁拔掉	12187
▁环艺	12188
mo	12189
拉斯	12190
▁批次	12191
▁血液	12192
▁逐渐	12193
▁降频	12194
▁鞋底	12195
▁踊	12196
▁幅度	12197
▁成全	12198
▁转型	12199
▁庸	12200
▁下海	12201
▁四方	12202
▁水煮	12203
▁独一	12204
▁脊	12205
▁热身	12206
▁自知	12207
▁馄	12208
▁白搭	12209
▁五菱	12210
▁如同	12211
▁极其	12212
▁秃子	12213
▁金龙	12214
▁念头	12215
▁掉落	12216
▁中招	12217
▁南宫	12218
▁报仇	12219
▁短暂	12220
▁便利	12221
▁审计	12222
▁格局	12223
▁热量	12224
▁隧	12225
▁卡哇	12226
▁战略	12227
▁红莲	12228
▁畸	12229
▁万代	12230
▁吓坏	12231
无二	12232
▁认定	12233
▁懦	12234
▁奶酪	12235
▁威信	12236
▁耳洞	12237
▁kiss	12238
▁古镇	12239
▁更改	12240
▁行货	12241
▁面孔	12242
GO	12243
▁咖喱	12244
▁扑倒	12245
▁礼仪	12246
▁魁	12247
晓明	12248
▁展现	12249
▁李宁	12250
▁池子	12251
▁稳住	12252
▁能耐	12253
▁皂片	12254
▁啾	12255
▁挚	12256
▁皓	12257
▁vn	12258
▁尾田	12259
▁川大	12260
▁路透	12261
▁黑洞	12262
▁供应	12263
▁光驱	12264
▁媚娘	12265
▁花朵	12266
▁公关	12267
▁尊敬	12268
▁欧联	12269
▁生肉	12270
▁画图	12271
▁务必	12272
▁惠普	12273
▁牙签	12274
▁甄嬛	12275
▁绝育	12276
▁耿直	12277
▁风情	12278
▁雍	12279
▁xi	12280
▁一闪	12281
▁文综	12282
▁钩子	12283
▁跃	12284
▁修剪	12285
▁千金	12286
▁弱点	12287
▁泛滥	12288
▁熬过	12289
▁确切	12290
▁运势	12291
▁蔓	12292
▁堪忧	12293
▁天策	12294
▁溜冰	12295
▁十次	12296
▁无常	12297
▁比喻	12298
▁淘气	12299
▁硅胶	12300
▁fla	12301
▁mk	12302
▁打劫	12303
▁探索	12304
▁沦陷	12305
▁阿杜	12306
▁IOS	12307
be	12308
▁呆呆	12309
▁堪比	12310
▁广元	12311
▁匀	12312
▁凯多	12313
▁普高	12314
▁炉子	12315
▁真皮	12316
▁儿女	12317
▁特写	12318
▁雪莲	12319
▁断续	12320
▁水泡	12321
▁璇	12322
▁叶凡	12323
▁卡哇伊	12324
▁AI	12325
▁毒姐	12326
▁铁血	12327
▁抗战	12328
▁踊跃	12329
▁fate	12330
▁真伪	12331
▁网课	12332
▁达标	12333
▁哎呀呀	12334
▁独一无二	12335
▁牵挂	12336
▁首尔	12337
▁彩妆	12338
▁水怪	12339
▁自重	12340
▁蜗壳	12341
▁镖	12342
▁大庆	12343
▁念书	12344
▁捐款	12345
▁格力	12346
▁白熊	12347
▁专场	12348
▁维生素	12349
▁温格	12350
▁知心	12351
▁虎皮	12352
▁嗲	12353
▁芈	12354
▁圈钱	12355
▁均匀	12356
▁老兄	12357
▁腌	12358
▁违约	12359
▁午睡	12360
▁章节	12361
▁149	12362
▁小道	12363
▁猴哥	12364
▁守门员	12365
▁胀	12366
▁wx	12367
▁回味	12368
▁母猪	12369
▁补刀	12370
▁进场	12371
▁咆哮	12372
▁大餐	12373
▁捷达	12374
▁高原	12375
宝强	12376
▁蜜汁	12377
▁al	12378
▁kk	12379
▁扑克	12380
▁奥尼尔	12381
▁四周	12382
▁正文	12383
▁祭天	12384
▁车位	12385
▁转盘	12386
▁闪现	12387
▁小鬼	12388
▁嗝	12389
▁上饶	12390
▁健美	12391
▁国军	12392
▁眯	12393
▁BG	12394
▁玲珑	12395
▁食用	12396
▁点子	12397
▁皇子	12398
▁阴暗	12399
▁刀片	12400
▁实训	12401
▁摔倒	12402
▁考前	12403
67	12404
▁四处	12405
▁强者	12406
▁译	12407
▁xt	12408
雷斯	12409
▁公益	12410
▁厌恶	12411
▁圆满	12412
▁天道	12413
▁富裕	12414
▁浮生	12415
▁跳槽	12416
▁金鹰	12417
▁闫	12418
▁皮套	12419
▁过往	12420
▁奥体	12421
▁西皮	12422
OL	12423
▁蜥	12424
▁以往	12425
▁肤浅	12426
▁FM	12427
▁坏蛋	12428
▁诸城	12429
▁裕	12430
人心	12431
▁赞美	12432
▁媛	12433
▁弄错	12434
▁举起	12435
▁推倒	12436
▁空格	12437
▁卡西欧	12438
▁平顶山	12439
ony	12440
▁五折	12441
▁液体	12442
▁白雪	12443
▁色调	12444
▁锦绣	12445
▁雪人	12446
▁浙大	12447
▁路程	12448
▁形势	12449
▁断奶	12450
▁陷阱	12451
▁讯	12452
▁竞赛	12453
▁自选	12454
▁西西	12455
▁抽血	12456
▁洛克	12457
▁漂移	12458
▁乙肝	12459
▁措施	12460
▁漳州	12461
▁表带	12462
▁西宁	12463
▁忠告	12464
▁忠实	12465
▁日元	12466
▁面目	12467
▁diy	12468
▁分布	12469
▁坚果	12470
▁敬请	12471
▁落落	12472
▁瘤	12473
▁邂	12474
▁mg	12475
▁同乡	12476
▁面包车	12477
▁只因	12478
▁希尔	12479
▁排斥	12480
▁消除	12481
▁满月	12482
▁漫游	12483
▁自贡	12484
▁麻雀	12485
▁扣子	12486
▁毛概	12487
68	12488
▁主观	12489
▁福特	12490
▁音频	12491
▁hah	12492
▁沙河	12493
▁股份	12494
▁迎来	12495
▁雌	12496
▁三餐	12497
▁亚泰	12498
▁前者	12499
▁整形	12500
▁清货	12501
▁绝地	12502
▁行尸	12503
▁初期	12504
▁顺风车	12505
dd	12506
▁烛	12507
▁开幕	12508
▁忙碌	12509
▁神雕	12510
st	12511
▁cl	12512
▁元气	12513
▁华语	12514
▁南部	12515
▁妥协	12516
▁胜负	12517
▁sw	12518
▁当心	12519
▁磨牙	12520
▁脸色	12521
▁辱	12522
▁草稿	12523
▁穴	12524
▁中性	12525
▁侏儒	12526
▁赶集	12527
▁转速	12528
▁美如画	12529
▁突发	12530
▁细菌	12531
▁颠倒	12532
▁下月	12533
▁九龙	12534
▁明码	12535
▁熄灯	12536
▁爱狗	12537
▁皮鞋	12538
▁痔	12539
▁am	12540
▁出水	12541
▁百货	12542
▁盆栽	12543
▁语录	12544
▁锥	12545
▁US	12546
▁咱家	12547
▁码头	12548
▁福田	12549
▁缺德	12550
MA	12551
▁三层	12552
▁发卡	12553
▁大户	12554
▁气功	12555
▁油田	12556
▁湖州	12557
▁视野	12558
▁黑幕	12559
▁小年	12560
▁故乡	12561
▁ar	12562
▁伯爵	12563
▁实时	12564
▁执念	12565
▁操控	12566
▁立即	12567
▁童子	12568
▁垄	12569
▁传达	12570
▁总攻	12571
▁聚集	12572
▁长老	12573
▁酵	12574
▁大河	12575
▁小包	12576
▁曲面	12577
▁绿地	12578
▁绿箭	12579
▁偷看	12580
▁写信	12581
▁濮阳	12582
▁适配	12583
▁难题	12584
▁鞋带	12585
▁宙	12586
▁耕	12587
▁多玩	12588
▁奥巴马	12589
il	12590
▁GP	12591
▁游侠	12592
▁穿鞋	12593
▁红糖	12594
▁得慌	12595
▁网贷	12596
▁降临	12597
▁漠	12598
▁人权	12599
▁咬死	12600
▁好莱	12601
▁微风	12602
▁标记	12603
▁籍	12604
▁因此	12605
▁夸夸	12606
▁小凡	12607
▁当前	12608
▁韧	12609
巴巴	12610
▁六安	12611
▁极光	12612
▁策略	12613
▁卷发	12614
▁小哇	12615
▁气泡	12616
▁科密	12617
▁组长	12618
▁699	12619
▁沭	12620
▁癖	12621
▁ie	12622
▁切磋	12623
▁金子	12624
▁体制	12625
▁内置	12626
▁给予	12627
▁夜跑	12628
▁家门	12629
▁搭车	12630
▁泡水	12631
▁北极	12632
▁相伴	12633
▁解读	12634
▁镇魂	12635
▁隧道	12636
▁153	12637
▁用不着	12638
▁处分	12639
▁安定	12640
▁烟酒	12641
▁人流	12642
▁取决	12643
▁断食	12644
▁绫	12645
▁sr	12646
▁演义	12647
▁王源	12648
▁出演	12649
▁很准	12650
▁罚球	12651
▁翰	12652
100	12653
▁巫师	12654
▁条纹	12655
▁父子	12656
▁郜林	12657
▁歹	12658
▁DC	12659
▁仪式	12660
▁众筹	12661
▁因果	12662
▁老太	12663
TA	12664
▁伏笔	12665
▁少量	12666
▁度数	12667
▁斗破	12668
▁歇歇	12669
▁好莱坞	12670
▁xl	12671
▁基数	12672
▁悲观	12673
▁藏剑	12674
▁黑狗	12675
▁建造	12676
▁灰尘	12677
▁躺下	12678
▁邮编	12679
▁MD	12680
▁图像	12681
▁脑海	12682
▁雷达	12683
▁青训	12684
▁512	12685
▁人名	12686
▁畜	12687
▁锦州	12688
▁王宝强	12689
▁金山	12690
▁张家界	12691
▁樊	12692
▁BE	12693
▁条腿	12694
▁简洁	12695
▁辩论	12696
▁鬼泣	12697
▁MB	12698
▁中大	12699
▁契约	12700
▁宝剑	12701
▁无良	12702
▁纯正	12703
▁lovers	12704
▁赴	12705
▁友人	12706
▁岐	12707
▁ye	12708
▁溃疡	12709
▁老歌	12710
▁凉席	12711
▁多啦	12712
▁贝吉	12713
▁走进	12714
▁阿狸	12715
▁鬼畜	12716
65	12717
▁奕	12718
▁es	12719
▁中指	12720
▁六道	12721
▁转运	12722
▁太紧	12723
▁泄露	12724
▁会费	12725
▁按住	12726
▁遥遥	12727
▁sy	12728
▁前叉	12729
▁建好	12730
▁村民	12731
▁礼盒	12732
▁大碗	12733
▁秋季	12734
▁蛊	12735
▁诋	12736
一步	12737
▁光谷	12738
▁兜里	12739
▁皇族	12740
▁真累	12741
▁缺水	12742
▁面临	12743
▁599	12744
▁焚	12745
士顿	12746
▁案例	12747
▁百花	12748
▁连衣	12749
▁kd	12750
▁夜夜	12751
▁整车	12752
▁目录	12753
▁蘸	12754
▁图鉴	12755
▁浮夸	12756
▁电饭	12757
▁苍穹	12758
▁车道	12759
▁喂食	12760
▁闸	12761
▁快门	12762
▁公爵	12763
▁利于	12764
▁大班	12765
▁老牛	12766
▁悍	12767
▁夏洛	12768
▁置换	12769
▁荤	12770
▁二姐	12771
▁取代	12772
▁打通	12773
▁翁	12774
▁写成	12775
▁虚荣	12776
▁鬼片	12777
▁涌	12778
▁会展	12779
▁小麦	12780
▁把玩	12781
▁油菜	12782
▁诋毁	12783
▁钉子	12784
▁阿三	12785
▁随风	12786
▁全家福	12787
LC	12788
▁司令	12789
▁嫌疑	12790
▁郑大	12791
▁祈福	12792
▁航海	12793
▁轻轨	12794
▁闽南	12795
ur	12796
▁/	12797
▁烹	12798
不能	12799
▁基情	12800
▁红领	12801
▁背带	12802
▁迷津	12803
▁黄晓明	12804
▁蔚	12805
丸子	12806
▁口才	12807
▁器材	12808
▁方块	12809
▁种地	12810
▁访问	12811
▁IT	12812
▁太后	12813
▁弹药	12814
▁恶劣	12815
▁放纵	12816
▁环节	12817
▁白人	12818
▁189	12819
▁BO	12820
▁日剧	12821
▁识货	12822
▁喀	12823
▁包围	12824
▁户籍	12825
▁飞升	12826
▁一室	12827
▁困惑	12828
▁妓	12829
▁rp	12830
▁姿态	12831
▁蹭蹭	12832
▁送花	12833
▁化身	12834
▁布偶	12835
▁抗体	12836
▁持有	12837
▁胶囊	12838
▁连败	12839
▁重做	12840
▁麻子	12841
▁狂欢	12842
▁香烟	12843
▁钢铁侠	12844
▁来玩	12845
▁赞成	12846
▁酬	12847
▁亏本	12848
▁小雪	12849
▁旁友	12850
▁酸辣	12851
▁狭	12852
▁事后	12853
▁华人	12854
▁河西	12855
▁之所以	12856
▁私服	12857
▁小丸子	12858
▁声卡	12859
▁希腊	12860
▁草龟	12861
▁转向	12862
▁驱逐	12863
▁王爷	12864
▁陈晓	12865
▁变动	12866
▁累计	12867
▁娟	12868
▁括	12869
▁郴	12870
▁电玩	12871
▁目光	12872
▁黑发	12873
▁CAD	12874
▁day	12875
▁印刷	12876
▁城堡	12877
▁贴图	12878
▁两眼	12879
▁百米	12880
自语	12881
▁惊吓	12882
▁风气	12883
▁高等	12884
特林	12885
▁水管	12886
▁岔	12887
▁剑士	12888
▁去除	12889
▁坐垫	12890
▁天香	12891
▁怀旧	12892
▁拔草	12893
▁盖伦	12894
▁被套	12895
维斯	12896
▁德语	12897
▁牢骚	12898
▁网瘾	12899
▁西塘	12900
▁韩文	12901
▁鸡皮	12902
▁汐	12903
▁兵器	12904
▁墨水	12905
▁大火	12906
▁煮饭	12907
▁百家	12908
▁马克思	12909
▁打手	12910
▁799	12911
▁高尔夫	12912
▁矣	12913
▁黔	12914
▁心仪	12915
▁灌木	12916
▁这会儿	12917
▁两倍	12918
▁归属	12919
▁选秀	12920
▁3300	12921
正大	12922
▁快跑	12923
▁贝吉塔	12924
▁寓	12925
▁簪	12926
▁强壮	12927
▁卖身	12928
▁外设	12929
▁大区	12930
▁步入	12931
▁烤鸭	12932
▁转租	12933
▁领袖	12934
▁八哥	12935
▁冷冷	12936
▁华科	12937
▁射击	12938
▁性子	12939
▁新房	12940
▁邂逅	12941
▁青青	12942
▁im	12943
▁下蛋	12944
▁丧失	12945
▁再生	12946
▁增幅	12947
▁女警	12948
▁红帽	12949
▁唐人	12950
▁眼袋	12951
差钱	12952
斯坦	12953
▁心水	12954
▁汉口	12955
▁堡垒	12956
▁已有	12957
▁纤维	12958
▁顺着	12959
▁预期	12960
▁人马	12961
▁小智	12962
▁挑选	12963
▁黑鬼	12964
▁名词	12965
▁宠爱	12966
▁连坐	12967
▁默哀	12968
▁煤气	12969
▁相貌	12970
▁睁开	12971
▁午休	12972
▁围着	12973
▁战役	12974
▁每当	12975
▁爆音	12976
▁绵羊	12977
▁TI	12978
▁下方	12979
▁撒谎	12980
▁画室	12981
▁窝火	12982
▁转世	12983
▁闭关	12984
▁麻花	12985
▁一点点	12986
▁劲爆	12987
▁卡通	12988
▁红领巾	12989
▁三室	12990
▁感性	12991
▁成仙	12992
▁散心	12993
▁欠费	12994
▁水浒	12995
▁莽	12996
▁大块	12997
▁曲线	12998
▁馄饨	12999
▁157	13000
▁圭	13001
▁久违	13002
▁因人	13003
▁狂野	13004
▁线刷	13005
▁罗宾	13006
▁牙刷	13007
▁球拍	13008
▁白子	13009
▁试探	13010
▁斌	13011
而异	13012
▁留念	13013
▁白毛	13014
▁祖传	13015
▁因人而异	13016
姨子	13017
▁一路	13018
▁洗碗	13019
▁袖子	13020
▁珂	13021
▁安吉	13022
▁爱护	13023
▁赛事	13024
▁主队	13025
▁人为	13026
▁囤货	13027
▁大运	13028
▁扩大	13029
▁摊位	13030
▁空姐	13031
▁各有所	13032
▁新秀	13033
▁虎扑	13034
▁泥鳅	13035
▁萤火	13036
▁马卡	13037
▁百搭	13038
▁芥	13039
▁命令	13040
▁播种	13041
ion	13042
▁吉安	13043
▁祖安	13044
▁键帽	13045
▁九五	13046
▁带头	13047
▁分装	13048
▁笛子	13049
▁自有	13050
▁连衣裙	13051
▁宛	13052
▁万宝	13053
▁路虎	13054
▁阵亡	13055
▁难民	13056
de	13057
▁忻	13058
▁ly	13059
▁东山	13060
▁担忧	13061
▁舰队	13062
▁EDG	13063
▁下联	13064
▁过客	13065
▁麻药	13066
▁格式化	13067
▁老干妈	13068
▁乜	13069
▁倾诉	13070
▁垄断	13071
▁垫子	13072
▁提取	13073
▁曲阜	13074
▁棒球	13075
▁630	13076
▁沸	13077
▁养肥	13078
▁半路	13079
▁正统	13080
▁私立	13081
▁项羽	13082
▁步伐	13083
▁红星	13084
▁边锋	13085
▁ppl	13086
不同	13087
▁煤球	13088
▁尖叫	13089
▁排毒	13090
▁旅途	13091
▁海王	13092
▁白鼠	13093
to	13094
▁会议	13095
▁施主	13096
▁李宇	13097
▁玄机	13098
▁籽料	13099
▁魔神	13100
天依	13101
▁套现	13102
▁寄出	13103
▁小鞠	13104
▁烟雨	13105
▁肉丝	13106
▁偏僻	13107
▁发条	13108
▁啰嗦	13109
▁大剑	13110
▁天水	13111
▁112	13112
▁开灯	13113
▁耳光	13114
▁裁缝	13115
▁禾	13116
▁介入	13117
▁呼市	13118
▁掉色	13119
▁自言	13120
▁自言自语	13121
ost	13122
▁天长	13123
▁特技	13124
▁螺旋	13125
▁初试	13126
▁招待	13127
▁挨揍	13128
▁接机	13129
▁脚踝	13130
▁fx	13131
▁畸形	13132
▁贵宾	13133
▁填写	13134
▁孵化	13135
▁应付	13136
▁私家	13137
▁风车	13138
▁410	13139
34	13140
▁如家	13141
▁数值	13142
泊尔	13143
▁具备	13144
▁再版	13145
▁同级	13146
▁春夏	13147
▁欧元	13148
▁特工	13149
▁县级	13150
▁枣庄	13151
▁RP	13152
▁红龙	13153
▁1314	13154
▁wo	13155
▁碎碎	13156
▁光明正大	13157
▁艘	13158
▁乘务	13159
▁全文	13160
▁感悟	13161
▁枸杞	13162
▁砍头	13163
▁细细	13164
▁轰轰	13165
▁套票	13166
VA	13167
▁人选	13168
▁备考	13169
▁打孔	13170
▁知音	13171
▁彩铅	13172
▁冶	13173
▁共鸣	13174
▁太刀	13175
▁无穷	13176
▁系数	13177
▁终生	13178
▁MP	13179
▁加装	13180
▁足矣	13181
▁驯	13182
正经	13183
▁先天	13184
▁宝贵	13185
▁尘埃	13186
▁玥	13187
▁铸	13188
不忘	13189
何从	13190
▁争霸	13191
▁何去	13192
▁老手	13193
▁蹲着	13194
▁针灸	13195
▁何去何从	13196
▁活路	13197
▁人身	13198
▁双面	13199
▁延期	13200
▁楼道	13201
▁讲价	13202
▁不堪	13203
▁划水	13204
▁发小	13205
▁就读	13206
▁腐败	13207
▁good	13208
▁保镖	13209
▁反面	13210
▁瓷砖	13211
▁缓缓	13212
▁螳螂	13213
▁孽	13214
▁回想	13215
▁布局	13216
▁爱听	13217
▁办好	13218
▁长治	13219
▁农家	13220
▁砸死	13221
▁生肖	13222
▁脚气	13223
▁镜像	13224
克兰	13225
▁免息	13226
▁大钱	13227
▁床头	13228
▁鱼竿	13229
▁as	13230
▁姥爷	13231
▁巴中	13232
▁慈善	13233
▁盆子	13234
▁糊弄	13235
▁维斯	13236
▁裸机	13237
▁世锦	13238
▁帆布	13239
▁轮流	13240
▁闭口	13241
▁不差钱	13242
58	13243
▁出色	13244
▁台北	13245
▁拳击	13246
▁掩饰	13247
▁朦胧	13248
▁洒脱	13249
▁东湖	13250
▁妇幼	13251
▁重度	13252
▁防空	13253
▁处罚	13254
▁小屋	13255
▁海上	13256
▁特权	13257
▁诗人	13258
▁双梦	13259
▁定居	13260
▁躺赢	13261
▁车头	13262
▁涮	13263
▁芸	13264
▁鳞	13265
▁咬牙	13266
▁官配	13267
▁水面	13268
▁迷失	13269
▁BD	13270
▁击败	13271
▁战车	13272
▁海尔	13273
▁湿度	13274
▁绝交	13275
▁音效	13276
▁天下无	13277
▁碘	13278
▁众多	13279
▁哼唧	13280
▁大牛	13281
▁横着	13282
▁补救	13283
▁辰东	13284
▁野马	13285
▁马龙	13286
▁小将	13287
▁开荒	13288
▁欠钱	13289
▁殿下	13290
▁融入	13291
▁哄哄	13292
▁拉链	13293
▁看门	13294
▁糊糊	13295
▁舞帝	13296
▁做主	13297
▁奉献	13298
▁诈尸	13299
▁功课	13300
▁售楼	13301
▁太傻	13302
▁烧钱	13303
▁贵人	13304
▁香肠	13305
鲁兹	13306
▁威尔	13307
▁岳父	13308
▁星耀	13309
▁脱皮	13310
▁隐居	13311
▁161	13312
▁舆	13313
▁一本	13314
▁吉言	13315
▁宝箱	13316
▁求证	13317
▁灭绝	13318
▁绯闻	13319
72	13320
▁叫醒	13321
▁垂直	13322
▁帝豪	13323
▁脸部	13324
▁观光	13325
▁防止	13326
▁修养	13327
▁市民	13328
▁火柴	13329
人静	13330
▁步兵	13331
▁湘潭	13332
▁申论	13333
▁阶级	13334
▁雷同	13335
▁低点	13336
▁凄凉	13337
▁别克	13338
▁琪琪	13339
▁审判	13340
▁工行	13341
▁水饺	13342
▁超值	13343
▁邵阳	13344
地亚	13345
▁MS	13346
▁拍子	13347
▁村子	13348
▁租金	13349
▁追过	13350
▁miss	13351
▁夜深人静	13352
▁SE	13353
▁喷嚏	13354
▁在职	13355
▁大龙	13356
▁新都	13357
▁正直	13358
▁笑脸	13359
▁绞	13360
▁剑姬	13361
▁新村	13362
▁鞍山	13363
▁马拉松	13364
▁SP	13365
▁古筝	13366
▁周瑜	13367
▁手痒	13368
▁搜狗	13369
▁疑似	13370
▁空空	13371
▁承德	13372
▁离去	13373
▁红衣	13374
▁雷军	13375
▁三秒	13376
▁八戒	13377
▁学完	13378
▁林志	13379
▁爱疯	13380
AY	13381
▁唐僧	13382
▁懒癌	13383
▁不要钱	13384
▁阑	13385
▁三体	13386
▁乾坤	13387
▁后备	13388
▁牧师	13389
▁本尊	13390
▁过夜	13391
▁JS	13392
▁选拔	13393
▁黄油	13394
▁440	13395
▁看得见	13396
64	13397
▁拷	13398
▁光圈	13399
▁恭维	13400
▁掉毛	13401
▁未央	13402
▁轩辕	13403
▁稚	13404
金量	13405
▁佛祖	13406
▁烈焰	13407
▁世锦赛	13408
▁保值	13409
▁未见	13410
▁烦心	13411
▁瓶颈	13412
▁美眉	13413
▁脚印	13414
▁装嫩	13415
▁轮换	13416
▁伴奏	13417
▁猖狂	13418
▁跳绳	13419
▁车况	13420
▁医专	13421
▁可做	13422
▁居民	13423
▁掩盖	13424
▁咁	13425
▁二传	13426
▁体院	13427
▁天花	13428
▁含金量	13429
▁产物	13430
▁少时	13431
▁摸索	13432
▁暗病	13433
▁马达	13434
▁jio	13435
▁wind	13436
▁后裔	13437
▁吴京	13438
▁硅脂	13439
▁天神	13440
▁小罗	13441
▁张口	13442
▁集资	13443
▁女鬼	13444
▁三环	13445
▁宝哥	13446
▁打胎	13447
▁机房	13448
▁柜台	13449
▁耳钉	13450
▁阿特	13451
▁南航	13452
▁咸菜	13453
▁外来	13454
▁客流	13455
▁休学	13456
▁关灯	13457
▁宜家	13458
▁已然	13459
▁新春	13460
▁缩小	13461
▁dei	13462
▁乾隆	13463
▁五毒	13464
▁民办	13465
▁瑞典	13466
▁血量	13467
▁警校	13468
▁飞翔	13469
▁瘸	13470
▁平原	13471
▁抹茶	13472
▁罗本	13473
▁抢救	13474
▁洛天依	13475
▁uc	13476
▁敲门	13477
▁长短	13478
▁龙凤	13479
▁pa	13480
▁一晃	13481
▁固执	13482
▁来者	13483
▁DJ	13484
▁Hi	13485
▁万花	13486
▁凉拌	13487
▁朱砂	13488
▁治安	13489
▁跟踪	13490
▁雨伞	13491
▁灶	13492
▁刘邦	13493
▁泳装	13494
ct	13495
▁嘴角	13496
▁小妞	13497
▁无证	13498
▁筒子	13499
▁评选	13500
▁阉割	13501
▁身心	13502
ce	13503
▁基带	13504
▁套件	13505
▁慢性	13506
▁自娱	13507
▁郴州	13508
▁124	13509
▁蝉	13510
▁出台	13511
▁勺子	13512
▁橡胶	13513
▁上方	13514
▁桔梗	13515
▁狼人	13516
▁链条	13517
▁纲	13518
▁前边	13519
▁小球	13520
▁改行	13521
▁文具	13522
▁环球	13523
士尼	13524
▁IG	13525
▁别走	13526
▁天都	13527
▁对阵	13528
▁长歌	13529
▁首轮	13530
▁193	13531
▁老胡	13532
▁谢霆	13533
94	13534
▁二环	13535
▁全景	13536
▁占座	13537
▁沉重	13538
▁崴	13539
▁小虎	13540
▁点数	13541
▁耍猴	13542
▁独角兽	13543
▁客家	13544
以为是	13545
▁小姨子	13546
▁自以为是	13547
▁婚前	13548
▁老总	13549
▁730	13550
▁抉	13551
▁mt	13552
▁光芒	13553
▁引发	13554
▁用于	13555
▁紫砂	13556
▁侬	13557
▁明珠	13558
▁雪地	13559
77	13560
塞尔	13561
达斯	13562
▁唤醒	13563
▁铃木	13564
▁齿轮	13565
▁迪士尼	13566
▁edge	13567
▁三更	13568
▁顶尖	13569
▁绰	13570
▁浓浓	13571
▁狼狗	13572
▁轻点	13573
▁南苑	13574
▁建模	13575
▁文静	13576
▁血丝	13577
▁顺心	13578
▁高估	13579
同身	13580
▁党员	13581
▁冰棍	13582
▁玉露	13583
▁看似	13584
同身受	13585
▁感同身受	13586
▁匡威	13587
▁集锦	13588
▁乔治	13589
▁底座	13590
▁接班	13591
ero	13592
▁修路	13593
▁奶牛	13594
▁赏金	13595
▁附体	13596
▁柄	13597
▁五分	13598
▁提琴	13599
▁被迫	13600
▁坪	13601
▁无悔	13602
▁穆勒	13603
▁街拍	13604
▁尼泊尔	13605
▁丈夫	13606
▁撕裂	13607
▁疾风	13608
▁直邮	13609
▁匪	13610
▁骰	13611
▁亮亮	13612
▁人造	13613
▁埃及	13614
▁大使	13615
▁当官	13616
▁饲养	13617
UT	13618
▁加快	13619
▁原画	13620
▁反省	13621
▁大脚	13622
▁怨念	13623
▁拘留	13624
▁挖坑	13625
▁期限	13626
▁浪子	13627
▁痴汉	13628
▁考点	13629
▁份子	13630
▁分队	13631
▁可人	13632
▁背光	13633
▁至上	13634
▁三明	13635
▁侵权	13636
▁圣女	13637
▁苏牙	13638
▁超强	13639
▁霸占	13640
▁gdp	13641
▁7500	13642
▁tg	13643
▁一龙	13644
▁招牌	13645
▁李宇春	13646
mi	13647
德森	13648
生情	13649
▁催眠	13650
▁热带	13651
▁跌停	13652
▁预祝	13653
寡闻	13654
▁三色	13655
▁坎坷	13656
▁孤陋	13657
▁张开	13658
▁文都	13659
▁艰辛	13660
▁沃尔玛	13661
▁孤陋寡闻	13662
▁盔	13663
▁假话	13664
▁海里	13665
▁首映	13666
▁126	13667
▁谢霆锋	13668
▁佟	13669
▁苞	13670
▁卢卡	13671
▁建成	13672
▁波斯	13673
▁猝死	13674
▁五人	13675
▁凡是	13676
▁心寒	13677
▁恰好	13678
▁搜狐	13679
德里	13680
▁大锅	13681
▁效应	13682
▁概括	13683
▁黄鳝	13684
▁215	13685
▁TVB	13686
▁长白山	13687
下留	13688
到尾	13689
▁劳务	13690
▁娃子	13691
▁染发	13692
▁薇薇	13693
▁EMS	13694
▁从头到尾	13695
▁胭	13696
过去	13697
▁pv	13698
▁体操	13699
▁前线	13700
▁娜扎	13701
▁郭靖	13702
▁coser	13703
▁tfboys	13704
▁夭	13705
▁锂	13706
▁失主	13707
▁抉择	13708
▁遂宁	13709
▁dc	13710
▁喷雾	13711
▁纳米	13712
▁人参	13713
▁弹簧	13714
▁眉山	13715
▁冷却	13716
▁四维	13717
▁词语	13718
▁猫头	13719
达尔	13720
▁上楼	13721
▁变性	13722
▁威廉	13723
▁故人	13724
▁茂名	13725
▁旺仔	13726
▁气愤	13727
▁水乳	13728
▁沉淀	13729
▁航班	13730
▁雏田	13731
▁flyme	13732
▁tw	13733
▁烤箱	13734
▁联名	13735
▁呲	13736
▁新郎	13737
▁方形	13738
▁迪拜	13739
▁黄冈	13740
▁黄花	13741
▁蛾	13742
▁灾难	13743
▁耻辱	13744
▁辫	13745
▁水洗	13746
▁治病	13747
▁砖石	13748
▁红人	13749
▁庚	13750
▁勿进	13751
▁152	13752
▁920	13753
▁上岗	13754
▁保质	13755
▁分红	13756
▁大件	13757
▁夹子	13758
▁试听	13759
▁制药	13760
▁异响	13761
▁留恋	13762
▁白话	13763
▁职工	13764
▁位次	13765
▁存货	13766
▁沭阳	13767
▁碰碰	13768
▁秀萝	13769
▁素素	13770
▁象棋	13771
▁黑马	13772
▁犯错	13773
▁驾到	13774
▁坏处	13775
▁楚乔	13776
▁自已	13777
▁行测	13778
▁历程	13779
▁场所	13780
▁酒量	13781
▁上届	13782
▁圆脸	13783
▁铜陵	13784
▁颠覆	13785
▁女郎	13786
▁弓箭	13787
▁新婚	13788
▁田径	13789
▁花粉	13790
▁lpl	13791
▁喻	13792
▁豌	13793
▁演讲	13794
▁真巧	13795
尔多	13796
▁毁容	13797
▁油画	13798
▁红枣	13799
▁胡扯	13800
▁退换	13801
▁阿卡	13802
▁预留	13803
▁冒昧	13804
▁婆家	13805
▁格里	13806
▁洁面	13807
▁xr	13808
▁脸盲	13809
▁栀子花	13810
▁奇谭	13811
▁解剖	13812
ty	13813
▁炭	13814
▁TX	13815
▁受害	13816
▁学术	13817
▁抚顺	13818
▁玩偶	13819
▁融化	13820
▁三毛	13821
▁安眠	13822
▁痔疮	13823
▁西路	13824
▁雅安	13825
▁rec	13826
▁丰胸	13827
▁均码	13828
▁幼犬	13829
▁擎天	13830
▁氧气	13831
▁沉浸	13832
下留情	13833
▁Note	13834
▁手下留情	13835
▁狱	13836
▁天价	13837
▁笔芯	13838
▁绵绵	13839
▁西华	13840
▁复旦	13841
▁幻觉	13842
▁高密	13843
▁鼓起	13844
▁CN	13845
▁出入	13846
▁家常	13847
▁拥挤	13848
▁救急	13849
▁河东	13850
▁铁粉	13851
▁斋	13852
▁油漆	13853
▁进城	13854
▁半生	13855
▁地质	13856
▁失效	13857
▁安琪	13858
▁密封	13859
▁幕后	13860
▁杜鹃	13861
▁黄子	13862
▁戟	13863
▁华强	13864
▁单字	13865
▁月末	13866
▁京城	13867
▁手掌	13868
▁拉风	13869
▁洗漱	13870
▁反倒	13871
▁哗啦	13872
▁百里	13873
▁联发	13874
▁厌倦	13875
▁教科	13876
▁洋葱	13877
▁生锈	13878
▁电厂	13879
▁罗杰	13880
▁赛程	13881
▁蹭饭	13882
▁无所畏惧	13883
▁停机	13884
▁家中	13885
▁虚假	13886
▁衡量	13887
▁走好	13888
▁重回	13889
▁墩	13890
▁珍爱	13891
▁球赛	13892
▁仪表	13893
▁均价	13894
▁怪人	13895
▁打斗	13896
▁跟随	13897
▁逼死	13898
sl	13899
▁低估	13900
▁引援	13901
▁泳池	13902
▁神乐	13903
▁4800	13904
德尔	13905
ool	13906
▁东亚	13907
▁哑巴	13908
▁常态	13909
▁星级	13910
▁花臂	13911
▁uzi	13912
▁一寸	13913
▁向日	13914
▁宽容	13915
▁白凤	13916
▁红名	13917
▁结石	13918
▁苦瓜	13919
▁钢板	13920
TE	13921
▁交集	13922
▁哈利	13923
▁大罗	13924
▁弄坏	13925
▁fgo	13926
ord	13927
▁一桌	13928
▁指着	13929
▁药膏	13930
▁汾	13931
▁勇者	13932
▁大蒜	13933
▁恍惚	13934
▁油管	13935
▁王国	13936
▁耍耍	13937
▁莱万	13938
▁WIN	13939
eel	13940
▁减脂	13941
▁无修	13942
▁炮哥	13943
▁血糖	13944
▁770	13945
▁八一八	13946
▁羁	13947
▁妖姬	13948
▁途中	13949
ker	13950
▁度假	13951
▁打榜	13952
▁插队	13953
▁注射	13954
▁车厢	13955
▁黑莓	13956
普森	13957
▁GS	13958
▁所示	13959
▁白玉	13960
▁究极	13961
▁郭嘉	13962
▁区间	13963
▁园区	13964
▁妇科	13965
▁新百	13966
▁背书	13967
▁认知	13968
▁omg	13969
油条	13970
▁pg	13971
▁倔强	13972
▁猫腻	13973
▁rom	13974
▁受骗	13975
▁德莱	13976
▁战列	13977
▁格外	13978
▁煽情	13979
▁苦苦	13980
▁落叶	13981
▁访谈	13982
▁happy	13983
▁张翰	13984
▁斗罗	13985
▁江门	13986
▁舆论	13987
▁评委	13988
▁购置	13989
▁东城	13990
▁发疯	13991
▁手心	13992
▁抽屉	13993
▁挨个	13994
▁清秀	13995
▁野心	13996
unn	13997
▁TG	13998
▁崩盘	13999
▁石膏	14000
▁黑板	14001
▁冈	14002
▁厢	14003
▁碑	14004
▁银卡	14005
▁345	14006
▁肋	14007
▁妇联	14008
▁对此	14009
▁提款	14010
▁没落	14011
▁酋长	14012
▁高产	14013
▁察	14014
▁瓢	14015
▁三峡	14016
▁博爱	14017
▁春哥	14018
得来	14019
▁协商	14020
▁招财	14021
▁胭脂	14022
▁除去	14023
▁克隆	14024
▁通货	14025
▁116	14026
▁ouo	14027
▁悉	14028
▁杖	14029
▁灼	14030
▁陇	14031
▁女声	14032
▁车门	14033
▁骑马	14034
ish	14035
▁ph	14036
▁图源	14037
▁如愿	14038
▁两面	14039
▁服饰	14040
▁毫安	14041
▁特性	14042
▁预览	14043
▁饲料	14044
▁139	14045
▁筱	14046
气壮	14047
▁出击	14048
▁塞子	14049
▁珠宝	14050
▁理直	14051
▁续集	14052
▁陪玩	14053
▁不知所	14054
▁理直气壮	14055
▁民生	14056
▁胡思	14057
▁解毒	14058
▁起源	14059
▁龙卷	14060
▁弊	14061
▁云盘	14062
▁多美	14063
▁崎	14064
▁亨利	14065
▁包月	14066
▁复兴	14067
▁黑红	14068
▁硝	14069
▁内外	14070
▁后人	14071
▁太和	14072
▁母乳	14073
▁淋巴	14074
▁铠甲	14075
▁柬	14076
▁天山	14077
▁眨眼	14078
▁030	14079
▁双十二	14080
▁畔	14081
▁大猫	14082
▁眼影	14083
▁硫酸	14084
▁芭比	14085
▁业绩	14086
▁号召	14087
▁女巫	14088
▁捷豹	14089
▁掌声	14090
▁转接	14091
▁阿玛	14092
▁双重	14093
▁婆娘	14094
▁特警	14095
▁福克斯	14096
▁老油条	14097
▁罕	14098
▁中暑	14099
▁体积	14100
▁私奔	14101
▁黄毛	14102
▁斐	14103
尼奥	14104
▁临汾	14105
▁安置	14106
▁猫砂	14107
乱想	14108
▁强攻	14109
▁老鹰	14110
▁裸考	14111
▁鬼火	14112
ond	14113
▁冷面	14114
▁判定	14115
▁发病	14116
▁诊断	14117
▁嗖	14118
▁功效	14119
▁斯坦	14120
▁银狐	14121
▁胡思乱想	14122
路口	14123
▁东路	14124
▁卧铺	14125
▁园艺	14126
▁碧桂	14127
▁元帅	14128
▁独孤	14129
▁附属	14130
▁十字路口	14131
ed	14132
▁tr	14133
▁Th	14134
▁交际	14135
▁日报	14136
▁清流	14137
▁青旅	14138
▁骆驼	14139
▁公办	14140
▁猫眼	14141
▁生成	14142
霉素	14143
▁凉水	14144
▁凤眼	14145
▁动动	14146
▁千古	14147
▁扩招	14148
▁日日	14149
▁劳尔	14150
▁四海	14151
▁钙片	14152
▁高危	14153
▁小黄人	14154
▁头球	14155
▁套子	14156
▁总成	14157
▁抽签	14158
▁海水	14159
▁脆皮	14160
▁铁皮	14161
▁鳗	14162
▁SH	14163
▁她俩	14164
▁热干	14165
▁躺尸	14166
▁完胜	14167
▁本能	14168
▁眼科	14169
▁黄石	14170
▁NP	14171
▁发火	14172
▁点火	14173
▁烟雾	14174
▁HI	14175
▁UC	14176
▁后跟	14177
▁纯情	14178
▁一本正经	14179
▁dj	14180
▁冰心	14181
▁洋洋	14182
▁浪琴	14183
▁耶稣	14184
▁迈腾	14185
▁厨艺	14186
▁好象	14187
▁汇报	14188
▁经费	14189
▁热干面	14190
▁履	14191
▁叫法	14192
▁搞懂	14193
▁象牙	14194
▁响应	14195
▁林子	14196
▁男团	14197
▁胆大	14198
▁碧桂园	14199
AM	14200
▁蜈	14201
▁SK	14202
▁克罗	14203
▁入围	14204
▁升值	14205
▁cry	14206
▁克服	14207
▁反思	14208
▁团员	14209
▁尤克	14210
▁登顶	14211
▁二婚	14212
▁哦哟	14213
▁右转	14214
▁拟人	14215
▁私房	14216
▁花卉	14217
▁馅饼	14218
▁下垂	14219
▁夜间	14220
▁挑衅	14221
▁掌控	14222
▁木马	14223
▁灰灰	14224
▁联络	14225
▁青轴	14226
▁白子画	14227
▁台子	14228
▁山楂	14229
▁禁赛	14230
▁采用	14231
▁饥饿	14232
▁192	14233
当然	14234
▁aa	14235
▁主管	14236
▁内在	14237
▁四驱	14238
▁小六	14239
▁残废	14240
▁钰	14241
▁PR	14242
▁切糕	14243
▁武当	14244
▁生吃	14245
▁省略	14246
▁suv	14247
96	14248
▁憔	14249
一世	14250
▁拍片	14251
▁水温	14252
▁去处	14253
▁血管	14254
▁隔音	14255
▁顾问	14256
▁联发科	14257
▁为师	14258
▁电扇	14259
▁职教	14260
▁蜥蜴	14261
▁重伤	14262
▁缪	14263
▁台服	14264
▁指示	14265
▁泡菜	14266
▁自留	14267
▁人脉	14268
▁定律	14269
▁转播	14270
▁胚	14271
▁pi	14272
▁标注	14273
▁部曲	14274
▁霍霍	14275
▁指路	14276
▁阮	14277
▁OT	14278
▁前腰	14279
▁卖肉	14280
▁赛亚	14281
▁淳	14282
▁悬崖	14283
▁死刑	14284
▁喧	14285
▁一族	14286
▁寄养	14287
▁海景	14288
▁豌豆	14289
43	14290
▁仕	14291
▁栓	14292
▁璃	14293
▁双刀	14294
▁粘土	14295
▁罪过	14296
▁马来西亚	14297
▁与众	14298
▁漏水	14299
▁玉溪	14300
▁矮油	14301
▁与众不同	14302
▁谐	14303
▁拆穿	14304
▁拦截	14305
▁海豚	14306
▁狮虎	14307
▁畅玩	14308
▁莒	14309
烈烈	14310
▁交房	14311
▁公立	14312
▁晶晶	14313
▁稍后	14314
▁鞋盒	14315
取闹	14316
▁互赞	14317
▁出于	14318
▁出彩	14319
▁无理	14320
▁肚皮	14321
▁钢筋	14322
▁无理取闹	14323
▁轰轰烈烈	14324
▁嘣	14325
▁一枝	14326
▁三胖	14327
▁俄语	14328
▁小爱	14329
▁巴士	14330
▁放送	14331
▁讲课	14332
▁货币	14333
▁野兽	14334
▁鳄龟	14335
▁臀	14336
难尽	14337
▁上镜	14338
▁克洛	14339
▁票子	14340
▁脚垫	14341
▁App	14342
▁dps	14343
▁一言难尽	14344
▁篱	14345
▁偷袭	14346
▁心虚	14347
▁灰心	14348
▁眼看	14349
所欲为	14350
▁凶手	14351
▁呼唤	14352
▁就学	14353
▁霖	14354
▁教导	14355
▁练级	14356
▁话语	14357
▁重建	14358
▁向日葵	14359
▁为所欲为	14360
▁日久生情	14361
鲁斯	14362
▁外围	14363
▁绝情	14364
▁万象	14365
▁憔悴	14366
▁报酬	14367
▁气象	14368
▁眼霜	14369
▁盏	14370
▁Lo	14371
▁单刀	14372
▁开拓	14373
▁摆渡	14374
▁美观	14375
▁进一步	14376
▁双开	14377
▁流动	14378
▁百事	14379
▁豆芽	14380
▁铺垫	14381
▁117	14382
▁槐	14383
▁膀	14384
▁板面	14385
▁浓眉	14386
▁318	14387
play	14388
▁丛林	14389
▁泪水	14390
▁卒	14391
▁冬瓜	14392
▁发酵	14393
▁桐人	14394
▁直销	14395
▁逗逗	14396
▁长草	14397
▁人形	14398
▁决斗	14399
▁凯恩	14400
▁无极	14401
▁正比	14402
▁调配	14403
▁金银	14404
▁窦	14405
▁邋	14406
▁代发	14407
▁大虾	14408
▁奢望	14409
▁无邪	14410
▁清远	14411
▁逮住	14412
▁靓仔	14413
▁鸭蛋	14414
▁288	14415
ko	14416
▁DV	14417
▁哟西	14418
▁妹控	14419
▁潮州	14420
▁三元	14421
▁军区	14422
▁增肌	14423
▁挂失	14424
▁绿皮	14425
▁腊月	14426
▁难产	14427
▁平价	14428
▁病娇	14429
▁语法	14430
▁308	14431
▁调档线	14432
▁撬	14433
▁买断	14434
▁紫金	14435
▁若干	14436
▁薪资	14437
▁钢丝	14438
▁师徒	14439
▁新星	14440
▁武磊	14441
▁舰娘	14442
▁雨中	14443
▁中信	14444
▁病情	14445
▁稍稍	14446
▁胃炎	14447
▁见效	14448
▁集成	14449
▁貔	14450
▁基层	14451
▁穆里	14452
▁连发	14453
▁低压	14454
▁入选	14455
▁原色	14456
▁古人	14457
▁外景	14458
▁强袭	14459
▁绿城	14460
▁花瓣	14461
▁靶	14462
▁da	14463
▁妖刀	14464
▁悠闲	14465
▁教堂	14466
▁法术	14467
▁臭味	14468
弹子	14469
▁主体	14470
▁国道	14471
▁涡轮	14472
▁淮北	14473
▁开战	14474
▁炮弹	14475
▁转变	14476
晓彤	14477
▁零零	14478
▁148	14479
▁七彩虹	14480
▁主宰	14481
▁台阶	14482
▁成名	14483
▁rap	14484
▁念念不忘	14485
▁offer	14486
▁夜光	14487
▁拉票	14488
▁王力	14489
▁SSD	14490
▁科鲁兹	14491
▁淤	14492
▁二建	14493
▁以此	14494
▁冰激	14495
▁火鸡	14496
▁野钓	14497
▁上演	14498
▁公示	14499
▁口径	14500
▁防水	14501
▁妲	14502
▁尊享	14503
▁拉丁	14504
▁民工	14505
▁白骨	14506
▁德莱文	14507
▁烽	14508
竹马	14509
▁共和	14510
▁分成	14511
▁名校	14512
▁怀化	14513
▁朗逸	14514
▁牛人	14515
▁王祖	14516
▁迪迦	14517
▁ra	14518
▁亏损	14519
▁小王	14520
▁巴结	14521
▁机甲	14522
▁知了	14523
▁面粉	14524
▁青梅竹马	14525
▁歉	14526
▁主食	14527
▁助力	14528
▁得知	14529
▁抢手	14530
▁结晶	14531
▁颜料	14532
▁金弹子	14533
▁估分	14534
▁修为	14535
▁剖腹	14536
▁启事	14537
▁两口	14538
▁加温	14539
▁间隔	14540
▁tou	14541
如何	14542
▁传闻	14543
▁低保	14544
▁小圆	14545
▁赤峰	14546
▁饭钱	14547
▁枭	14548
以待	14549
▁女权	14550
▁情景	14551
▁支教	14552
▁无赖	14553
▁课堂	14554
▁dlc	14555
里里	14556
▁损伤	14557
▁无论如何	14558
▁妾	14559
▁ct	14560
▁攻防	14561
▁盘龙	14562
▁透视	14563
▁尤克里里	14564
ul	14565
▁咚	14566
▁嚷	14567
▁要饭	14568
▁沛	14569
ita	14570
▁俗称	14571
▁图解	14572
▁坏话	14573
▁托运	14574
▁疼爱	14575
▁虐文	14576
▁feel	14577
▁宪	14578
▁乐福	14579
▁挺住	14580
▁盖世	14581
▁纸质	14582
▁芹	14583
▁大纲	14584
▁小美	14585
▁打压	14586
▁拼图	14587
▁揭阳	14588
▁梦游	14589
▁清凉	14590
▁瑾	14591
▁赎	14592
▁兵种	14593
▁奔三	14594
▁富豪	14595
▁巡演	14596
▁波兰	14597
▁波特	14598
▁耳塞	14599
▁般配	14600
▁较好	14601
▁540	14602
基尼	14603
▁受过	14604
▁地段	14605
▁帕萨	14606
▁强悍	14607
▁拐弯	14608
▁脑筋	14609
▁301	14610
▁801	14611
▁事务	14612
▁住房	14613
▁后山	14614
▁小康	14615
▁所见	14616
▁插画	14617
▁沉香	14618
▁笔画	14619
▁胡同	14620
▁部件	14621
▁625	14622
▁偏见	14623
▁晕倒	14624
▁老张	14625
▁元芳	14626
▁别处	14627
▁大鳄	14628
▁835	14629
死不	14630
▁切记	14631
▁初步	14632
▁安息	14633
▁推测	14634
▁温水	14635
▁三通	14636
▁人声	14637
▁大姨	14638
▁慢跑	14639
▁笑声	14640
▁十堰	14641
▁神机	14642
▁美院	14643
▁腰围	14644
▁饭后	14645
▁131	14646
▁CBA	14647
▁骏	14648
▁土著	14649
▁官司	14650
▁OP	14651
▁平房	14652
▁手撕	14653
▁暴走	14654
▁量产	14655
▁阿兰	14656
▁面值	14657
于晏	14658
▁印尼	14659
▁迟迟	14660
▁升学	14661
▁县里	14662
▁山庄	14663
▁海豹	14664
▁飞飞	14665
▁侵犯	14666
▁当今	14667
▁凹凸	14668
▁寓意	14669
▁得一	14670
▁港口	14671
▁狗市	14672
▁蜈蚣	14673
靓颖	14674
▁一击	14675
▁乱想	14676
▁大鹏	14677
▁山河	14678
▁归路	14679
▁头部	14680
▁彩排	14681
▁文盲	14682
▁稳如	14683
▁追加	14684
▁霓虹	14685
▁彭于晏	14686
▁伤身	14687
▁星云	14688
油精	14689
▁BL	14690
▁八部	14691
▁分量	14692
▁改掉	14693
▁法则	14694
▁视线	14695
▁帕萨特	14696
▁卖肾	14697
▁暗夜	14698
▁空位	14699
▁试纸	14700
▁风油精	14701
▁前奏	14702
▁哪所	14703
▁异端	14704
▁罗伊	14705
▁骰子	14706
▁are	14707
▁张靓颖	14708
38	14709
▁免税	14710
▁存活	14711
▁小额	14712
▁梅州	14713
▁马力	14714
▁两口子	14715
▁下拉	14716
▁乌龙	14717
▁好闻	14718
▁开枪	14719
▁条子	14720
▁枯燥	14721
▁神烦	14722
▁面部	14723
▁东南亚	14724
▁佩戴	14725
▁标的	14726
▁贱卖	14727
▁赫赫	14728
▁太卡	14729
▁美发	14730
▁资历	14731
▁SUV	14732
▁驿	14733
▁批量	14734
▁砂纸	14735
▁脱毛	14736
▁鸡排	14737
▁凯撒	14738
▁大喊	14739
▁年糕	14740
and	14741
▁丝毫	14742
▁天命	14743
▁游民	14744
▁490	14745
▁彤	14746
ono	14747
▁sl	14748
▁一搜	14749
▁喜酒	14750
▁好似	14751
▁存储	14752
▁掉进	14753
▁象征	14754
▁陆地	14755
▁腋	14756
▁双龙	14757
▁轨迹	14758
▁迎春	14759
▁860	14760
▁冰凉	14761
▁拉米	14762
▁松江	14763
▁自费	14764
▁丈人	14765
▁学区	14766
▁尼奥	14767
▁沧海	14768
▁粘着	14769
▁还清	14770
▁倦	14771
▁下坡	14772
▁可儿	14773
▁小队	14774
▁期盼	14775
▁爆率	14776
▁偃	14777
▁泊	14778
▁亲近	14779
▁空闲	14780
▁英才	14781
oe	14782
▁征求	14783
▁连连	14784
▁催收	14785
▁八楼	14786
▁大笑	14787
▁天籁	14788
▁硬度	14789
▁兰博基尼	14790
▁汶	14791
▁驰	14792
▁多米	14793
▁孝感	14794
▁车身	14795
▁近来	14796
▁里皮	14797
▁长裤	14798
OW	14799
▁大阪	14800
▁投影	14801
▁本钱	14802
▁重楼	14803
▁闪避	14804
▁大成	14805
▁少于	14806
▁影片	14807
▁秘诀	14808
▁铁板	14809
之明	14810
▁jd	14811
▁懦弱	14812
▁晕死	14813
▁蛮子	14814
▁警惕	14815
无愧	14816
▁KO	14817
▁QY	14818
▁习俗	14819
▁唐朝	14820
▁梧桐	14821
▁毛笔	14822
▁漏气	14823
▁皮尔	14824
▁补发	14825
ba	14826
▁小李	14827
▁朵朵	14828
▁渐变	14829
▁邋遢	14830
▁WE	14831
▁美军	14832
▁长裙	14833
▁闹闹	14834
▁鼓浪	14835
▁畏	14836
▁争论	14837
▁壮观	14838
▁支配	14839
▁肇庆	14840
▁FPS	14841
莱斯	14842
▁公鸡	14843
▁宿州	14844
▁杂货	14845
▁羁绊	14846
▁说道	14847
▁雅典	14848
▁首保	14849
▁乌克兰	14850
▁芋	14851
▁下款	14852
▁严谨	14853
▁大厨	14854
▁暴毙	14855
▁烹饪	14856
▁边境	14857
▁遵守	14858
▁why	14859
▁亳	14860
▁嫣	14861
▁红线	14862
▁棠	14863
▁漩	14864
▁ML	14865
▁木瓜	14866
▁租车	14867
▁噬	14868
▁衔	14869
▁辙	14870
丈夫	14871
▁吉大	14872
▁挣得	14873
▁提议	14874
▁获奖	14875
▁狩	14876
▁晒图	14877
▁沙县	14878
▁离异	14879
▁租借	14880
▁解约	14881
▁书本	14882
▁五金	14883
▁代付	14884
▁偷情	14885
▁场次	14886
▁小于	14887
▁镜片	14888
▁大丈夫	14889
▁新百伦	14890
无不	14891
▁os	14892
▁压死	14893
▁梁山	14894
▁档期	14895
▁泥嚎	14896
▁英俊	14897
▁补天	14898
▁钱币	14899
▁鼻屎	14900
▁金士顿	14901
gbang	14902
▁bgm	14903
▁掠	14904
▁阀	14905
▁丽丽	14906
▁微单	14907
▁东大	14908
▁小姑	14909
▁迹象	14910
▁808	14911
▁An	14912
▁止损	14913
▁猜猜	14914
▁电网	14915
▁透析	14916
▁雪琪	14917
▁194	14918
▁屡	14919
顶盒	14920
▁九尾	14921
▁稳妥	14922
▁翻拍	14923
▁自欺	14924
▁见鬼	14925
▁3700	14926
▁cg	14927
▁两头	14928
▁神似	14929
▁粉刺	14930
▁西昌	14931
▁鱼儿	14932
▁阿拉伯	14933
97	14934
▁圆珠	14935
▁琴行	14936
▁五角	14937
▁单个	14938
▁斗争	14939
▁毫升	14940
▁留情	14941
▁胡椒	14942
▁龙岗	14943
▁浸	14944
▁迦	14945
▁隋	14946
▁一一	14947
▁传递	14948
▁便携	14949
▁合算	14950
▁火葬	14951
▁英朗	14952
▁鼓浪屿	14953
▁苔	14954
▁主唱	14955
▁执照	14956
▁靠边	14957
▁三者	14958
▁储存	14959
▁叮当	14960
▁悬疑	14961
▁死光	14962
▁跳跳	14963
▁机顶盒	14964
▁栾	14965
▁酝	14966
▁ic	14967
▁坚守	14968
▁树叶	14969
▁盐水	14970
▁美洲	14971
▁调试	14972
▁新郑	14973
▁海岸	14974
▁貔貅	14975
indle	14976
则天	14977
▁叛逆	14978
▁奖杯	14979
▁嫁妆	14980
▁摩天	14981
▁摸鱼	14982
▁艰苦	14983
▁蝌	14984
OTA	14985
▁侠客	14986
▁古龙	14987
▁右侧	14988
▁少恭	14989
▁正缘	14990
▁海鸥	14991
▁激励	14992
▁肠子	14993
▁良药	14994
▁草帽	14995
▁别跑	14996
▁协和	14997
▁卫庄	14998
▁好书	14999
▁物美	15000
江堰	15001
▁众生	15002
▁宁静	15003
▁斯科	15004
▁片花	15005
▁话筒	15006
▁费钱	15007
▁英特尔	15008
▁窟	15009
▁专治	15010
▁城际	15011
▁整合	15012
▁气味	15013
▁洗掉	15014
▁鲍鱼	15015
▁都江堰	15016
▁九阴	15017
▁水草	15018
▁花间	15019
▁飞龙	15020
▁茬	15021
▁偷吃	15022
▁挂掉	15023
▁身旁	15024
▁阿扎尔	15025
ji	15026
姗姗	15027
欺人	15028
▁fo	15029
▁乱跑	15030
▁实行	15031
▁武则天	15032
▁焕	15033
▁逊	15034
▁投胎	15035
▁贬值	15036
▁韩红	15037
▁骗局	15038
▁才艺	15039
▁眼珠	15040
▁鱼人	15041
ND	15042
▁痊	15043
▁作孽	15044
▁抛开	15045
▁抹黑	15046
▁摇滚	15047
▁放宽	15048
▁网银	15049
▁药剂	15050
▁重力	15051
▁乛	15052
▁北漂	15053
▁和弦	15054
▁抓拍	15055
▁混子	15056
▁自创	15057
▁西大	15058
▁ck	15059
▁不醉	15060
▁临近	15061
▁四轮	15062
▁国籍	15063
▁天意	15064
▁市政	15065
▁枫叶	15066
▁站岗	15067
▁语种	15068
▁说唱	15069
500	15070
▁CB	15071
▁ge	15072
▁产量	15073
▁人脸	15074
▁忽冷	15075
▁急性	15076
▁打倒	15077
▁掌柜	15078
▁掐死	15079
▁深水	15080
▁盛开	15081
▁莎莎	15082
▁蜕皮	15083
▁试图	15084
▁队服	15085
▁科斯塔	15086
▁华中	15087
▁小笼	15088
▁招办	15089
有可	15090
▁好色	15091
▁术士	15092
▁楚楚	15093
▁每场	15094
▁点卷	15095
▁玄武	15096
▁转车	15097
▁里程	15098
▁ppt	15099
▁腕	15100
化腾	15101
拉里	15102
▁CV	15103
▁LP	15104
▁三小	15105
▁农场	15106
▁看淡	15107
▁穹妹	15108
▁选举	15109
▁预购	15110
▁菱	15111
▁先知	15112
▁勋章	15113
▁癫	15114
▁聋	15115
▁大兴	15116
▁渺茫	15117
▁短路	15118
▁路灯	15119
▁渤	15120
▁一抹	15121
▁先后	15122
▁剑豪	15123
▁卡车	15124
▁喂养	15125
▁备战	15126
▁枪手	15127
▁痊愈	15128
▁苦力	15129
▁退烧	15130
▁铁丝	15131
华德	15132
▁一念	15133
▁双层	15134
▁清单	15135
▁诺诺	15136
▁跳蚤	15137
▁骨骼	15138
▁黄子韬	15139
▁蹄	15140
▁千米	15141
▁各国	15142
▁周董	15143
▁尾款	15144
▁接生	15145
▁真货	15146
▁贝爷	15147
▁镁	15148
▁lb	15149
▁原配	15150
▁客队	15151
▁收割	15152
▁破碎	15153
▁肠粉	15154
▁里约	15155
▁鼓楼	15156
▁930	15157
▁裱	15158
▁巴斯	15159
▁行者	15160
▁马化腾	15161
▁一同	15162
▁万家	15163
▁后置	15164
▁忌口	15165
▁电热	15166
▁种田	15167
▁调料	15168
▁集美	15169
▁ji	15170
▁叨叨	15171
▁川崎	15172
▁庄园	15173
▁电容	15174
▁钟意	15175
▁音箱	15176
▁楷	15177
▁伊利	15178
▁底气	15179
▁甜美	15180
▁看花	15181
▁花瓶	15182
▁触动	15183
▁过高	15184
▁百分比	15185
▁绥	15186
▁小票	15187
▁左眼	15188
▁手电	15189
▁歌迷	15190
▁疗程	15191
▁老吴	15192
▁亚丝	15193
▁借款	15194
▁壮士	15195
▁废品	15196
▁日韩	15197
▁沙拉	15198
▁辟谣	15199
▁阵型	15200
▁食指	15201
▁冰激凌	15202
▁曜	15203
▁坚挺	15204
▁碍事	15205
▁899	15206
▁掘	15207
▁太郎	15208
▁香槟	15209
▁恩施	15210
▁梅林	15211
▁620	15212
▁字典	15213
▁延安	15214
▁股东	15215
▁薰衣	15216
▁霸主	15217
▁陛	15218
ack	15219
▁保利	15220
▁前妻	15221
▁男儿	15222
▁亚丝娜	15223
▁拭	15224
年华	15225
▁六星	15226
▁嘴脸	15227
▁天数	15228
▁拆线	15229
▁铲屎	15230
▁抒	15231
▁绽	15232
▁校队	15233
▁至宝	15234
▁莱阳	15235
▁连冠	15236
▁汤普森	15237
▁马德里	15238
▁拙	15239
▁功底	15240
▁四块	15241
▁女皇	15242
▁榆林	15243
▁113	15244
▁飒	15245
▁情趣	15246
▁纯色	15247
▁xy	15248
▁分割	15249
▁回校	15250
▁声望	15251
▁套图	15252
▁孤岛	15253
▁容忍	15254
▁崖柏	15255
▁护卫	15256
▁烈士	15257
▁物体	15258
▁猜想	15259
▁秦始	15260
▁纯真	15261
▁艳遇	15262
▁雄起	15263
▁高利	15264
▁1230	15265
▁下旬	15266
▁中铁	15267
▁军爷	15268
▁刀锋	15269
▁厚厚	15270
▁能手	15271
▁007	15272
▁255	15273
▁声乐	15274
▁宝来	15275
▁小路	15276
▁至尊宝	15277
忽热	15278
▁教养	15279
▁花屏	15280
▁205	15281
▁忽冷忽热	15282
61	15283
▁南开	15284
▁释怀	15285
▁RO	15286
▁ki	15287
▁回民	15288
▁归宿	15289
▁摔死	15290
▁管道	15291
▁自备	15292
▁花色	15293
▁随口	15294
▁570	15295
▁北苑	15296
▁卖钱	15297
▁插卡	15298
▁温顺	15299
▁精美	15300
▁精选	15301
▁防线	15302
▁传家	15303
▁拦网	15304
▁挂钩	15305
▁爱美	15306
▁现价	15307
▁霍华德	15308
▁高利贷	15309
▁纬	15310
▁低频	15311
▁呀呀	15312
▁大佛	15313
▁小法	15314
▁左脚	15315
▁真菌	15316
▁USB	15317
se	15318
▁内屏	15319
▁小青	15320
▁性情	15321
▁疑难	15322
▁福气	15323
▁may	15324
▁pt	15325
▁劝退	15326
▁加时	15327
▁妲己	15328
▁老湿	15329
▁长夜	15330
▁单调	15331
▁苍天	15332
▁弱鸡	15333
▁远处	15334
▁272	15335
▁DOTA	15336
▁遁	15337
▁丫丫	15338
▁丹东	15339
▁乘客	15340
▁伤疤	15341
▁向阳	15342
▁希特	15343
▁景德	15344
▁灰熊	15345
▁蒸汽	15346
▁贬低	15347
▁露天	15348
▁面皮	15349
▁飘逸	15350
▁龙湖	15351
▁一生一世	15352
▁冷冻	15353
▁板砖	15354
▁河口	15355
▁火热	15356
▁秋风	15357
▁艳阳	15358
▁镰刀	15359
▁麟	15360
▁代工	15361
▁哇靠	15362
▁渭南	15363
▁漫步	15364
▁示范	15365
▁蜂窝	15366
▁配送	15367
▁雷蛇	15368
▁青椒	15369
▁vans	15370
罗兰	15371
▁发起	15372
▁奇瑞	15373
▁造反	15374
▁酝酿	15375
▁预习	15376
▁应当	15377
▁浮动	15378
▁白皮	15379
▁翻脸	15380
▁秦始皇	15381
▁windows	15382
▁啸	15383
▁口粮	15384
▁抢票	15385
▁追随	15386
▁skt	15387
ok	15388
▁径	15389
▁互助	15390
▁寒冷	15391
▁西山	15392
▁账单	15393
▁PL	15394
▁相应	15395
▁算法	15396
▁蝌蚪	15397
▁轴承	15398
▁问道	15399
消息	15400
▁yu	15401
▁冰雹	15402
▁只认	15403
▁各省	15404
▁日产	15405
▁正当	15406
▁油箱	15407
▁露面	15408
▁乱来	15409
▁假球	15410
▁士郎	15411
▁汇通	15412
▁路亚	15413
▁甭	15414
▁衍	15415
▁二郎	15416
▁前往	15417
▁吾皇	15418
▁天尊	15419
▁帮派	15420
▁常熟	15421
▁指出	15422
▁烽火	15423
▁跳跃	15424
▁辣子	15425
▁郑智	15426
▁小道消息	15427
CD	15428
▁九寨	15429
▁奔腾	15430
▁返利	15431
▁猕	15432
▁双肩	15433
▁名著	15434
▁土匪	15435
▁烫手	15436
▁窥	15437
▁前行	15438
▁半边	15439
▁参谋	15440
▁小霸	15441
▁服役	15442
▁酷跑	15443
▁闪亮	15444
▁面签	15445
▁黄皮	15446
▁ns	15447
▁出库	15448
▁紧身	15449
▁高光	15450
▁自欺欺人	15451
活来	15452
▁MT	15453
▁元首	15454
▁反射	15455
▁小菜	15456
▁蛋挞	15457
▁螺蛳	15458
▁151	15459
▁死去活来	15460
▁茹	15461
▁ba	15462
▁官员	15463
▁抄底	15464
▁拉伸	15465
▁桥头	15466
▁雷电	15467
▁饵料	15468
▁鼻梁	15469
浩特	15470
▁恶毒	15471
▁木工	15472
▁榜样	15473
▁献丑	15474
▁转卖	15475
ara	15476
▁巷子	15477
▁浩克	15478
▁消肿	15479
▁薰衣草	15480
加尔	15481
▁康师	15482
▁攒够	15483
▁无痕	15484
▁榜单	15485
▁毒死	15486
▁温差	15487
▁重心	15488
▁音源	15489
▁李小龙	15490
▁入场	15491
▁加水	15492
▁反差	15493
▁招惹	15494
▁现房	15495
▁红外	15496
▁蜕变	15497
▁845	15498
▁茧	15499
▁中海	15500
▁丽水	15501
▁光洙	15502
▁挥手	15503
▁日历	15504
▁较多	15505
▁人种	15506
▁仇人	15507
▁双性	15508
▁帕克	15509
▁洪荒	15510
▁潜艇	15511
▁电筒	15512
▁西决	15513
▁RNG	15514
西兰	15515
▁一等	15516
▁乔巴	15517
▁吾王	15518
▁弹跳	15519
▁春暖	15520
▁烈酒	15521
▁生源	15522
▁那英	15523
▁黄海	15524
▁恰恰	15525
▁掏空	15526
▁机率	15527
▁火炮	15528
▁联谊	15529
▁贫穷	15530
▁重制	15531
▁间接	15532
▁鲁迅	15533
▁yes	15534
拉蒂	15535
▁云中	15536
▁撩人	15537
▁方子	15538
▁猛龙	15539
▁瓶盖	15540
▁误差	15541
▁伊拉克	15542
▁1530	15543
▁做作	15544
▁发红	15545
▁实事	15546
▁物件	15547
▁猕猴	15548
▁英灵	15549
▁204	15550
▁署	15551
▁衢	15552
▁俗话	15553
▁开拍	15554
▁排线	15555
▁贞德	15556
▁镶嵌	15557
▁低落	15558
▁利哥	15559
▁显眼	15560
▁精装	15561
▁COS	15562
▁匕	15563
▁膈	15564
▁螨	15565
▁kp	15566
▁出山	15567
▁勿忘	15568
▁德克	15569
▁猴王	15570
▁绣花	15571
▁安宁	15572
▁望远	15573
▁陛下	15574
▁仆	15575
▁凋	15576
▁郫	15577
▁UI	15578
▁冷风	15579
▁白费	15580
▁稻米	15581
▁续费	15582
▁匈	15583
▁亳州	15584
▁左侧	15585
▁泰勒	15586
▁漩涡	15587
▁男娃	15588
▁保送	15589
▁指正	15590
是人	15591
▁后轮	15592
▁局部	15593
▁愉悦	15594
▁浅浅	15595
▁美服	15596
▁转圈	15597
▁钟情	15598
▁康师傅	15599
▁潭	15600
▁天启	15601
▁流通	15602
▁空腹	15603
▁红魔	15604
是人非	15605
▁830	15606
▁物是人非	15607
▁桓	15608
▁放炮	15609
▁松动	15610
▁瞧一	15611
▁迷惑	15612
▁曙	15613
▁笋	15614
来说	15615
▁IS	15616
▁丝丝	15617
▁分散	15618
▁北斗	15619
▁红黑	15620
▁秩	15621
200	15622
▁东华	15623
▁划分	15624
▁失散	15625
▁消极	15626
cd	15627
▁昙	15628
▁夏普	15629
▁有道	15630
▁破案	15631
▁订购	15632
▁121	15633
▁710	15634
▁世家	15635
▁卡普	15636
▁时辰	15637
▁风衣	15638
▁Or	15639
▁pm	15640
▁强哥	15641
▁神州	15642
▁韶关	15643
▁龙套	15644
▁小霸王	15645
▁啄	15646
▁撵	15647
▁容颜	15648
▁泡脚	15649
▁灭亡	15650
▁纠纷	15651
▁长门	15652
▁闭合	15653
▁一等奖	15654
▁瞧一瞧	15655
▁憧	15656
▁gh	15657
▁后场	15658
▁应对	15659
▁抗拒	15660
▁无畏	15661
▁暴食	15662
▁瞄准	15663
▁群殴	15664
▁耀眼	15665
▁老罗	15666
▁腰子	15667
▁叙利亚	15668
ml	15669
▁ep	15670
▁三七	15671
▁师资	15672
▁直辖	15673
▁4.0	15674
▁惬	15675
敬明	15676
▁乐天	15677
▁开眼	15678
▁沙特	15679
▁西餐	15680
▁造孽	15681
▁1066	15682
▁漂泊	15683
▁裁决	15684
▁景德镇	15685
▁IN	15686
▁二院	15687
▁以身	15688
▁天宫	15689
▁甜点	15690
▁QU	15691
▁ks	15692
▁加菲	15693
▁双流	15694
▁辛酸	15695
▁金克	15696
▁厮	15697
▁蛛	15698
▁小宇	15699
▁母子	15700
▁红轴	15701
▁郭敬明	15702
病相	15703
走肉	15704
▁围脖	15705
▁婚庆	15706
▁波尔	15707
▁火气	15708
▁认清	15709
▁讲座	15710
▁逼真	15711
▁领主	15712
病相怜	15713
▁同病相怜	15714
▁行尸走肉	15715
▁崭	15716
▁古墓	15717
▁圣剑	15718
▁扩展	15719
▁炼金	15720
▁美妙	15721
▁蜀山	15722
▁连体	15723
▁钓友	15724
▁新西兰	15725
▁乱世	15726
▁倒地	15727
▁剑网	15728
▁国度	15729
▁姓李	15730
▁巨龙	15731
▁携手	15732
▁色素	15733
▁趣味	15734
▁Lz	15735
▁炫迈	15736
▁猎豹	15737
▁看房	15738
▁足疗	15739
ico	15740
▁佩佩	15741
▁好强	15742
▁开奖	15743
▁浮躁	15744
▁细致	15745
▁茶花	15746
▁阿克	15747
▁活生生	15748
▁矢	15749
▁争锋	15750
▁剑魔	15751
▁图腾	15752
▁塞纳	15753
▁跑道	15754
心没	15755
▁入戏	15756
▁双核	15757
▁方舟	15758
▁玩腻	15759
▁病院	15760
▁简约	15761
▁胡乱	15762
▁避暑	15763
心没肺	15764
▁阿特兹	15765
▁没心没肺	15766
59	15767
一度	15768
▁与否	15769
▁包场	15770
▁后会	15771
▁隐隐	15772
▁911	15773
▁CCTV	15774
lo	15775
依林	15776
▁凉爽	15777
▁周琦	15778
▁对联	15779
▁科研	15780
▁顾虑	15781
▁game	15782
▁前卫	15783
▁构图	15784
▁试玩	15785
▁钟爱	15786
▁各有所爱	15787
▁一吨	15788
▁异形	15789
▁折耳	15790
▁通俗	15791
▁魔怔	15792
▁劵	15793
▁国宝	15794
▁斧头	15795
▁晨曦	15796
▁片头	15797
▁玻尿	15798
▁讲述	15799
▁过早	15800
▁高斯	15801
▁car	15802
▁绷	15803
▁切割	15804
▁爱到	15805
▁群雄	15806
▁进军	15807
▁铃铛	15808
▁闹事	15809
▁640	15810
▁玻尿酸	15811
▁沥	15812
▁富有	15813
▁惬意	15814
▁虚无	15815
▁诉说	15816
▁贫道	15817
▁车灯	15818
▁鸭脖	15819
▁荒废	15820
▁衬托	15821
▁火麒麟	15822
▁一年一度	15823
▁卖花	15824
▁塑造	15825
▁德罗	15826
▁急救	15827
▁时速	15828
▁普工	15829
▁胜过	15830
▁败笔	15831
▁咏	15832
▁嘀	15833
▁光电	15834
▁玛莎	15835
▁硬座	15836
▁芝士	15837
▁孔卡	15838
400	15839
▁中东	15840
▁中美	15841
▁卷毛	15842
▁瓶邪	15843
▁腻歪	15844
▁远光	15845
▁右眼	15846
▁抽出	15847
▁查收	15848
▁百变	15849
▁纸条	15850
▁老四	15851
▁惹事	15852
▁明目	15853
▁氯	15854
▁参军	15855
▁过午	15856
▁雍正	15857
jo	15858
八两	15859
▁书桌	15860
▁偏激	15861
▁尊贵	15862
▁胞	15863
▁世事	15864
▁南美	15865
▁嗷呜	15866
▁库尔	15867
▁蓝雨	15868
▁华强北	15869
▁半斤八两	15870
▁掂	15871
▁倚天	15872
▁哦豁	15873
▁天子	15874
▁框框	15875
▁灿白	15876
▁被撞	15877
▁谈心	15878
▁讹	15879
▁中职	15880
▁友尽	15881
▁发哥	15882
▁图钉	15883
▁家境	15884
▁开销	15885
▁微波	15886
▁湿疹	15887
▁舟山	15888
▁详解	15889
▁还价	15890
▁炕	15891
▁业界	15892
▁仅次	15893
▁出题	15894
▁薯条	15895
▁调音	15896
▁靴子	15897
▁黑卡	15898
▁擂	15899
▁四肢	15900
▁情结	15901
▁时常	15902
▁纷纷	15903
▁通宝	15904
▁蔡依林	15905
▁三包	15906
▁九宫	15907
▁凄惨	15908
▁围棋	15909
▁复检	15910
▁补钙	15911
▁望远镜	15912
吹灯	15913
▁五音	15914
▁延续	15915
▁异国	15916
▁推车	15917
▁灯笼	15918
▁麻袋	15919
▁殊	15920
▁显瘦	15921
▁祛斑	15922
▁ez	15923
▁二流	15924
▁多亏	15925
▁梅毒	15926
▁万宝路	15927
▁鬼吹灯	15928
▁12345	15929
而不	15930
ess	15931
▁认命	15932
▁逃脱	15933
丽莎	15934
▁憨憨	15935
▁石英	15936
▁飞哥	15937
93	15938
BO	15939
▁意料	15940
▁焊接	15941
▁经销	15942
▁装死	15943
▁西医	15944
▁525	15945
ick	15946
▁勋鹿	15947
▁化验	15948
▁原油	15949
▁sta	15950
▁zu	15951
▁仁兄	15952
▁佳佳	15953
▁八宝	15954
▁哈密	15955
▁拒收	15956
▁梦境	15957
▁怠	15958
gle	15959
▁将要	15960
▁白日	15961
▁补给	15962
▁触手	15963
▁匠	15964
▁WW	15965
▁cy	15966
▁乖巧	15967
▁天机	15968
▁查出	15969
▁爱惜	15970
▁电锯	15971
▁秋秋	15972
▁箭头	15973
▁野人	15974
▁间谍	15975
▁瀑	15976
▁褐	15977
▁制图	15978
▁加多	15979
▁星河	15980
▁晋城	15981
▁莫拉	15982
▁赣榆	15983
▁拴	15984
▁乌拉	15985
▁别笑	15986
▁大卫	15987
▁开光	15988
▁成活	15989
▁先行	15990
▁抓狂	15991
▁护甲	15992
▁张无忌	15993
▁4300	15994
▁孜	15995
▁琵	15996
有余	15997
▁主办	15998
▁传话	15999
▁小贝	16000
▁徒手	16001
▁河大	16002
▁虚弱	16003
▁天下无敌	16004
▁佰	16005
▁噎	16006
▁光影	16007
▁唠叨	16008
▁惊奇	16009
▁摔跤	16010
▁新兰	16011
▁无量	16012
▁满天	16013
▁牙医	16014
▁订票	16015
▁鬼才	16016
▁绮	16017
▁六岁	16018
▁外包	16019
▁比尔	16020
▁齐鲁	16021
▁乐高	16022
▁书吧	16023
▁压轴	16024
▁喷水	16025
▁影驰	16026
▁立案	16027
▁舔舔	16028
▁艺体	16029
▁龙骑	16030
▁302	16031
▁BIOS	16032
▁韬	16033
▁刀塔	16034
▁城北	16035
▁女娲	16036
▁柬埔	16037
▁金城	16038
▁食谱	16039
▁鱼雷	16040
▁龙马	16041
▁6700	16042
▁千秋	16043
▁呕吐	16044
▁天仙	16045
▁端正	16046
▁逆风	16047
▁霸刀	16048
▁柬埔寨	16049
▁信赖	16050
▁倒追	16051
▁哈佛	16052
▁工体	16053
▁散发	16054
▁水中	16055
▁短板	16056
▁花椒	16057
▁萨拉	16058
▁3400	16059
▁6300	16060
▁不知所措	16061
▁晗	16062
里克	16063
▁串门	16064
▁亲吻	16065
▁人偶	16066
▁拭目	16067
▁蓬莱	16068
▁黄钻	16069
▁LED	16070
▁俾	16071
▁毙	16072
▁乌镇	16073
▁嗨森	16074
▁白纸	16075
▁空运	16076
▁胃病	16077
▁门市	16078
▁仅次于	16079
▁屑	16080
▁hg	16081
▁互补	16082
▁信念	16083
▁哈维	16084
▁城镇	16085
▁如雪	16086
▁海大	16087
▁白夜	16088
▁简章	16089
▁精辟	16090
▁糖葫芦	16091
▁拭目以待	16092
▁中控	16093
▁全年	16094
▁每张	16095
▁膈应	16096
▁防火	16097
▁tb	16098
▁上联	16099
▁佳木	16100
▁刚需	16101
▁小飞	16102
▁tvb	16103
▁丰收	16104
▁公车	16105
▁四核	16106
▁天门	16107
▁愈合	16108
▁篱笆	16109
▁老街	16110
▁试驾	16111
▁sc	16112
▁三笠	16113
▁喜悦	16114
▁多元	16115
▁好话	16116
▁巢湖	16117
▁方特	16118
▁汽水	16119
▁靓女	16120
▁王力宏	16121
▁唾	16122
▁专项	16123
▁亚麻	16124
▁射程	16125
▁映山	16126
▁肩高	16127
▁近照	16128
▁锤石	16129
▁面霜	16130
▁408	16131
▁nex	16132
VE	16133
▁拢	16134
▁氨	16135
▁苛	16136
舅子	16137
▁人中	16138
▁作怪	16139
▁剃刀	16140
▁汇率	16141
▁番号	16142
▁维奇	16143
▁end	16144
▁kindle	16145
63	16146
▁兖	16147
香糖	16148
▁gk	16149
▁中日	16150
▁分担	16151
▁摇摆	16152
▁精工	16153
▁澈	16154
▁MG	16155
▁mu	16156
▁保管	16157
▁冰龙	16158
▁口琴	16159
▁喂奶	16160
▁失调	16161
▁弹出	16162
▁柴油	16163
▁127	16164
▁298	16165
▁遥遥无期	16166
▁UP	16167
▁gr	16168
▁憧憬	16169
▁摇头	16170
▁苏大	16171
▁试题	16172
▁轻薄	16173
▁鬼神	16174
▁伸出	16175
▁双标	16176
▁昨夜	16177
▁白脸	16178
▁耳熟	16179
▁采纳	16180
▁门诊	16181
▁高架	16182
▁黄铜	16183
▁房屋	16184
▁透镜	16185
▁郫县	16186
相识	16187
▁力挺	16188
▁原话	16189
▁吉鲁	16190
▁弹琴	16191
▁捂脸	16192
▁新增	16193
▁福音	16194
▁荷包	16195
▁零钱	16196
▁口香糖	16197
▁三高	16198
▁全图	16199
▁求知	16200
▁网点	16201
▁质保	16202
▁迪奥	16203
▁夏洛特	16204
▁rm	16205
▁妖娆	16206
▁清零	16207
▁雪女	16208
▁黑执	16209
情愿	16210
▁回路	16211
▁推进	16212
▁玩命	16213
▁立志	16214
▁嘅	16215
▁fu	16216
▁克莱	16217
▁水母	16218
▁映山红	16219
▁flag	16220
▁禧	16221
▁舱	16222
▁养鸡	16223
▁后退	16224
▁外科	16225
▁淋淋	16226
▁炸毛	16227
▁蛾子	16228
▁首播	16229
▁122	16230
▁脐	16231
▁师生	16232
▁忻州	16233
▁戒酒	16234
▁西施	16235
▁马超	16236
▁黑客	16237
▁卟	16238
▁农夫	16239
▁报案	16240
▁招式	16241
▁田螺	16242
▁精简	16243
▁运用	16244
▁阿米	16245
▁佣金	16246
▁平底	16247
▁海拔	16248
▁海马	16249
▁种菜	16250
▁财神	16251
▁csgo	16252
加索	16253
▁加长	16254
▁检讨	16255
▁测绘	16256
▁造化	16257
▁青涩	16258
▁cba	16259
▁ddr	16260
▁prpr	16261
▁代入	16262
▁尔等	16263
▁换钱	16264
▁放养	16265
▁斯巴	16266
▁斯文	16267
▁称霸	16268
book	16269
▁闰	16270
▁借书	16271
▁原料	16272
▁善于	16273
▁宙斯	16274
▁掏出	16275
▁lumia	16276
格里	16277
▁六花	16278
▁宜春	16279
▁封建	16280
▁牙龈	16281
▁着凉	16282
▁草地	16283
▁赖床	16284
▁金马	16285
▁DVD	16286
▁妒	16287
▁喜庆	16288
▁尼姑	16289
▁巡逻	16290
▁散件	16291
▁日落	16292
▁秩序	16293
▁足坛	16294
▁2900	16295
69	16296
▁睢	16297
ats	16298
柏然	16299
花开	16300
▁到头	16301
▁派对	16302
▁港币	16303
▁神曲	16304
▁集邮	16305
▁214	16306
▁gpu	16307
▁3100	16308
▁襦	16309
▁临沭	16310
▁咸宁	16311
▁抗压	16312
▁缺货	16313
▁井柏然	16314
乐祸	16315
▁In	16316
▁te	16317
▁不详	16318
▁修正	16319
▁幸灾	16320
▁梯子	16321
▁江宁	16322
▁苏南	16323
▁血族	16324
▁跑着	16325
▁幸灾乐祸	16326
▁分院	16327
▁定点	16328
▁敏捷	16329
▁皮子	16330
▁运转	16331
▁134	16332
▁佳木斯	16333
▁圣地	16334
▁挚爱	16335
▁木屑	16336
▁校企	16337
▁纺织	16338
▁贫民	16339
▁金沙	16340
▁三科	16341
▁使徒	16342
▁入耳	16343
▁外教	16344
▁睡姿	16345
▁翻天	16346
▁这时	16347
▁野蛮	16348
▁黑执事	16349
▁SN	16350
▁优美	16351
▁军官	16352
▁小声	16353
▁正气	16354
▁翻页	16355
▁行列	16356
ifa	16357
▁CR	16358
▁偏方	16359
▁后援	16360
▁国税	16361
▁大熊	16362
▁妨碍	16363
▁相聚	16364
▁规范	16365
▁亢	16366
▁喵哥	16367
▁攀枝	16368
▁来生	16369
▁负重	16370
▁榕	16371
▁乳液	16372
▁凯凯	16373
▁实测	16374
▁寂静	16375
▁点头	16376
▁精确	16377
▁薪水	16378
▁认输	16379
▁over	16380
▁擀	16381
▁半点	16382
▁屏保	16383
▁新旧	16384
▁中学生	16385
ig	16386
▁床垫	16387
▁底蕴	16388
▁琴女	16389
▁破军	16390
▁耳根	16391
▁谢娜	16392
▁贴切	16393
▁雨后	16394
▁塘沽	16395
▁怀恋	16396
▁门牙	16397
▁光照	16398
▁围攻	16399
▁局面	16400
▁搬迁	16401
▁民大	16402
▁江阴	16403
▁费力	16404
▁轩逸	16405
▁逃离	16406
▁ttl	16407
▁攀枝花	16408
▁荐	16409
莱士	16410
▁出众	16411
▁星战	16412
▁油钱	16413
▁璐璐	16414
▁红军	16415
▁npc	16416
▁春暖花开	16417
▁变胖	16418
▁喷泉	16419
▁小草	16420
▁曙光	16421
▁水桶	16422
▁离线	16423
▁已知	16424
▁生根	16425
▁fc	16426
▁交费	16427
▁凯旋	16428
▁天安	16429
▁成教	16430
▁粉碎	16431
▁草坪	16432
▁郑秀	16433
▁步步高	16434
▁柯震	16435
▁牵引	16436
▁独占	16437
▁NPC	16438
水长	16439
▁抢走	16440
▁收分	16441
▁灭霸	16442
▁焦点	16443
▁犬舍	16444
▁顺畅	16445
▁234	16446
▁嗅	16447
▁债务	16448
▁前轮	16449
▁受苦	16450
▁喝奶	16451
▁堂堂	16452
▁宏碁	16453
▁我方	16454
▁手提	16455
▁投稿	16456
▁玩弄	16457
▁监理	16458
▁臣妾	16459
▁冰岛	16460
▁塔罗	16461
▁撸串	16462
▁本山	16463
▁瓜皮	16464
▁古诗	16465
▁月影	16466
▁朱雀	16467
▁火神	16468
▁药品	16469
▁旦	16470
▁机体	16471
▁海淀	16472
▁真武	16473
▁秃头	16474
▁迷宫	16475
▁8500	16476
▁涟	16477
▁蟒	16478
▁两三	16479
▁作风	16480
▁太湖	16481
▁小威	16482
▁惊醒	16483
▁漏电	16484
▁紧紧	16485
▁订车	16486
est	16487
▁修身	16488
▁可动	16489
▁圣杯	16490
▁天文	16491
▁实施	16492
▁斑点	16493
▁水都	16494
▁艾米	16495
▁骨科	16496
▁下药	16497
▁倾听	16498
▁排列	16499
▁揍他	16500
▁炎症	16501
▁真品	16502
▁罗技	16503
▁脓	16504
顺风	16505
▁刮风	16506
▁断货	16507
▁温江	16508
▁甩锅	16509
▁饭量	16510
布斯	16511
▁举例	16512
▁信封	16513
▁兜风	16514
▁叛徒	16515
▁崭新	16516
▁文风	16517
▁无人	16518
▁牙盘	16519
▁被毁	16520
▁隐瞒	16521
▁马鞍山	16522
ip	16523
▁绊	16524
▁干巴	16525
▁晚班	16526
▁长跑	16527
▁骨气	16528
▁高傲	16529
▁鲶	16530
▁ui	16531
▁九零	16532
▁富翁	16533
▁灵宝	16534
▁王冠	16535
▁羞辱	16536
▁试吃	16537
▁鬼父	16538
▁yo	16539
▁宜兴	16540
▁杉杉	16541
▁蒙蒙	16542
▁身陷	16543
▁黛玉	16544
▁一路顺风	16545
▁分家	16546
▁命名	16547
▁引力	16548
▁征兵	16549
▁评级	16550
VO	16551
▁XP	16552
▁dw	16553
▁偏高	16554
▁前程	16555
▁方程	16556
▁腹部	16557
▁董事	16558
▁lv	16559
▁丑丑	16560
▁光剑	16561
▁沙滩	16562
▁河马	16563
▁番禺	16564
▁百草	16565
▁西城	16566
▁面谈	16567
32	16568
▁烩	16569
后感	16570
▁仙侠	16571
▁促进	16572
▁做多	16573
▁天府	16574
▁失联	16575
▁奶秀	16576
▁救人	16577
▁鸟儿	16578
▁华莱士	16579
▁加重	16580
▁填空	16581
▁并列	16582
▁枯萎	16583
▁正道	16584
▁瞎话	16585
▁秒钟	16586
▁柯震东	16587
▁萤火虫	16588
▁肮	16589
张胆	16590
▁弹弓	16591
▁慰问	16592
▁简体	16593
▁苏打	16594
▁转告	16595
▁1995	16596
▁明目张胆	16597
▁光阴	16598
▁客源	16599
▁死于	16600
▁神魔	16601
▁原矿	16602
▁头衔	16603
▁拉克	16604
▁杨颖	16605
▁痞子	16606
▁这般	16607
▁预警	16608
▁高炮	16609
▁三好	16610
▁丑八	16611
▁压床	16612
▁可得	16613
▁心率	16614
▁批准	16615
▁括号	16616
▁淡水	16617
▁眼红	16618
▁转化	16619
▁辟邪	16620
▁冕	16621
▁CT	16622
▁倒流	16623
▁内功	16624
▁奇遇	16625
▁更衣	16626
▁遭罪	16627
▁金钟	16628
▁一起吧	16629
▁1499	16630
▁la	16631
▁人际	16632
▁助产	16633
▁混养	16634
▁风华	16635
▁躯	16636
▁小船	16637
▁月神	16638
▁hel	16639
▁吞噬	16640
▁学士	16641
▁烧死	16642
▁爱慕	16643
▁银座	16644
▁高频	16645
▁136	16646
▁五黄	16647
▁审批	16648
▁校庆	16649
▁漫天	16650
▁爱车	16651
▁种花	16652
▁马里	16653
▁薏	16654
不理	16655
▁使者	16656
▁厨子	16657
▁忍痛	16658
▁扯蛋	16659
▁拆掉	16660
▁拉莫	16661
▁村姑	16662
▁督促	16663
▁蒙迪	16664
▁重返	16665
▁嫦	16666
▁八折	16667
▁取款	16668
▁打伞	16669
▁白首	16670
▁败类	16671
▁通州	16672
▁酵素	16673
▁鉴于	16674
▁隔天	16675
oney	16676
▁208	16677
▁一朵花	16678
▁1998	16679
▁HK	16680
▁习题	16681
▁前传	16682
▁华侨	16683
▁增生	16684
▁派送	16685
▁福喜	16686
▁虎头	16687
▁鬼步	16688
▁十一点	16689
尼亚	16690
▁五彩	16691
▁冥王	16692
▁排练	16693
▁搭伙	16694
▁碟刹	16695
▁黄渤	16696
▁丑八怪	16697
▁浣	16698
▁万千	16699
▁三清	16700
▁丑男	16701
▁小兰	16702
▁接住	16703
▁站位	16704
▁违反	16705
▁say	16706
▁DA	16707
▁固始	16708
▁车险	16709
▁采集	16710
▁筑	16711
▁余量	16712
▁吊带	16713
▁孤身	16714
▁安然	16715
▁抑制	16716
▁拿掉	16717
▁混搭	16718
▁穆里尼奥	16719
▁自知之明	16720
▁撮	16721
900	16722
▁僵硬	16723
▁冰火	16724
▁孙女	16725
▁山羊	16726
▁满满	16727
▁潜质	16728
▁黑轴	16729
▁碱	16730
▁三爷	16731
▁制定	16732
▁耐力	16733
▁Win	16734
▁dog	16735
夜叉	16736
达内	16737
▁悉尼	16738
▁空号	16739
▁邪神	16740
▁金光	16741
▁糜	16742
而论	16743
▁夫子	16744
▁宽度	16745
▁抠门	16746
▁电大	16747
▁谱子	16748
▁退步	16749
▁BA	16750
▁基于	16751
▁政委	16752
▁睡意	16753
之力	16754
▁CG	16755
▁三门	16756
▁中部	16757
▁似曾	16758
▁每秒	16759
▁气纯	16760
▁看望	16761
▁精髓	16762
▁超车	16763
▁踏踏	16764
▁防伪	16765
▁303	16766
▁仪器	16767
▁包涵	16768
▁私戳	16769
▁葵花	16770
▁躲避	16771
▁蜻	16772
▁上机	16773
▁体温	16774
▁有特	16775
▁蕊	16776
ust	16777
▁半截	16778
▁回眸	16779
▁安丘	16780
▁暴龙	16781
▁灌篮	16782
▁金秀	16783
▁风俗	16784
▁258	16785
▁328	16786
▁456	16787
▁588	16788
▁齐达内	16789
▁婵	16790
▁藻	16791
▁Id	16792
▁中北	16793
▁休眠	16794
▁地藏	16795
▁搬去	16796
▁斗篷	16797
▁磨练	16798
▁高薪	16799
▁三门峡	16800
▁1000	16801
▁touch	16802
▁bigbang	16803
▁主卧	16804
▁宝山	16805
▁实质	16806
▁清蒸	16807
▁立绘	16808
▁紧凑	16809
▁舒畅	16810
▁董香	16811
▁金针	16812
▁饭碗	16813
▁络	16814
▁动摇	16815
▁半岛	16816
▁小帅	16817
▁熟肉	16818
▁组建	16819
▁褪色	16820
▁酒馆	16821
▁驴友	16822
▁加特林	16823
▁犬夜叉	16824
▁入党	16825
▁哇噻	16826
▁土鸡	16827
▁大涨	16828
▁夹克	16829
▁德赫	16830
▁手刹	16831
▁祖师	16832
▁阿里巴巴	16833
▁泣	16834
不到	16835
▁OL	16836
▁余地	16837
▁出征	16838
▁吃奶	16839
▁喝汤	16840
▁普京	16841
▁浴衣	16842
▁爱思	16843
▁着迷	16844
▁脉动	16845
▁黑衣	16846
▁501	16847
▁4600	16848
▁king	16849
▁下行	16850
▁奔波	16851
▁宁德	16852
▁对打	16853
▁意想	16854
▁成衣	16855
▁改正	16856
▁涉外	16857
▁肺炎	16858
▁落泪	16859
▁鳗鱼	16860
▁拉莫斯	16861
▁意想不到	16862
▁褙	16863
▁坟头	16864
▁才子	16865
▁晴雪	16866
▁棉被	16867
▁牵扯	16868
▁红蓝	16869
▁纯爱	16870
▁胜算	16871
▁首富	16872
▁格里芬	16873
▁枢	16874
▁钠	16875
▁多头	16876
▁放飞	16877
▁板栗	16878
▁401	16879
▁三叶草	16880
▁猕猴桃	16881
▁淇	16882
▁蛀	16883
▁PE	16884
▁发声	16885
▁家暴	16886
▁异能	16887
▁波霸	16888
▁竞猜	16889
ha	16890
泽马	16891
▁VX	16892
▁指头	16893
▁绝食	16894
▁话痨	16895
▁香格里	16896
37	16897
▁腼	16898
▁zy	16899
▁关卡	16900
▁左拐	16901
▁张扬	16902
▁断腿	16903
▁爱妃	16904
▁餐馆	16905
▁648	16906
▁QUQ	16907
▁交点	16908
▁含蓄	16909
▁呦呦	16910
▁圣经	16911
▁城墙	16912
▁得奖	16913
▁必看	16914
▁拖欠	16915
▁救援	16916
▁歌神	16917
▁电镀	16918
▁问卷	16919
▁雕像	16920
日天	16921
▁掌门	16922
▁躲过	16923
▁麻疹	16924
▁狒	16925
box	16926
eed	16927
▁芈月	16928
▁衣架	16929
▁马犬	16930
▁丞	16931
▁下跌	16932
▁副业	16933
▁嫦娥	16934
▁托福	16935
▁白字	16936
▁cx	16937
▁fs	16938
▁印章	16939
▁合计	16940
▁宣城	16941
▁屈臣	16942
▁撕掉	16943
▁朝代	16944
▁盘口	16945
▁神速	16946
▁羊奶	16947
▁酷冷	16948
▁ems	16949
▁紫罗兰	16950
▁阿玛尼	16951
▁CH	16952
▁凉鞋	16953
▁卓越	16954
▁射雕	16955
▁暴晒	16956
▁清净	16957
▁笨笨	16958
▁耐操	16959
▁造福	16960
41	16961
▁PA	16962
▁倒卖	16963
▁直发	16964
▁詹密	16965
▁轮廓	16966
▁魔笛	16967
▁real	16968
ere	16969
▁动听	16970
▁姓张	16971
▁宝安	16972
▁树洞	16973
▁桃园	16974
▁牵强	16975
▁面议	16976
▁diao	16977
ug	16978
▁鲲	16979
▁三菱	16980
▁乔恩	16981
▁心甘	16982
▁戏剧	16983
▁省级	16984
▁达尔	16985
▁长者	16986
unes	16987
▁不要紧	16988
▁屈臣氏	16989
▁本泽马	16990
▁心甘情愿	16991
心如	16992
▁灵性	16993
▁特定	16994
▁犬瘟	16995
▁空心	16996
▁竹马	16997
▁西苑	16998
▁到头来	16999
▁影音	17000
▁暂住	17001
▁禁用	17002
▁肥料	17003
▁金砖	17004
▁132	17005
▁可爱多	17006
▁喏	17007
▁aw	17008
▁寄托	17009
▁接力	17010
▁清白	17011
▁游乐	17012
▁西蒙	17013
▁配装	17014
▁黄蓉	17015
▁xiao	17016
▁AR	17017
▁国航	17018
▁孔子	17019
▁炸药	17020
▁褙子	17021
▁车价	17022
▁钞票	17023
无不言	17024
▁知无不言	17025
▁吉尔	17026
▁蒙迪欧	17027
▁香格里拉	17028
▁眩	17029
▁窃	17030
▁中肯	17031
▁八大	17032
▁大哭	17033
▁妆娘	17034
▁底价	17035
▁摇号	17036
▁益阳	17037
▁肮脏	17038
▁费曼	17039
▁锐雯	17040
▁FC	17041
▁可耐	17042
▁堵住	17043
▁定级	17044
▁消音	17045
▁盛典	17046
▁纯阳	17047
▁蹦极	17048
▁选中	17049
▁门店	17050
▁黄土	17051
▁1997	17052
▁单亲	17053
▁压迫	17054
▁变压	17055
▁右脚	17056
▁奖项	17057
▁扫雷	17058
▁绽放	17059
▁莫雷	17060
▁落魄	17061
▁请到	17062
▁超重	17063
▁轻狂	17064
▁传家宝	17065
八九	17066
▁出镜	17067
▁大跌	17068
▁摊子	17069
▁珠江	17070
▁盾牌	17071
▁腼腆	17072
▁起伏	17073
▁殴	17074
▁焉	17075
▁上级	17076
▁人行	17077
▁伴随	17078
▁奶瓶	17079
▁弹唱	17080
▁稳赢	17081
▁铜钱	17082
▁对不住	17083
▁1996	17084
▁侥	17085
▁恬	17086
▁蹂	17087
ent	17088
▁情调	17089
▁月牙	17090
▁桑切	17091
▁死皮	17092
▁苏菲	17093
▁阿布	17094
▁嘉年华	17095
▁下岗	17096
▁买入	17097
▁乱搞	17098
▁双打	17099
▁幸会	17100
▁捣鼓	17101
▁揭露	17102
▁感叹号	17103
▁妩	17104
▁ll	17105
▁副攻	17106
▁如初	17107
▁带球	17108
▁总管	17109
▁轻度	17110
52	17111
▁唷	17112
▁拓印	17113
▁杨梅	17114
▁汤姆	17115
▁焦急	17116
▁肿瘤	17117
▁萨博	17118
▁魔幻	17119
▁雅典娜	17120
▁ff	17121
▁冰糖	17122
▁动感	17123
▁琵琶	17124
▁视镜	17125
▁黄鹤	17126
善感	17127
▁定妆	17128
▁抚州	17129
▁破财	17130
▁鸡爪	17131
SS	17132
▁暹	17133
▁牟	17134
▁微妙	17135
▁舒坦	17136
▁连击	17137
▁高山	17138
▁蕴	17139
▁维尔	17140
▁比鲁斯	17141
价廉	17142
▁一览	17143
▁古老	17144
▁地形	17145
▁多愁	17146
▁大扎	17147
▁水肿	17148
▁沉睡	17149
▁深蹲	17150
▁美梦	17151
▁诺克	17152
▁赌场	17153
▁集结	17154
▁桑切斯	17155
▁物美价廉	17156
▁傀	17157
▁医务	17158
▁四平	17159
▁夏侯	17160
▁砂锅	17161
▁肤质	17162
▁贝克	17163
▁走读	17164
▁长远	17165
▁闲人	17166
▁un	17167
▁化石	17168
▁地雷	17169
▁旁观	17170
▁车行	17171
▁小铺	17172
▁法兰	17173
玩乐	17174
▁定州	17175
▁当代	17176
▁推介	17177
▁暴君	17178
▁盔甲	17179
▁站点	17180
▁繁星	17181
▁线稿	17182
▁ntr	17183
▁吃喝玩乐	17184
▁_	17185
▁寸头	17186
▁植发	17187
▁清河	17188
▁多愁善感	17189
▁一贯	17190
▁乐坛	17191
▁五四	17192
▁月儿	17193
▁本色	17194
▁演艺	17195
▁老化	17196
▁血汗	17197
▁2.	17198
▁XL	17199
▁住宅	17200
▁兰兰	17201
▁呆子	17202
▁开元	17203
▁挖矿	17204
▁瑶瑶	17205
▁虐菜	17206
▁蹂躏	17207
水长流	17208
▁细水长流	17209
▁五仁	17210
▁刺绣	17211
▁往届	17212
▁横幅	17213
▁王妃	17214
▁瞎眼	17215
▁蜻蜓	17216
▁488	17217
▁刘翔	17218
▁北欧	17219
▁升职	17220
▁好戏	17221
▁时段	17222
▁水杯	17223
▁自强	17224
▁道教	17225
▁雪儿	17226
▁Mac	17227
▁cosplay	17228
▁军娘	17229
▁可贵	17230
▁柔软	17231
▁油皮	17232
▁虹桥	17233
▁风范	17234
▁925	17235
▁5200	17236
▁取经	17237
▁咔嚓	17238
▁泡澡	17239
▁被褥	17240
▁趁机	17241
▁敖	17242
▁黯	17243
▁写手	17244
▁太上	17245
▁定型	17246
▁富人	17247
▁注水	17248
▁消遣	17249
▁禹州	17250
▁算计	17251
▁罕见	17252
▁脚底	17253
▁试管	17254
▁阎王	17255
▁后会无期	17256
▁下跪	17257
▁书架	17258
▁威风	17259
▁进价	17260
▁追逐	17261
▁高深	17262
▁豚	17263
▁如实	17264
▁旅程	17265
▁早些	17266
▁极差	17267
▁牧羊	17268
▁静夜	17269
世界	17270
奈儿	17271
▁下床	17272
▁割肉	17273
▁器械	17274
▁密保	17275
▁开卖	17276
▁来世	17277
▁郭德	17278
▁BGM	17279
▁槟	17280
▁筐	17281
▁匕首	17282
▁学园	17283
▁平邑	17284
▁流传	17285
▁相公	17286
▁题型	17287
▁鬼鬼	17288
▁东关	17289
▁侥幸	17290
▁内定	17291
▁初衷	17292
▁单价	17293
▁往返	17294
▁法医	17295
▁sao	17296
▁别离	17297
▁噗噗	17298
▁强强	17299
▁法宝	17300
▁运球	17301
▁银杏	17302
▁糗	17303
▁冰冷	17304
▁冰冻	17305
▁可喜	17306
▁宝玉	17307
▁愧疚	17308
▁插曲	17309
▁浦发	17310
▁花店	17311
▁迁就	17312
▁通透	17313
▁202	17314
▁看得起	17315
▁三金	17316
▁割腕	17317
▁升高	17318
▁忠犬	17319
▁滋润	17320
▁落花	17321
▁警车	17322
▁蹦迪	17323
▁限购	17324
▁备案	17325
▁奢求	17326
▁小林	17327
▁引体	17328
▁杨家	17329
▁启示	17330
▁天国	17331
▁灵儿	17332
▁蒙蔽	17333
▁西乡	17334
▁连号	17335
▁通告	17336
▁too	17337
▁TP	17338
▁弹性	17339
▁押韵	17340
▁煮熟	17341
▁跳出	17342
▁疆	17343
注定	17344
▁vr	17345
▁几米	17346
▁打气	17347
▁捧花	17348
▁收敛	17349
▁文秘	17350
▁方圆	17351
▁烘焙	17352
▁辫子	17353
▁隐约	17354
▁首胜	17355
▁Orz	17356
▁嗮	17357
天宇	17358
▁人族	17359
▁凉粉	17360
▁外网	17361
▁纪委	17362
▁缝纫	17363
▁自律	17364
▁雀斑	17365
▁sir	17366
▁惑	17367
哈尔	17368
▁vv	17369
▁上坡	17370
▁打拼	17371
▁百倍	17372
▁419	17373
▁535	17374
▁锄	17375
▁阆	17376
▁黝	17377
接再	17378
▁偏执	17379
▁下不来	17380
▁再接再	17381
▁利器	17382
▁只愿	17383
▁悬浮	17384
▁海带	17385
▁老鸟	17386
▁茶杯	17387
▁选购	17388
▁郑恺	17389
▁似曾相识	17390
▁践	17391
▁佳节	17392
▁前缀	17393
▁占据	17394
▁短线	17395
▁飞轮	17396
▁001	17397
▁一剑	17398
▁先走	17399
▁张宇	17400
▁抵达	17401
▁玉石	17402
▁神功	17403
▁红叶	17404
▁萧山	17405
▁衢州	17406
▁誓言	17407
▁镜面	17408
▁长颈	17409
▁PRO	17410
▁2008	17411
弗森	17412
▁一格	17413
▁亚当	17414
▁他来	17415
▁句号	17416
▁国货	17417
▁肥婆	17418
▁见习	17419
▁飞船	17420
▁高尚	17421
▁1988	17422
▁DX	17423
▁刀妹	17424
▁太软	17425
▁奉劝	17426
▁对照	17427
▁欧亚	17428
▁牛角	17429
▁超能	17430
▁锦江	17431
▁Air	17432
▁NOT	17433
▁兜兜	17434
▁原宿	17435
▁小兔	17436
▁检察	17437
▁电音	17438
▁禁忌	17439
▁225	17440
▁娅	17441
是处	17442
▁VR	17443
▁内力	17444
▁暂定	17445
▁祭奠	17446
▁new	17447
▁一无是处	17448
▁拂	17449
▁主城	17450
▁书写	17451
▁平和	17452
▁排序	17453
▁排版	17454
▁沙坪	17455
▁英镑	17456
▁言辞	17457
▁贫血	17458
▁还珠	17459
▁黄岛	17460
▁克星	17461
▁出走	17462
▁外向	17463
▁大势	17464
▁女侠	17465
▁对视	17466
▁王府	17467
▁碗莲	17468
▁记仇	17469
▁面码	17470
▁铁三角	17471
▁狍	17472
▁出世	17473
▁吸取	17474
▁抢镜	17475
▁拜访	17476
▁池塘	17477
▁灌水	17478
▁维多	17479
▁询价	17480
▁领带	17481
▁马卡龙	17482
▁侨	17483
▁京津	17484
▁化疗	17485
▁单行	17486
▁天赐	17487
▁恐慌	17488
▁肥猪	17489
▁资助	17490
▁门头	17491
▁366	17492
▁郭德纲	17493
▁哺	17494
▁谬	17495
▁贰	17496
▁下沙	17497
▁下注	17498
▁书签	17499
▁五花	17500
▁巴蒂	17501
▁忙内	17502
▁歌姬	17503
▁瀑布	17504
▁佛珠	17505
▁儿科	17506
▁回避	17507
▁回馈	17508
▁山沟	17509
▁构思	17510
▁蹲点	17511
▁透支	17512
▁wan	17513
▁沼	17514
▁减轻	17515
▁大枪	17516
▁科室	17517
▁签售	17518
▁算卦	17519
▁螺母	17520
▁韩寒	17521
完没	17522
▁各项	17523
▁嘴边	17524
▁挽救	17525
▁来气	17526
▁童装	17527
▁路况	17528
▁马油	17529
完没了	17530
▁香奈儿	17531
▁没完没了	17532
▁庵	17533
▁但求	17534
▁甲鱼	17535
▁说不	17536
▁逝者	17537
▁面馆	17538
▁待会儿	17539
▁说不过去	17540
▁踪	17541
▁云浮	17542
▁切开	17543
▁化解	17544
▁奇想	17545
▁忍耐	17546
▁轻工	17547
▁遮瑕	17548
▁锅盖	17549
澎湃	17550
▁FB	17551
▁六六	17552
▁册子	17553
▁减去	17554
▁救赎	17555
▁流出	17556
▁糖尿	17557
▁索泰	17558
▁雷诺	17559
▁黑店	17560
▁天花板	17561
▁fifa	17562
▁璧	17563
▁SR	17564
▁听闻	17565
▁周迅	17566
▁张良	17567
▁撞车	17568
▁淡化	17569
▁碧玉	17570
▁黑手	17571
▁龟粮	17572
▁wy	17573
▁冷暖	17574
▁幻城	17575
▁掉渣	17576
▁胆量	17577
▁贴身	17578
▁迎宾	17579
▁阿门	17580
▁合得来	17581
91	17582
▁噱	17583
▁洱	17584
姑娘	17585
美瑞	17586
▁ag	17587
▁ur	17588
▁太君	17589
▁拼搏	17590
▁按揭	17591
▁树枝	17592
▁精细	17593
▁美亚	17594
44	17595
▁磷	17596
▁太急	17597
▁奇异	17598
▁时而	17599
▁表盘	17600
▁嫡	17601
▁ro	17602
▁佳作	17603
▁停播	17604
▁反攻	17605
▁搜集	17606
▁末世	17607
▁污蔑	17608
▁简易	17609
▁超速	17610
▁重名	17611
▁owo	17612
▁克罗地亚	17613
天乐	17614
IFA	17615
▁内侧	17616
▁凯子	17617
▁利率	17618
▁发话	17619
▁呼噜	17620
▁宫崎	17621
▁李健	17622
▁热恋	17623
▁pia	17624
▁单恋	17625
▁哥伦	17626
▁泥煤	17627
▁琼斯	17628
▁芹菜	17629
▁返还	17630
▁遗迹	17631
▁针织	17632
▁OS	17633
▁刹那	17634
▁官服	17635
▁智孝	17636
▁曼巴	17637
▁红狗	17638
▁闪婚	17639
▁雪景	17640
▁崂	17641
▁TC	17642
▁三段	17643
▁仙王	17644
▁内内	17645
▁向着	17646
▁孕期	17647
▁易购	17648
▁背部	17649
▁转折	17650
▁辈分	17651
▁面食	17652
▁425	17653
▁nike	17654
▁凰	17655
▁宸	17656
▁洼	17657
▁诠	17658
▁ot	17659
▁乌鸡	17660
▁斗牛	17661
▁甘蔗	17662
▁虚岁	17663
▁cod	17664
▁德赫亚	17665
▁两码	17666
▁依依	17667
▁六合	17668
▁咕咕	17669
▁如梦	17670
▁打狗	17671
▁诺伊	17672
▁败给	17673
▁顺德	17674
▁凯美瑞	17675
着点	17676
▁ES	17677
▁单体	17678
▁学府	17679
▁怪异	17680
▁纯纯	17681
▁耳鸣	17682
▁自愈	17683
▁通报	17684
▁雨水	17685
▁风采	17686
▁1280	17687
▁命中注定	17688
▁裆	17689
▁醇	17690
▁地暖	17691
▁暹罗	17692
▁纳什	17693
▁龙岩	17694
▁1994	17695
▁FIFA	17696
▁卅	17697
不顾	17698
▁导入	17699
▁瘦肉	17700
▁草鱼	17701
▁西卡	17702
▁豹纹	17703
▁车次	17704
▁风口	17705
ose	17706
▁出乎	17707
▁欧版	17708
▁牧尘	17709
▁老一	17710
▁老林	17711
▁车神	17712
▁转生	17713
▁闪迪	17714
▁You	17715
▁but	17716
ho	17717
▁滕	17718
▁中韩	17719
▁兖州	17720
▁妆容	17721
▁妮妮	17722
▁抢先	17723
▁树脂	17724
▁深大	17725
▁鱼头	17726
▁ST	17727
▁伤透	17728
▁冷场	17729
▁壮大	17730
▁小面	17731
▁幼教	17732
▁收发	17733
▁木板	17734
▁架势	17735
▁桑塔	17736
▁西关	17737
▁西药	17738
▁要塞	17739
▁跨界	17740
▁迟钝	17741
▁透彻	17742
▁304	17743
▁利索	17744
▁卡瓦	17745
▁发麻	17746
▁嗜好	17747
▁字辈	17748
▁少儿	17749
▁巡航	17750
▁总局	17751
▁死角	17752
▁粉笔	17753
▁阴险	17754
油器	17755
▁储蓄	17756
▁匿名	17757
▁吃惊	17758
▁同期	17759
▁团委	17760
▁战机	17761
▁早死	17762
▁燕麦	17763
▁速写	17764
▁670	17765
76	17766
▁戊	17767
▁Li	17768
▁余罪	17769
▁小巧	17770
▁文档	17771
▁无形	17772
▁科尔	17773
▁肉松	17774
▁臭美	17775
▁陀螺	17776
▁两码事	17777
▁淅	17778
ife	17779
▁反串	17780
▁品位	17781
▁女足	17782
▁床铺	17783
▁悬赏	17784
▁挂牌	17785
▁李世	17786
▁狂风	17787
▁理念	17788
▁级数	17789
▁足彩	17790
▁gif	17791
▁psv	17792
▁天长地	17793
色列	17794
▁千寻	17795
▁华西	17796
▁血型	17797
▁货号	17798
▁边度	17799
▁重阳	17800
▁风声	17801
▁风度	17802
▁以色列	17803
▁化油器	17804
▁天长地久	17805
▁停课	17806
▁噱头	17807
▁对白	17808
▁尾灯	17809
▁年末	17810
▁民航	17811
▁短毛	17812
▁耐磨	17813
▁订阅	17814
▁box	17815
ka	17816
山人	17817
▁冰山	17818
▁大英	17819
▁家居	17820
▁小野	17821
▁打铁	17822
▁托尼	17823
▁旷课	17824
▁春游	17825
▁服用	17826
▁稿子	17827
▁阳泉	17828
▁饰演	17829
▁154	17830
▁305	17831
▁急眼	17832
▁潇潇	17833
▁灰姑娘	17834
▁二七	17835
▁减掉	17836
▁出牌	17837
▁千层	17838
▁呼和	17839
▁夜华	17840
▁天梭	17841
▁庙会	17842
▁提督	17843
▁源于	17844
▁点滴	17845
▁酒后	17846
▁阻碍	17847
▁gx	17848
▁世俗	17849
▁喷火	17850
▁多级	17851
▁夜空	17852
▁宗师	17853
▁小妖	17854
▁断流	17855
▁理所	17856
▁飞度	17857
▁齐齐	17858
▁理所当然	17859
▁以至	17860
▁千山	17861
▁器官	17862
▁延时	17863
▁弥勒	17864
▁影评	17865
▁清澈	17866
▁谈论	17867
▁车模	17868
▁不才	17869
▁保鲜	17870
▁天成	17871
▁脱落	17872
▁舍弃	17873
▁逆行	17874
▁NOTE	17875
▁勘	17876
▁一朝	17877
▁丑陋	17878
▁先手	17879
▁加倍	17880
▁受益	17881
▁皮蛋	17882
▁翟	17883
▁只顾	17884
▁头绪	17885
▁巨魔	17886
▁愤青	17887
▁杯具	17888
▁班服	17889
▁私心	17890
▁稻草	17891
▁388	17892
▁玛利亚	17893
▁呼和浩特	17894
维亚	17895
致富	17896
观音	17897
▁密室	17898
▁建材	17899
▁打入	17900
▁敞开	17901
▁朝天	17902
▁白糖	17903
▁竿子	17904
▁key	17905
▁寺庙	17906
▁小德	17907
▁彩超	17908
▁影楼	17909
▁批判	17910
▁撒尿	17911
▁泉水	17912
▁爆冷	17913
▁Do	17914
▁初六	17915
▁医师	17916
▁学问	17917
▁宿命	17918
▁斧子	17919
▁萍乡	17920
▁虹口	17921
▁沙坪坝	17922
▁龙卷风	17923
▁齐齐哈尔	17924
▁廷	17925
转眼	17926
▁中和	17927
▁代办	17928
▁南康	17929
▁女用	17930
▁工贸	17931
▁血缘	17932
▁贝拉	17933
▁麻友	17934
▁铁观音	17935
宥嘉	17936
tel	17937
▁微距	17938
▁撞墙	17939
▁毒蛇	17940
▁点菜	17941
▁线程	17942
▁配种	17943
▁饱和	17944
▁黑鱼	17945
▁储备	17946
▁内伤	17947
▁拉丝	17948
▁水银	17949
▁窗台	17950
▁鲁班	17951
山人海	17952
▁九寨沟	17953
▁罗伊斯	17954
▁人山人海	17955
▁再接再厉	17956
▁冒菜	17957
▁大工	17958
▁幻化	17959
▁怕人	17960
▁注会	17961
▁照应	17962
▁着落	17963
▁绣球	17964
▁缺氧	17965
▁良人	17966
▁风向	17967
▁鲜艳	17968
▁5800	17969
▁刊	17970
▁初八	17971
▁妩媚	17972
▁小蓝	17973
▁思修	17974
▁拔刀	17975
▁烟草	17976
▁麻利	17977
心动	17978
▁sv	17979
▁冰块	17980
▁厚实	17981
▁姚贝	17982
▁娄底	17983
▁子龙	17984
▁布冯	17985
▁束缚	17986
▁超标	17987
▁过山	17988
▁弑	17989
▁禄	17990
▁荀	17991
▁山路	17992
▁文言	17993
▁毁掉	17994
▁草丛	17995
▁装傻	17996
▁婧	17997
▁抡	17998
▁FA	17999
▁入魔	18000
▁出师	18001
▁无头	18002
▁江边	18003
▁深山	18004
▁脚架	18005
▁133	18006
▁古天乐	18007
▁1020	18008
▁gl	18009
▁丁香	18010
▁作废	18011
▁侦查	18012
▁桑拿	18013
▁牛叉	18014
▁诠释	18015
▁245	18016
▁325	18017
▁擎天柱	18018
▁撂	18019
▁傀儡	18020
▁劣势	18021
▁周天	18022
▁怪癖	18023
▁标本	18024
▁湿地	18025
▁破鞋	18026
▁203	18027
OC	18028
▁偷渡	18029
▁办完	18030
▁卫冕	18031
▁后院	18032
▁周黑	18033
▁命苦	18034
▁带鱼	18035
▁得劲	18036
▁未曾	18037
▁案件	18038
▁白手	18039
▁岑	18040
▁溅	18041
司命	18042
相许	18043
▁初五	18044
▁孙杨	18045
▁福尔	18046
▁老贼	18047
▁路桥	18048
▁高德	18049
▁WOW	18050
▁男子汉	18051
▁硬生生	18052
▁以身相许	18053
▁昼	18054
▁伊人	18055
▁双生	18056
▁更正	18057
▁赛尔	18058
▁锅炉	18059
▁驴肉	18060
▁590	18061
▁天狗	18062
▁太祖	18063
▁川藏	18064
▁提神	18065
▁缺钙	18066
▁近代	18067
▁魂链	18068
▁一转眼	18069
▁涯	18070
▁哆嗦	18071
▁尖尖	18072
▁港台	18073
▁皮筋	18074
▁苗条	18075
▁yi	18076
▁城关	18077
▁少侠	18078
▁江夏	18079
▁狠人	18080
▁脱俗	18081
▁黝黑	18082
▁猫头鹰	18083
▁平庸	18084
▁披着	18085
▁犯困	18086
▁糟心	18087
▁阆中	18088
LL	18089
▁毯	18090
▁莘	18091
得上	18092
▁上篮	18093
▁争吵	18094
▁屋顶	18095
▁庐山	18096
▁方正	18097
▁泡茶	18098
▁在校生	18099
▁桑塔纳	18100
▁过山车	18101
▁龌	18102
仁杰	18103
▁hk	18104
▁司徒	18105
▁大胜	18106
▁大葱	18107
▁天行	18108
▁局限	18109
▁崂山	18110
▁故宫	18111
▁救助	18112
▁敢于	18113
▁盖住	18114
▁跨越	18115
▁天安门	18116
而知	18117
▁创世	18118
▁向下	18119
▁木质	18120
▁毒液	18121
▁油价	18122
▁署名	18123
▁自残	18124
▁郑秀晶	18125
▁阿迪达斯	18126
▁衷	18127
▁OR	18128
▁君临	18129
▁大大	18130
▁早年	18131
▁犹如	18132
▁狩猎	18133
▁用料	18134
▁纱布	18135
▁胖妞	18136
▁做客	18137
▁叉叉	18138
▁围城	18139
▁围绕	18140
▁大乔	18141
▁如玉	18142
▁干扰	18143
▁抬杠	18144
▁谈话	18145
▁进藏	18146
▁通天	18147
▁邹城	18148
▁饼子	18149
▁魄力	18150
▁絮	18151
▁光大	18152
▁图形	18153
▁尼克	18154
▁比武	18155
▁皮质	18156
▁衔接	18157
▁葫芦岛	18158
▁1990	18159
▁嬷	18160
▁SF	18161
▁SL	18162
▁中西	18163
▁刘明	18164
▁弗利	18165
▁柏林	18166
▁道姑	18167
71	18168
▁二叔	18169
▁开卷	18170
▁罢工	18171
▁节能	18172
▁药房	18173
▁西服	18174
▁魏晨	18175
▁486	18176
oogle	18177
▁抓人	18178
▁法定	18179
▁演习	18180
▁狒狒	18181
▁林宥嘉	18182
▁子孙	18183
▁昌平	18184
▁深藏	18185
▁节省	18186
▁周黑鸭	18187
▁三宝	18188
▁依稀	18189
▁加州	18190
▁大牙	18191
▁布莱	18192
▁散光	18193
▁海涛	18194
▁点燃	18195
▁虎斑	18196
▁轻功	18197
▁狄仁杰	18198
▁壬	18199
立得	18200
eep	18201
▁AE	18202
▁剧毒	18203
▁支线	18204
▁暴跌	18205
▁肖像	18206
▁141	18207
▁少司命	18208
▁姊	18209
▁中亚	18210
▁二档	18211
▁停赛	18212
▁太一	18213
▁山药	18214
▁应急	18215
▁放歌	18216
▁敦煌	18217
▁绿萝	18218
▁ub	18219
▁xz	18220
▁万亿	18221
▁二锅	18222
▁但凡	18223
▁刁民	18224
▁初七	18225
▁彪悍	18226
▁昔日	18227
▁福清	18228
▁纤体	18229
▁茜茜	18230
▁还债	18231
▁con	18232
tal	18233
▁KG	18234
▁埋线	18235
▁天晴	18236
▁宝骏	18237
▁年限	18238
▁法力	18239
▁燃气	18240
▁纷飞	18241
▁飞扬	18242
▁hz	18243
▁土建	18244
▁天书	18245
▁容貌	18246
▁小城	18247
▁川师	18248
▁弟兄	18249
▁恩怨	18250
▁水仙	18251
▁炒面	18252
▁爆满	18253
▁资阳	18254
▁赵日天	18255
▁谍	18256
白白	18257
▁劳斯	18258
▁大院	18259
▁巨轮	18260
▁巴里	18261
▁流光	18262
▁鬼王	18263
▁挎	18264
▁矩	18265
▁外快	18266
▁盘古	18267
▁芦苇	18268
▁财团	18269
▁闲钱	18270
53	18271
▁传言	18272
▁出海	18273
▁快走	18274
▁李敏	18275
▁满脸	18276
▁紫霞	18277
▁难懂	18278
▁518	18279
▁万幸	18280
▁何事	18281
▁就近	18282
▁水培	18283
▁治理	18284
▁疫情	18285
▁翻牌	18286
▁而又	18287
▁落户	18288
▁飚	18289
▁北面	18290
▁合川	18291
▁徒儿	18292
▁晚霞	18293
▁气管	18294
▁爽爽	18295
▁碰巧	18296
▁自治	18297
▁采摘	18298
▁陌路	18299
▁8700	18300
aha	18301
▁偏差	18302
▁巴卫	18303
▁巴适	18304
▁死者	18305
▁洪水	18306
▁狡辩	18307
▁375	18308
七杂	18309
▁南极	18310
▁城西	18311
▁推开	18312
▁法网	18313
▁涅盘	18314
▁灵犀	18315
▁跳闸	18316
▁鹤壁	18317
▁杂七杂	18318
▁小楼	18319
▁斯基	18320
▁星魂	18321
▁普陀	18322
▁裂缝	18323
▁黄杨	18324
▁404	18325
▁杂七杂八	18326
▁rx	18327
▁xd	18328
▁商铺	18329
▁洛杉	18330
▁老城	18331
▁退赛	18332
▁韧带	18333
▁433	18334
▁5300	18335
IA	18336
▁媲	18337
▁哥特	18338
▁接线	18339
▁矿大	18340
▁许可	18341
▁豆角	18342
▁二锅头	18343
ss	18344
自达	18345
▁下棋	18346
▁冷落	18347
▁刺眼	18348
▁坟墓	18349
▁年货	18350
▁换片	18351
▁暗金	18352
▁欢欢	18353
▁此事	18354
▁灵气	18355
▁线性	18356
▁蓝蓝	18357
▁钦州	18358
▁1.5	18359
▁淀	18360
▁缤	18361
多拉	18362
▁一臂	18363
▁哺乳	18364
▁字帖	18365
▁家庄	18366
▁416	18367
▁洛杉矶	18368
▁诺伊尔	18369
▁一臂之力	18370
▁艇	18371
▁初四	18372
▁喜糖	18373
▁提早	18374
▁猛烈	18375
▁甜食	18376
▁蜀国	18377
▁谈判	18378
▁豆沙	18379
▁陆毅	18380
▁8400	18381
▁涪	18382
▁钝	18383
▁不便	18384
▁偃师	18385
▁公馆	18386
▁天荒	18387
▁巴尔	18388
▁广泛	18389
▁斗鸡	18390
▁特惠	18391
▁蚂蚱	18392
▁长乐	18393
▁321	18394
▁PVE	18395
▁CE	18396
▁修真	18397
▁兰陵	18398
▁巴塞	18399
▁布欧	18400
▁盖聂	18401
▁腊八	18402
▁腰酸	18403
▁金手	18404
▁钦定	18405
▁鸟叔	18406
▁mar	18407
▁麦克风	18408
▁暨	18409
▁孤立	18410
▁懒惰	18411
▁此地	18412
▁画眉	18413
▁神通	18414
▁秀气	18415
▁贝利	18416
▁软弱	18417
▁钢印	18418
ye	18419
▁中英	18420
▁乐子	18421
▁低俗	18422
▁倩女	18423
▁外置	18424
▁弱队	18425
▁总站	18426
▁泪痕	18427
▁裂开	18428
▁齐胸	18429
▁137	18430
▁235	18431
▁马自达	18432
▁上药	18433
▁乡亲	18434
▁搬走	18435
▁数不	18436
▁无暇	18437
▁理化	18438
▁米国	18439
▁拍立得	18440
▁荨	18441
▁七武	18442
▁上官	18443
▁亲情	18444
▁伤痕	18445
▁傻笑	18446
▁台面	18447
▁大张	18448
▁往来	18449
▁新颖	18450
▁无罪	18451
▁果粉	18452
▁用人	18453
▁檬	18454
▁ob	18455
▁划船	18456
▁排水	18457
▁施肥	18458
▁渐层	18459
▁牙科	18460
▁狼狈	18461
▁百岁	18462
▁苍山	18463
▁蚊香	18464
▁辑	18465
▁兴起	18466
▁兽人	18467
▁大金	18468
▁手气	18469
▁杂音	18470
▁白起	18471
▁追梦	18472
▁218	18473
▁袍	18474
冬雨	18475
得住	18476
▁中关	18477
▁卫龙	18478
▁摧残	18479
▁无私	18480
▁袭击	18481
▁警官	18482
▁七武海	18483
▁荼	18484
▁蔫	18485
▁丹麦	18486
▁奇特	18487
▁奥拉	18488
▁榆次	18489
▁死鱼	18490
▁男声	18491
▁传感	18492
▁加深	18493
▁卖票	18494
▁圆润	18495
▁墙头	18496
▁救护	18497
▁武藏	18498
▁长颈鹿	18499
▁茗	18500
无完	18501
▁出书	18502
▁君威	18503
▁墓地	18504
▁盛大	18505
▁糖醋	18506
▁终将	18507
▁罗湖	18508
▁让座	18509
▁金陵	18510
▁饭圈	18511
死不活	18512
▁悠着点	18513
▁橱	18514
▁弱势	18515
▁扶贫	18516
▁日志	18517
▁河源	18518
▁白沙	18519
▁胖虎	18520
▁自虐	18521
▁蒙面	18522
▁谢天	18523
▁陌上	18524
▁吴磊	18525
▁心法	18526
▁效益	18527
▁映像	18528
▁曼谷	18529
▁泡椒	18530
▁海信	18531
▁漆黑	18532
▁爹爹	18533
▁姚贝娜	18534
▁芊	18535
并论	18536
▁LV	18537
▁三思	18538
▁刷票	18539
▁哀家	18540
▁大石	18541
▁好歌	18542
▁媲美	18543
▁小班	18544
▁昆虫	18545
▁棉衣	18546
▁水灵	18547
▁相提	18548
▁诗句	18549
▁高地	18550
▁146	18551
▁diss	18552
▁相提并论	18553
不湿	18554
▁NT	18555
▁hp	18556
▁任丘	18557
▁军工	18558
▁十中	18559
▁反胃	18560
▁小羊	18561
▁流苏	18562
▁点差	18563
▁穿透	18564
▁莱芜	18565
▁警方	18566
▁课间	18567
▁跨服	18568
▁靓号	18569
▁nan	18570
▁靳	18571
斯顿	18572
▁两侧	18573
▁团圆	18574
▁崽崽	18575
▁手雷	18576
▁无为	18577
▁海事	18578
▁竞选	18579
▁脱掉	18580
▁斟	18581
不足	18582
▁泡芙	18583
▁续命	18584
▁职称	18585
very	18586
▁374	18587
▁不能自	18588
▁两三千	18589
▁三维	18590
▁交心	18591
▁作曲	18592
▁开锁	18593
▁得救	18594
▁涛哥	18595
▁用车	18596
▁祖先	18597
▁课文	18598
▁飞过	18599
▁周冬雨	18600
FF	18601
▁上期	18602
▁争夺	18603
▁快穿	18604
▁揭晓	18605
▁春梦	18606
▁老母	18607
▁触控	18608
▁订做	18609
▁远射	18610
▁追踪	18611
▁隐蔽	18612
▁预热	18613
▁君子兰	18614
▁黄鹤楼	18615
意料	18616
▁专车	18617
▁四面	18618
▁大额	18619
▁转职	18620
▁远去	18621
▁亚克力	18622
▁jojo	18623
日方	18624
▁摩尔	18625
▁海选	18626
▁西街	18627
▁门牌	18628
有可无	18629
▁275	18630
▁sam	18631
▁中关村	18632
▁可有可无	18633
US	18634
▁惟	18635
▁ZZ	18636
▁qq	18637
▁不痒	18638
▁写生	18639
▁小九	18640
▁庄家	18641
▁智者	18642
▁格雷	18643
▁磕碜	18644
▁联邦	18645
▁脸颊	18646
▁花梨	18647
▁老一辈	18648
得起	18649
▁GM	18650
▁多层	18651
▁清香	18652
▁缺席	18653
▁钢管	18654
▁饭盒	18655
▁马戏	18656
日方长	18657
▁gal	18658
▁以至于	18659
▁来日方长	18660
▁office	18661
▁枇	18662
▁亚运	18663
▁利群	18664
▁南非	18665
▁叉子	18666
▁大惊	18667
▁芥末	18668
▁角质	18669
▁615	18670
▁cctv	18671
▁濑	18672
▁缀	18673
▁革	18674
▁前夫	18675
▁大板	18676
▁巴神	18677
▁戏子	18678
▁找茬	18679
▁槟榔	18680
▁樱木	18681
▁黑户	18682
▁暂住证	18683
▁艾弗森	18684
▁怦	18685
▁桨	18686
▁原形	18687
▁后羿	18688
▁抵挡	18689
▁狂战	18690
▁盼望	18691
▁缓慢	18692
▁被砸	18693
▁野狗	18694
▁鬼节	18695
▁鸟巢	18696
▁147	18697
▁515	18698
▁钾	18699
萨斯	18700
▁PG	18701
▁wc	18702
▁丹青	18703
▁小字	18704
▁总监	18705
▁皱眉	18706
▁简陋	18707
▁蛮王	18708
▁返现	18709
▁非凡	18710
▁牡丹江	18711
▁瘟	18712
▁代售	18713
▁宏光	18714
▁张继	18715
▁曲靖	18716
▁野采	18717
▁唬	18718
▁借条	18719
▁奇缘	18720
▁御魂	18721
▁扑通	18722
▁昂克	18723
▁核实	18724
▁泳衣	18725
▁深思	18726
▁港囧	18727
▁玩伴	18728
▁苦海	18729
▁谐音	18730
▁有特色	18731
圆圆	18732
▁BT	18733
▁bp	18734
▁下部	18735
▁拨打	18736
▁拿回	18737
▁灭火	18738
▁锻造	18739
▁犟	18740
四千	18741
尔克	18742
▁净水	18743
▁昌邑	18744
▁残暴	18745
▁确保	18746
▁雪莉	18747
▁store	18748
▁穗	18749
▁gv	18750
▁全军	18751
▁发根	18752
▁听错	18753
▁绿水	18754
▁辱骂	18755
▁海底捞	18756
▁soga	18757
▁万世	18758
▁亡灵	18759
▁传到	18760
▁倒退	18761
▁冷血	18762
▁叫唤	18763
▁坎特	18764
▁探险	18765
▁洱海	18766
▁花草	18767
▁计生	18768
▁领奖	18769
▁PPT	18770
▁who	18771
▁德克士	18772
▁4100	18773
▁GO	18774
▁五环	18775
▁京都	18776
▁亲子	18777
▁公仔	18778
▁半球	18779
▁华府	18780
▁吊死	18781
▁后座	18782
▁地虎	18783
▁填完	18784
▁弯曲	18785
▁烫伤	18786
▁pad	18787
▁高圆圆	18788
IC	18789
▁二小	18790
▁导购	18791
▁待定	18792
▁永川	18793
▁爆珠	18794
▁空城	18795
▁起哄	18796
▁7850	18797
▁惶	18798
德勒	18799
▁IE	18800
▁二宝	18801
▁唱片	18802
▁埋汰	18803
▁强硬	18804
▁比拼	18805
▁用尽	18806
▁电阻	18807
▁石子	18808
▁跑腿	18809
▁马天宇	18810
▁溧	18811
▁肢	18812
▁蒿	18813
小怪	18814
▁两元	18815
▁奥义	18816
▁宝物	18817
▁男篮	18818
▁袋鼠	18819
▁林心如	18820
▁大惊小怪	18821
▁晏	18822
▁贿	18823
纳哥	18824
▁偏心	18825
▁华仔	18826
▁友军	18827
▁城乡	18828
▁嬷嬷	18829
▁紫薯	18830
▁读取	18831
▁野猫	18832
▁高效	18833
▁4790	18834
▁嬴	18835
▁灬	18836
内特	18837
▁书生	18838
▁刻骨	18839
▁方方	18840
▁昙花	18841
▁机遇	18842
▁结账	18843
▁编码	18844
▁考拉	18845
▁饭团	18846
▁传感器	18847
▁滥	18848
为人	18849
▁割爱	18850
▁改良	18851
▁蒂亚	18852
▁虞姬	18853
▁赛罗	18854
▁金鸡	18855
▁403	18856
▁Eason	18857
▁颐	18858
汉姆	18859
▁ri	18860
▁主见	18861
▁代号	18862
▁叽叽	18863
▁尼禄	18864
▁战法	18865
▁皱纹	18866
▁醉酒	18867
▁陆战	18868
▁仙桃	18869
▁大都	18870
▁宋朝	18871
▁红唇	18872
▁量子	18873
▁韵味	18874
ne	18875
事论	18876
子怡	18877
现眼	18878
▁ka	18879
▁名言	18880
▁木子	18881
▁河图	18882
▁结痂	18883
▁警报	18884
▁鲶鱼	18885
事论事	18886
▁摩纳哥	18887
▁1299	18888
▁丢人现眼	18889
▁就事论事	18890
▁明明白白	18891
YS	18892
▁吝	18893
▁位移	18894
▁卑鄙	18895
▁宾利	18896
▁拌饭	18897
▁直通	18898
▁面向	18899
zy	18900
▁煜	18901
▁蕉	18902
▁三日	18903
▁剑客	18904
▁名宿	18905
▁哗哗	18906
▁嚷嚷	18907
▁打碎	18908
▁撒旦	18909
▁村庄	18910
▁游行	18911
▁腐蚀	18912
▁营口	18913
▁贴合	18914
▁零度	18915
▁ROM	18916
▁sun	18917
▁1234	18918
▁7700	18919
▁任选	18920
▁内脏	18921
▁即墨	18922
▁水位	18923
▁瑞克	18924
▁用法	18925
▁的士	18926
▁站立	18927
▁连拍	18928
▁雨衣	18929
▁KD	18930
▁假日	18931
▁床底	18932
▁沙井	18933
▁菲菲	18934
▁蔡徐	18935
▁贵港	18936
▁琐	18937
▁bj	18938
▁兑现	18939
▁出芽	18940
▁宅女	18941
▁宝藏	18942
▁昨儿	18943
▁误入	18944
▁1993	18945
CM	18946
kb	18947
▁炽	18948
▁兴致	18949
▁癖好	18950
▁贫乳	18951
▁静待	18952
▁led	18953
▁txt	18954
胥引	18955
600	18956
▁GL	18957
▁下乡	18958
▁中小	18959
▁信佛	18960
▁听筒	18961
▁堪称	18962
▁抢断	18963
▁撞衫	18964
▁枇杷	18965
▁桶珠	18966
▁永州	18967
▁汕尾	18968
▁萨斯	18969
▁华胥引	18970
▁MK	18971
▁加密	18972
▁呼吁	18973
▁每期	18974
▁浓妆	18975
▁积蓄	18976
▁哥伦比亚	18977
▁咲	18978
▁婕	18979
▁悟饭	18980
atch	18981
▁191	18982
▁nfc	18983
▁万科	18984
▁代谢	18985
▁佳丽	18986
▁倾国	18987
▁刻字	18988
▁叹息	18989
▁头型	18990
▁奏凯	18991
▁局势	18992
▁民众	18993
▁电饭煲	18994
▁HR	18995
▁上钩	18996
▁制冷	18997
▁孙俪	18998
▁话剧	18999
▁道家	19000
▁鸡胸	19001
▁鼓捣	19002
▁金手指	19003
CC	19004
▁dk	19005
▁名不	19006
▁圣光	19007
▁太古	19008
▁庞大	19009
▁摧毁	19010
▁新余	19011
▁自如	19012
▁街边	19013
▁议论	19014
▁记载	19015
▁赌球	19016
▁跑动	19017
▁大胖	19018
▁失控	19019
▁打窝	19020
▁棉裤	19021
▁正大	19022
▁毛驴	19023
▁益达	19024
▁红毯	19025
▁绿叶	19026
▁编曲	19027
▁脑门	19028
▁遮盖	19029
书豪	19030
▁出力	19031
▁复原	19032
▁插口	19033
▁湖大	19034
▁灯火	19035
▁精炼	19036
▁诸君	19037
▁鱼丸	19038
▁尿不湿	19039
▁Wind	19040
▁胧	19041
▁AS	19042
▁吊车	19043
▁名将	19044
▁哲理	19045
▁大路	19046
▁拓展	19047
▁灵芝	19048
▁白水	19049
▁看守	19050
▁舒心	19051
▁黑皮	19052
▁凯尔特	19053
▁稳如狗	19054
▁虑	19055
▁鸢	19056
▁三阳	19057
▁同姓	19058
▁强人	19059
▁当红	19060
▁护法	19061
▁极乐	19062
▁棉服	19063
▁爵爷	19064
▁老高	19065
▁赐予	19066
▁逆水	19067
▁雪梨	19068
▁non	19069
▁ts	19070
▁东芝	19071
▁厄齐	19072
▁发家	19073
▁喜当	19074
▁孝敬	19075
▁泗阳	19076
▁渝北	19077
▁特辑	19078
▁皎	19079
▁三项	19080
▁乱码	19081
▁今朝	19082
▁公孙	19083
▁孜然	19084
▁总价	19085
▁深色	19086
▁落差	19087
▁角球	19088
▁魂淡	19089
▁384	19090
▁宫崎骏	19091
▁2080	19092
▁发家致富	19093
▁舵	19094
▁JO	19095
▁一艘	19096
▁动能	19097
▁封锁	19098
▁推动	19099
▁池州	19100
▁茫然	19101
▁赶到	19102
▁遗产	19103
▁钻戒	19104
▁面筋	19105
▁hao	19106
▁sim	19107
▁china	19108
▁五莲	19109
▁实木	19110
▁指引	19111
▁极点	19112
▁穷鬼	19113
▁贝斯	19114
▁配乐	19115
▁卢卡库	19116
▁ky	19117
▁快钱	19118
▁柔情	19119
▁约翰	19120
▁腐烂	19121
▁郡主	19122
▁预选	19123
▁268	19124
▁GPS	19125
▁蔡徐坤	19126
▁伱	19127
海角	19128
▁RE	19129
▁jy	19130
▁下台	19131
▁波澜	19132
▁痴迷	19133
▁解码	19134
▁金立	19135
▁露营	19136
▁马车	19137
▁侧芽	19138
▁刘涛	19139
▁唐三	19140
▁守住	19141
▁春运	19142
▁烧香	19143
▁笑傲	19144
▁腿部	19145
▁重逢	19146
▁厄齐尔	19147
▁全书	19148
▁卫浴	19149
▁周转	19150
▁居家	19151
▁心境	19152
▁掉头	19153
▁柴犬	19154
▁洋芋	19155
▁鸟人	19156
▁GIF	19157
▁beats	19158
ux	19159
▁gm	19160
▁三江	19161
▁小窝	19162
▁景观	19163
▁暴富	19164
▁歌舞	19165
▁痛哭	19166
▁闪耀	19167
▁降落	19168
▁1520	19169
▁嵌	19170
无耻	19171
▁WT	19172
▁fl	19173
▁兵役	19174
▁剑宗	19175
▁勒夫	19176
▁悲惨	19177
▁手帐	19178
▁散人	19179
▁毒经	19180
▁炸裂	19181
▁艾滋	19182
▁谈到	19183
▁哥斯拉	19184
▁5173	19185
39	19186
74	19187
不自	19188
▁PD	19189
▁一目	19190
▁小肚	19191
▁某天	19192
▁水土	19193
▁精心	19194
▁肠炎	19195
▁龙神	19196
▁飓	19197
▁JD	19198
▁化肥	19199
▁奇才	19200
▁扎实	19201
▁臭臭	19202
▁进取	19203
▁韩式	19204
▁高烧	19205
▁311	19206
max	19207
▁一汽	19208
▁专线	19209
▁伊瓜	19210
▁借来	19211
▁全运	19212
▁减半	19213
▁平遥	19214
▁摆件	19215
▁案子	19216
▁汗水	19217
▁采取	19218
▁难求	19219
▁孰	19220
▁动员	19221
▁回过	19222
▁对接	19223
▁小梦	19224
▁师太	19225
▁折纸	19226
▁早熟	19227
▁本溪	19228
▁歌王	19229
▁绝招	19230
▁自修	19231
▁草药	19232
▁违心	19233
▁麦霸	19234
▁轱	19235
不小	19236
奈何	19237
▁些许	19238
▁呵护	19239
▁四种	19240
▁布拉	19241
▁护发	19242
▁换药	19243
▁插班	19244
▁瓜瓜	19245
▁秘方	19246
▁资讯	19247
▁跑鞋	19248
▁阜新	19249
▁韩庚	19250
▁TUT	19251
▁1799	19252
▁后脑	19253
▁呐喊	19254
▁异议	19255
▁摩登	19256
▁赶出	19257
▁镇平	19258
▁sad	19259
▁莫斯科	19260
▁颂	19261
▁丝带	19262
▁产后	19263
▁山泉	19264
▁扶持	19265
▁梧州	19266
▁物资	19267
▁维尼	19268
▁蒸发	19269
▁雾化	19270
▁风湿	19271
▁天涯海角	19272
▁褒	19273
▁八路	19274
▁国土	19275
▁格策	19276
▁水泵	19277
▁眉眼	19278
▁赤壁	19279
▁越过	19280
▁跑偏	19281
OR	19282
▁秧	19283
▁窍	19284
▁主帅	19285
▁假唱	19286
▁小便	19287
▁市委	19288
▁平分	19289
▁开走	19290
▁打火	19291
▁执教	19292
▁晋升	19293
▁犀牛	19294
▁窝窝	19295
▁虚化	19296
▁防具	19297
▁风尚	19298
▁Lol	19299
▁五台	19300
▁冒烟	19301
▁列举	19302
▁刺刀	19303
▁外界	19304
▁大主	19305
▁大卡	19306
▁恶性	19307
▁捷克	19308
▁烧纸	19309
▁苍白	19310
▁蛇皮	19311
▁见红	19312
▁高空	19313
▁林书豪	19314
▁牲	19315
▁na	19316
▁万字	19317
▁图样	19318
▁拉长	19319
▁旺盛	19320
▁班会	19321
▁足联	19322
▁迁安	19323
▁铭文	19324
▁随从	19325
▁静养	19326
▁欢乐颂	19327
▁1992	19328
▁蛐	19329
▁三联	19330
▁南平	19331
▁命题	19332
▁抖动	19333
▁波罗	19334
▁螨虫	19335
▁达摩	19336
▁196	19337
▁jjc	19338
翼翼	19339
ris	19340
▁十亿	19341
▁家装	19342
▁止步	19343
▁皮炎	19344
▁禁欲	19345
▁重重	19346
▁阿胶	19347
▁小心翼翼	19348
锐宝	19349
▁变更	19350
▁大病	19351
▁悬挂	19352
▁扭蛋	19353
▁水花	19354
▁红娘	19355
▁送餐	19356
▁阵地	19357
▁青色	19358
▁一统	19359
▁公民	19360
▁变声	19361
▁含泪	19362
▁尼桑	19363
▁惊魂	19364
▁扳手	19365
▁礼金	19366
▁速成	19367
▁风味	19368
▁龙宫	19369
▁情不自	19370
▁大马	19371
▁机密	19372
▁白狼	19373
▁职校	19374
▁订金	19375
▁高帮	19376
▁coco	19377
▁聆	19378
▁上将	19379
▁全称	19380
▁助威	19381
▁喊麦	19382
▁快攻	19383
▁成考	19384
▁昭和	19385
▁森森	19386
▁派遣	19387
▁生辰	19388
▁盘锦	19389
▁赛拉	19390
▁龙城	19391
怪气	19392
▁仔仔	19393
▁勾起	19394
▁号子	19395
▁念旧	19396
▁比对	19397
▁法规	19398
▁男宝	19399
▁白茶	19400
▁眩晕	19401
▁纸币	19402
▁财会	19403
▁赢钱	19404
▁关晓彤	19405
▁砚	19406
▁噗嗤	19407
▁弗兰	19408
▁拖累	19409
▁撤销	19410
▁月下	19411
▁生效	19412
▁眷属	19413
▁约束	19414
▁花期	19415
▁静电	19416
▁迈锐宝	19417
▁tc	19418
▁中行	19419
▁同袍	19420
▁宝典	19421
▁暴涨	19422
▁温婉	19423
▁落实	19424
▁蓝鸟	19425
▁触碰	19426
▁车轮	19427
▁连长	19428
▁防身	19429
▁CDX	19430
▁伊瓜因	19431
▁克里斯	19432
▁斯巴达	19433
蓝根	19434
▁糖水	19435
▁黑妹	19436
▁505	19437
▁阴阳怪气	19438
ud	19439
▁酉	19440
▁NC	19441
▁fb	19442
▁倩倩	19443
▁呼啦	19444
▁委托	19445
▁影城	19446
▁很脏	19447
▁忙活	19448
▁晚婚	19449
▁柳岩	19450
▁欣欣	19451
▁精度	19452
▁赏花	19453
▁顽强	19454
▁cool	19455
▁会场	19456
▁兰亭	19457
▁李嘉	19458
▁水滴	19459
▁硬汉	19460
▁自认	19461
▁辣妈	19462
▁辨认	19463
▁过剩	19464
▁酸痛	19465
▁阿妹	19466
▁大主宰	19467
▁板蓝根	19468
家荡	19469
▁AG	19470
▁uu	19471
▁不相	19472
▁佛头	19473
▁搞怪	19474
▁收取	19475
▁男星	19476
▁诺亚	19477
▁踏入	19478
▁飓风	19479
▁高处	19480
家荡产	19481
▁张家港	19482
▁煎饼侠	19483
日可	19484
▁两碗	19485
▁交界	19486
▁写轮	19487
▁合拍	19488
▁同盟	19489
▁素养	19490
▁随后	19491
▁领土	19492
▁潘多拉	19493
▁倾家荡产	19494
▁无可奈何	19495
▁昧	19496
一意	19497
▁dv	19498
▁大旗	19499
▁巨型	19500
▁打乱	19501
▁玩吧	19502
▁画家	19503
▁神龟	19504
▁竞速	19505
▁紫光	19506
▁考官	19507
▁药师	19508
▁轱辘	19509
▁还愿	19510
▁魔咒	19511
▁黄豆	19512
▁ips	19513
▁地毯	19514
▁填充	19515
▁新片	19516
▁正如	19517
▁石昊	19518
▁神棍	19519
▁组图	19520
▁398	19521
▁茎	19522
▁东阳	19523
▁严厉	19524
▁二胡	19525
▁善意	19526
▁奈奈	19527
▁孙燕	19528
▁早市	19529
▁来迟	19530
▁行走	19531
▁路径	19532
▁进程	19533
▁阿哥	19534
▁龙婆	19535
▁写轮眼	19536
▁情不自禁	19537
▁氮	19538
无恙	19539
▁全线	19540
▁全胜	19541
▁净土	19542
▁凸起	19543
▁别傻	19544
▁孔蒂	19545
▁布兰	19546
▁用量	19547
▁真挚	19548
▁秋名	19549
▁肋骨	19550
▁装潢	19551
▁资费	19552
▁通缉	19553
日可待	19554
▁指日可待	19555
回事	19556
▁dt	19557
▁hx	19558
▁全顺	19559
▁十有	19560
▁升起	19561
▁早读	19562
▁流失	19563
▁跌倒	19564
▁长清	19565
▁食材	19566
▁exc	19567
▁章子怡	19568
▁十有八九	19569
42	19570
▁供货	19571
▁军姿	19572
▁冬日	19573
▁升旗	19574
▁奥丁	19575
▁布朗	19576
▁打嗝	19577
▁晴朗	19578
▁查找	19579
▁爱尔	19580
▁瞎猜	19581
▁维克	19582
▁贯穿	19583
▁阳性	19584
▁香草	19585
▁369	19586
▁word	19587
▁莞	19588
▁上吊	19589
▁农林	19590
▁花海	19591
▁面料	19592
▁yun	19593
▁秋名山	19594
▁bili	19595
尔瓦	19596
▁一丁	19597
▁信条	19598
▁宝儿	19599
▁宫斗	19600
▁家乐	19601
▁扫把	19602
▁掌眼	19603
▁狐臭	19604
▁神盾	19605
▁脱衣	19606
▁范爷	19607
▁荆门	19608
▁蹭课	19609
▁迪亚	19610
▁钱财	19611
▁511	19612
▁勃	19613
感而	19614
朗普	19615
▁低谷	19616
▁守候	19617
▁格兰	19618
▁盗贼	19619
▁红皮	19620
▁课外	19621
▁青峰	19622
▁黑豹	19623
感而发	19624
▁托雷斯	19625
▁有感而发	19626
▁毋	19627
▁全额	19628
▁拉手	19629
▁木叶	19630
▁火把	19631
▁订制	19632
▁贿赂	19633
300	19634
▁商标	19635
▁回笼	19636
▁敌法	19637
▁斗志	19638
▁浓度	19639
▁皮囊	19640
▁自负	19641
▁莫属	19642
▁藤虎	19643
▁高位	19644
不得已	19645
▁三文	19646
▁亿万	19647
▁坐姿	19648
▁托管	19649
▁淹没	19650
▁监管	19651
▁磨皮	19652
▁章丘	19653
▁脸盆	19654
▁遭到	19655
▁范加尔	19656
▁叁	19657
▁CL	19658
▁EA	19659
▁嗓音	19660
▁炼狱	19661
▁神兵	19662
▁酸甜	19663
▁4399	19664
▁nico	19665
▁喋	19666
▁捻	19667
▁乞讨	19668
▁停运	19669
▁张店	19670
▁梯队	19671
▁港湾	19672
▁漂漂	19673
▁漏油	19674
▁病态	19675
▁走势	19676
▁车速	19677
▁Ni	19678
▁pd	19679
▁三水	19680
▁双线	19681
▁怦然	19682
▁洞房	19683
▁浪迹	19684
▁眼罩	19685
▁等候	19686
▁老五	19687
▁虚构	19688
▁邪淫	19689
▁钟楼	19690
▁静心	19691
▁wt	19692
▁啪啦	19693
▁平生	19694
▁煤矿	19695
▁爱神	19696
▁穿刺	19697
▁苞米	19698
▁阿凡	19699
▁特朗普	19700
地老	19701
格斯	19702
▁伴郎	19703
▁大娘	19704
▁寡人	19705
▁控油	19706
▁水族	19707
▁狗窝	19708
▁累积	19709
▁老炮	19710
▁蓝黑	19711
▁DLC	19712
▁天荒地老	19713
▁bf	19714
▁卤蛋	19715
▁恐高	19716
▁挖煤	19717
▁盖亚	19718
▁瞎搞	19719
▁神武	19720
▁雷欧	19721
▁9500	19722
▁Windows	19723
▁北航	19724
▁城东	19725
▁夏令	19726
▁安顺	19727
▁张掖	19728
▁援助	19729
▁海神	19730
▁练就	19731
▁耳边	19732
▁蛐蛐	19733
▁阅历	19734
▁卧蚕	19735
▁时节	19736
▁玄冰	19737
▁萧炎	19738
▁质检	19739
wn	19740
▁赘	19741
▁压住	19742
▁多选	19743
▁小狼	19744
▁抚养	19745
▁撤退	19746
▁死灵	19747
▁狼牙	19748
▁短小	19749
▁神将	19750
▁米高	19751
▁致富	19752
▁里奇	19753
▁206	19754
▁4.8	19755
▁1989	19756
▁芮	19757
use	19758
▁IM	19759
▁LS	19760
▁口臭	19761
▁外汇	19762
▁板块	19763
▁moto	19764
▁上高	19765
▁假摔	19766
▁利好	19767
▁圆梦	19768
▁教书	19769
▁梦话	19770
▁炒蛋	19771
▁两回事	19772
▁GB	19773
▁死磕	19774
▁相守	19775
▁破音	19776
▁纪律	19777
▁纯银	19778
▁违背	19779
▁铜仁	19780
▁银龙	19781
▁312	19782
▁402	19783
▁沱	19784
信部	19785
道夫	19786
▁关公	19787
▁华联	19788
▁文物	19789
▁根系	19790
▁甚平	19791
▁神探	19792
▁竖着	19793
▁老酒	19794
▁落伍	19795
▁运河	19796
▁955	19797
▁幢	19798
▁dp	19799
▁作画	19800
▁可取	19801
▁可知	19802
▁子弟	19803
▁彩笔	19804
▁拉菲	19805
▁榴弹	19806
▁毛豆	19807
▁水费	19808
▁变压器	19809
▁侃	19810
▁莓	19811
▁出气	19812
▁含有	19813
▁天魔	19814
▁奢华	19815
▁安抚	19816
▁新街	19817
▁艾克	19818
▁足迹	19819
▁途观	19820
▁508	19821
▁4700	19822
▁7100	19823
▁ping	19824
▁潼	19825
▁仙逆	19826
▁佩恩	19827
▁换乘	19828
▁残血	19829
▁静候	19830
▁来者不	19831
▁珉	19832
▁霾	19833
▁侠侣	19834
▁冷酷	19835
▁十佳	19836
▁唐河	19837
▁征兆	19838
▁拍手	19839
▁朗动	19840
▁样品	19841
▁浅色	19842
▁消磨	19843
▁球馆	19844
▁生姜	19845
▁落寞	19846
▁藏头	19847
▁雇佣	19848
▁青天	19849
▁孙燕姿	19850
▁流星雨	19851
▁lh	19852
▁乔木	19853
▁兰芝	19854
▁共用	19855
▁勾兑	19856
▁皮裤	19857
▁迷倒	19858
▁香气	19859
ast	19860
▁南风	19861
▁博文	19862
▁开支	19863
▁总的	19864
▁拨号	19865
▁突变	19866
▁轮椅	19867
▁逼婚	19868
▁别傻了	19869
▁张继科	19870
▁獒	19871
▁乱叫	19872
▁倒立	19873
▁全局	19874
▁受理	19875
▁审查	19876
▁泥土	19877
▁节制	19878
▁贩卖	19879
▁闷热	19880
▁隐患	19881
▁领子	19882
▁光年	19883
▁外线	19884
▁病理	19885
ahia	19886
unning	19887
▁剧烈	19888
▁半仙	19889
▁同心	19890
▁寿光	19891
▁恰当	19892
▁才够	19893
▁海宁	19894
▁渤海	19895
▁破灭	19896
▁磁性	19897
▁鄂州	19898
▁鼻头	19899
▁142	19900
▁zfb	19901
▁工信部	19902
▁摩天轮	19903
▁自来也	19904
▁寇	19905
少年	19906
ock	19907
▁rs	19908
▁修补	19909
▁偷走	19910
▁卡带	19911
▁反向	19912
▁引流	19913
▁拆散	19914
▁新安	19915
▁桌游	19916
▁法系	19917
▁直奔	19918
▁结交	19919
▁货运	19920
▁跑掉	19921
▁路面	19922
▁车程	19923
▁退化	19924
▁355	19925
▁hiahia	19926
▁樟	19927
▁右拐	19928
▁妖神	19929
▁婶婶	19930
▁安大	19931
▁揭秘	19932
▁无花	19933
▁狼王	19934
▁立交	19935
▁车标	19936
所欲言	19937
▁216	19938
▁458	19939
▁wei	19940
▁畅所欲言	19941
▁一叶	19942
▁上层	19943
▁双双	19944
▁塑胶	19945
▁怕疼	19946
▁捣蛋	19947
▁插排	19948
▁文本	19949
▁断开	19950
▁碳酸	19951
▁萧峰	19952
▁赤司	19953
▁威尼斯	19954
▁特斯拉	19955
▁竭	19956
▁逞	19957
▁kb	19958
▁伤亡	19959
▁南安	19960
▁夏娜	19961
▁座驾	19962
▁搓澡	19963
▁散粉	19964
▁明亮	19965
▁米诺	19966
▁荡漾	19967
▁血战	19968
▁贪吃	19969
不通	19970
克尔	19971
宗罪	19972
▁下届	19973
▁写诗	19974
▁大姑	19975
▁小炮	19976
▁岭南	19977
▁涂抹	19978
▁热狗	19979
▁画像	19980
▁赵敏	19981
▁路途	19982
▁265	19983
▁莫拉塔	19984
▁pptv	19985
▁哉	19986
▁GE	19987
▁NE	19988
▁两轮	19989
▁候选	19990
▁厚重	19991
▁原声	19992
▁唯品	19993
▁寻龙	19994
▁才女	19995
▁热线	19996
▁眼眶	19997
▁立方	19998
▁羊驼	19999
▁观摩	20000
▁里昂	20001
▁长生不	20002
▁总的来说	20003
▁钧	20004
▁Re	20005
▁兼得	20006
▁澎湃	20007
▁秋叶	20008
▁约战	20009
▁观战	20010
▁运作	20011
▁醒悟	20012
bili	20013
▁喜当爹	20014
▁12306	20015
▁莺	20016
▁交税	20017
▁召回	20018
▁大雄	20019
▁娇小	20020
▁扁桃	20021
▁拜谢	20022
▁欢快	20023
▁煎蛋	20024
▁瓦伦	20025
▁调低	20026
▁铁人	20027
▁风行	20028
▁228	20029
▁LPL	20030
▁bang	20031
▁爻	20032
▁蛟	20033
▁雉	20034
▁变心	20035
▁大局	20036
▁小岛	20037
▁尿酸	20038
▁应有	20039
▁白浅	20040
▁等价	20041
▁算账	20042
▁结冰	20043
▁花香	20044
▁邮电	20045
尽有	20046
▁上司	20047
▁亮相	20048
▁代收	20049
▁北环	20050
▁杰作	20051
▁架空	20052
▁皮实	20053
▁石斛	20054
▁纸片	20055
▁过桥	20056
▁金榜	20057
▁ace	20058
▁应有尽有	20059
xi	20060
▁三里	20061
▁地带	20062
▁太迟	20063
▁指尖	20064
▁梨子	20065
▁洒家	20066
▁爆款	20067
▁爱意	20068
▁真烦	20069
▁衣裳	20070
▁诸暨	20071
▁首钢	20072
▁黄猿	20073
▁希特勒	20074
▁7200	20075
▁缇	20076
▁丰满	20077
▁哈弗	20078
▁开刀	20079
▁橙卡	20080
▁站住	20081
▁罗志	20082
▁莱州	20083
▁ATM	20084
▁荷兰猪	20085
▁厚颜	20086
▁喵呜	20087
▁彩云	20088
▁打滚	20089
▁文山	20090
▁文昌	20091
▁检修	20092
▁毒品	20093
▁粪坑	20094
▁舌吻	20095
▁遮阳	20096
▁驱魔	20097
▁厚颜无耻	20098
▁kt	20099
▁分流	20100
▁吾辈	20101
▁尽早	20102
▁抠图	20103
▁痴呆	20104
▁看家	20105
▁知否	20106
▁装置	20107
▁MAX	20108
▁伢	20109
▁jc	20110
▁上锁	20111
▁作假	20112
▁公用	20113
▁凤梨	20114
▁呼伦	20115
▁地沟	20116
▁妮子	20117
▁打杂	20118
▁搭伴	20119
▁正定	20120
▁红心	20121
▁美分	20122
▁问路	20123
▁雷姆	20124
▁魁拔	20125
心无愧	20126
▁snh	20127
▁圆形	20128
▁大修	20129
▁抽楼	20130
▁振华	20131
▁皇宫	20132
▁考古	20133
▁肥胖	20134
▁荆棘	20135
▁谈笑	20136
▁超生	20137
▁3900	20138
▁face	20139
▁卯	20140
▁初版	20141
▁弹道	20142
▁无缝	20143
▁犯病	20144
▁男饭	20145
▁站牌	20146
▁DDR	20147
▁电饭锅	20148
▁一心一意	20149
▁砰	20150
利浦	20151
▁伤痛	20152
▁搅拌	20153
▁极少	20154
▁诚恳	20155
▁起火	20156
▁big	20157
杂症	20158
▁凭证	20159
▁双语	20160
▁召集	20161
▁和风	20162
▁夺宝	20163
▁妖妖	20164
▁折合	20165
▁焦灼	20166
▁矮人	20167
▁航拍	20168
▁陈坤	20169
▁疑难杂症	20170
▁五虎	20171
▁加仓	20172
▁十香	20173
▁卡塔	20174
▁星海	20175
▁条款	20176
▁殴打	20177
▁灰原	20178
▁疏远	20179
▁胃痛	20180
▁花茶	20181
▁远景	20182
▁295	20183
▁藏头诗	20184
▁恳	20185
彼此	20186
▁中队	20187
▁吃菜	20188
▁张常	20189
▁换算	20190
▁无机	20191
▁焊工	20192
▁红警	20193
▁苛刻	20194
▁血色	20195
▁银元	20196
▁飞刀	20197
▁问心无愧	20198
天涯	20199
▁乙女	20200
▁南城	20201
▁历代	20202
▁座机	20203
▁流汗	20204
▁消气	20205
▁相知	20206
▁闹翻	20207
▁布鲁克	20208
▁出游	20209
▁失物	20210
▁套机	20211
▁抢钱	20212
▁拖地	20213
▁拼接	20214
▁独白	20215
▁碰撞	20216
▁积水	20217
▁超凡	20218
▁阻力	20219
不及防	20220
AR	20221
▁瞩	20222
莫及	20223
▁冷天	20224
▁刻画	20225
▁南华	20226
▁古力	20227
▁墓碑	20228
▁字眼	20229
▁德军	20230
▁拔罐	20231
▁择校	20232
▁晨晨	20233
▁欢呼	20234
▁测速	20235
▁淡妆	20236
▁爬坡	20237
▁筹备	20238
▁素食	20239
▁近年	20240
不顾身	20241
▁JJC	20242
▁席尔瓦	20243
▁奋不顾身	20244
▁猝不及防	20245
92	20246
▁憾	20247
▁QB	20248
▁一往	20249
▁武侯	20250
▁野草	20251
▁黑道	20252
▁出战	20253
▁功德	20254
▁古玩	20255
▁广厦	20256
▁晨光	20257
▁洞洞	20258
▁甘愿	20259
▁电焊	20260
▁白石	20261
▁相近	20262
▁范佩	20263
▁补货	20264
▁邓州	20265
▁重组	20266
▁门禁	20267
erry	20268
▁飞利浦	20269
▁2499	20270
▁show	20271
▁擒	20272
▁DS	20273
▁军师	20274
▁双向	20275
▁炮塔	20276
▁牛市	20277
▁苗苗	20278
▁赤练	20279
▁跑题	20280
▁集市	20281
为人知	20282
▁306	20283
▁Max	20284
▁zuk	20285
▁张常宁	20286
▁无花果	20287
▁oo	20288
▁典韦	20289
▁再卖	20290
▁凯里	20291
▁华农	20292
▁扫荡	20293
▁林业	20294
▁球票	20295
▁破防	20296
▁路段	20297
▁跳远	20298
▁眸	20299
▁茵	20300
▁釜	20301
▁仙境	20302
▁儒家	20303
▁分支	20304
▁回购	20305
▁增速	20306
▁大秦	20307
▁必需	20308
▁死尸	20309
▁牛腩	20310
▁目睹	20311
▁莫莫	20312
▁赛道	20313
▁马蒂	20314
▁haha	20315
赖脸	20316
asy	20317
▁gu	20318
▁举动	20319
▁助教	20320
▁林肯	20321
▁沸腾	20322
▁王座	20323
▁相隔	20324
▁西点	20325
▁范佩西	20326
▁来者不拒	20327
耐劳	20328
ann	20329
▁动情	20330
▁夜行	20331
▁川菜	20332
▁满贯	20333
▁驿站	20334
▁死皮赖脸	20335
▁夷	20336
▁滩	20337
▁为此	20338
▁内科	20339
▁嘿咻	20340
▁建房	20341
▁扰民	20342
▁春雨	20343
▁景气	20344
▁森海	20345
▁爬墙	20346
▁磕头	20347
▁纪元	20348
▁血脉	20349
▁追尾	20350
▁铁马	20351
▁锋线	20352
▁高明	20353
▁sky	20354
不由	20355
了然	20356
朝伟	20357
谢地	20358
▁下关	20359
▁交行	20360
▁停用	20361
▁千人	20362
▁大鸟	20363
▁延伸	20364
▁朱元	20365
▁来往	20366
▁横行	20367
▁火火	20368
▁肇事	20369
▁通灵	20370
▁一目了然	20371
▁呼伦贝尔	20372
▁谢天谢地	20373
▁ty	20374
▁乌木	20375
▁劳模	20376
▁处境	20377
▁忧愁	20378
▁爱理	20379
▁纹理	20380
▁赛文	20381
▁转出	20382
▁预料	20383
▁red	20384
▁吠	20385
ard	20386
▁喜气	20387
▁大梦	20388
▁女宝	20389
▁屠苏	20390
▁沾边	20391
▁着地	20392
▁胃镜	20393
▁解忧	20394
▁阴雨	20395
▁鬼屋	20396
▁eve	20397
▁吃苦耐劳	20398
▁玛莎拉蒂	20399
▁FF	20400
▁一帆	20401
▁写实	20402
▁变质	20403
▁后辈	20404
▁打歌	20405
▁散户	20406
▁根部	20407
▁破损	20408
▁私企	20409
▁税务	20410
▁笔尖	20411
▁脸小	20412
▁草率	20413
▁街机	20414
▁麦片	20415
▁616	20416
▁观后感	20417
zz	20418
▁du	20419
▁仙界	20420
▁射速	20421
▁开来	20422
▁扶摇	20423
▁换挡	20424
▁推拿	20425
▁改签	20426
▁梦露	20427
▁特岗	20428
▁疯癫	20429
▁白莲	20430
▁瞩目	20431
▁藏宝	20432
▁达达	20433
▁阿尔法	20434
▁line	20435
▁劳斯莱斯	20436
▁翎	20437
ome	20438
▁EP	20439
▁升华	20440
▁卡洛	20441
▁柯哀	20442
▁标杆	20443
▁气血	20444
▁烩面	20445
▁离子	20446
▁绰号	20447
▁飞碟	20448
一筹	20449
▁养护	20450
▁双簧	20451
▁招领	20452
▁白化	20453
▁皮毛	20454
▁色盲	20455
▁花枝	20456
▁跳票	20457
▁适中	20458
▁梁朝伟	20459
之地	20460
▁南坪	20461
▁塞维	20462
▁夜色	20463
▁实务	20464
▁掀起	20465
▁提子	20466
▁擂台	20467
▁放空	20468
▁朔州	20469
▁火枪	20470
▁联保	20471
▁堤	20472
▁吴国	20473
▁广汉	20474
▁开缸	20475
▁敬佩	20476
▁讲到	20477
▁阿尼	20478
▁位于	20479
▁光泽	20480
▁双脚	20481
▁填表	20482
▁小叔	20483
▁小玉	20484
▁解药	20485
▁课件	20486
▁长命	20487
▁长征	20488
▁阶梯	20489
▁pdd	20490
▁拉塞尔	20491
▁PPTV	20492
IS	20493
▁浊	20494
▁JM	20495
▁怕黑	20496
▁挥霍	20497
▁绝症	20498
▁解冻	20499
▁诺言	20500
▁bey	20501
▁罗志祥	20502
▁乌索	20503
▁别抢	20504
▁卧龙	20505
▁叫兽	20506
▁损友	20507
▁未免	20508
▁板鸭	20509
▁盖帽	20510
▁盗用	20511
▁省市	20512
▁稀释	20513
▁贼船	20514
▁酒鬼	20515
▁间断	20516
▁Lumia	20517
▁蛰	20518
手巧	20519
纳瑞	20520
▁iu	20521
▁下盘	20522
▁书院	20523
▁加人	20524
▁春熙	20525
▁梦寐	20526
▁爆胎	20527
▁狍子	20528
▁皮革	20529
▁闵行	20530
▁附院	20531
▁杰拉德	20532
▁心灵手巧	20533
铭心	20534
▁hm	20535
▁丁霞	20536
▁云霄	20537
▁刘烨	20538
▁发胖	20539
▁吱吱	20540
▁孝子	20541
▁抬举	20542
▁晃悠	20543
▁晶体	20544
▁温网	20545
▁申鑫	20546
▁膀子	20547
▁表态	20548
▁解禁	20549
▁psp	20550
▁划不来	20551
▁观音桥	20552
力士	20553
▁Ti	20554
▁小平	20555
▁思绪	20556
▁推翻	20557
▁放眼	20558
▁清闲	20559
▁真姬	20560
▁超女	20561
▁跨度	20562
▁追寻	20563
▁鸭梨	20564
▁幌	20565
▁谓	20566
▁釉	20567
由自	20568
▁候车	20569
▁刺痛	20570
▁弧度	20571
▁忌讳	20572
▁总量	20573
▁择偶	20574
▁敌对	20575
▁红海	20576
▁老刘	20577
▁China	20578
事事	20579
▁oc	20580
▁名都	20581
▁墙纸	20582
▁巫女	20583
▁海星	20584
▁相忘	20585
▁货架	20586
▁退票	20587
▁利拉德	20588
▁5600	20589
▁刻骨铭心	20590
▁nonono	20591
▁隼	20592
不热	20593
▁TD	20594
▁不孕	20595
▁冠王	20596
▁带子	20597
▁支书	20598
▁救世	20599
▁桃核	20600
▁母女	20601
▁污点	20602
▁深蓝	20603
▁绩效	20604
▁花旦	20605
▁落单	20606
▁虚心	20607
▁跟单	20608
▁必胜客	20609
▁雪纳瑞	20610
▁eason	20611
莱美	20612
达拉	20613
▁存稿	20614
▁寒心	20615
▁混凝	20616
▁王林	20617
▁白药	20618
▁芭莎	20619
▁附身	20620
▁龌龊	20621
丽君	20622
其实	20623
▁壁虎	20624
▁指令	20625
▁曲奇	20626
▁枢纽	20627
▁欲罢	20628
▁比肩	20629
▁毛绒	20630
▁禁播	20631
▁米尔	20632
▁阳春	20633
▁鹿角	20634
▁黄泉	20635
▁无所事事	20636
▁欲罢不能	20637
见智	20638
▁叛变	20639
▁可嘉	20640
▁啃老	20641
▁坦然	20642
▁安倍	20643
▁废铁	20644
▁弹夹	20645
▁志气	20646
▁未闻	20647
▁标明	20648
▁澳网	20649
▁翘课	20650
▁膏药	20651
▁螺纹	20652
▁解闷	20653
▁雷凌	20654
▁405	20655
▁班德尔	20656
yu	20657
▁交替	20658
▁亲嘴	20659
▁卫士	20660
▁却说	20661
▁发飙	20662
▁堆积	20663
▁大嫂	20664
▁烧鸡	20665
▁献祭	20666
▁瓷器	20667
▁畏惧	20668
▁芷若	20669
▁诗意	20670
▁限行	20671
▁风月	20672
▁乌索普	20673
▁1350	20674
莱雅	20675
ark	20676
▁DT	20677
▁两手	20678
▁半程	20679
▁怡情	20680
▁次品	20681
▁海岛	20682
▁眼福	20683
▁节拍	20684
▁食宿	20685
▁574	20686
▁aoe	20687
▁吴江	20688
▁哈根	20689
▁奥比	20690
▁尔康	20691
▁尖子	20692
▁柔弱	20693
▁梳子	20694
▁死党	20695
▁然然	20696
▁真我	20697
▁花火	20698
▁评判	20699
▁调动	20700
▁贤妻	20701
▁逃过	20702
▁352	20703
▁886	20704
▁青少年	20705
▁4400	20706
▁泻	20707
▁公然	20708
▁占地	20709
▁取舍	20710
▁巡洋	20711
▁微山	20712
▁抗衡	20713
▁排挤	20714
▁桥梁	20715
▁泰森	20716
▁肥肠	20717
▁莒县	20718
▁观澜	20719
▁飞鸟	20720
▁饭饭	20721
▁990	20722
▁混凝土	20723
▁唔系	20724
▁待到	20725
▁恒星	20726
▁招行	20727
▁红虫	20728
▁胎压	20729
▁寥	20730
▁升降	20731
▁娇羞	20732
▁快眼	20733
▁李娜	20734
▁欧派	20735
▁止痛	20736
▁片场	20737
▁花销	20738
▁苦命	20739
▁荒凉	20740
▁335	20741
▁740	20742
▁棘	20743
撇子	20744
▁伤悲	20745
▁依次	20746
▁制品	20747
▁去痘	20748
▁同归	20749
▁振动	20750
▁独处	20751
▁稀少	20752
▁老猫	20753
▁荷尔	20754
▁解密	20755
▁首席	20756
▁高攀	20757
▁455	20758
dx	20759
▁箍	20760
end	20761
▁NM	20762
▁多拉	20763
▁挖槽	20764
▁搓衣	20765
▁波比	20766
▁秀晶	20767
▁五花肉	20768
▁左撇子	20769
▁hifi	20770
GA	20771
▁华盛	20772
▁墨尔	20773
▁大港	20774
▁对骂	20775
▁弯腰	20776
▁微小	20777
▁比克	20778
▁老庄	20779
▁课后	20780
▁连环	20781
ster	20782
▁搓衣板	20783
89	20784
▁剔	20785
▁wi	20786
▁临淄	20787
▁哈皮	20788
▁喘气	20789
▁安保	20790
▁巴拉	20791
▁师尊	20792
▁波浪	20793
▁白血	20794
▁真身	20795
▁节点	20796
▁黄字	20797
ex	20798
▁sg	20799
▁刮刮	20800
▁同门	20801
▁巩义	20802
▁布袋	20803
▁弱者	20804
▁挫折	20805
▁毅腾	20806
▁痴心	20807
▁相恋	20808
▁缓冲	20809
▁茶轴	20810
▁葬礼	20811
▁蜜月	20812
▁跳着	20813
▁饥荒	20814
▁143	20815
ES	20816
▁万水	20817
▁丰盛	20818
▁凶猛	20819
▁吊兰	20820
▁惨淡	20821
▁无毒	20822
▁每逢	20823
▁短剑	20824
▁硬化	20825
▁老将	20826
▁追忆	20827
▁雪纺	20828
▁马塔	20829
▁黄黄	20830
▁黑岩	20831
勒斯	20832
▁原封	20833
▁姓刘	20834
▁扬声	20835
▁抒情	20836
▁聊友	20837
▁贪污	20838
▁车顶	20839
▁醉人	20840
▁4590	20841
dm	20842
imi	20843
▁假象	20844
▁券商	20845
▁插图	20846
▁整数	20847
▁晒干	20848
▁果园	20849
▁水流	20850
▁沫沫	20851
▁燕郊	20852
▁犹太	20853
▁起球	20854
▁转动	20855
▁陪练	20856
▁验血	20857
▁Hey	20858
▁夏令营	20859
▁催泪	20860
▁光学	20861
▁公选	20862
▁实装	20863
▁心计	20864
▁思思	20865
▁斐讯	20866
▁电摩	20867
▁黑帮	20868
▁3.	20869
▁南疆	20870
▁威龙	20871
▁开卡	20872
▁深意	20873
▁盲僧	20874
▁荆轲	20875
▁车手	20876
▁重叠	20877
▁顶部	20878
▁比达尔	20879
▁鸠	20880
▁两地	20881
▁出土	20882
▁天宇	20883
▁尚未	20884
▁打头	20885
▁拉直	20886
▁枪神	20887
▁泸沽	20888
▁海蓝	20889
▁海门	20890
▁祖坟	20891
▁绝品	20892
▁迪卡	20893
▁汀	20894
▁烬	20895
念念	20896
▁ov	20897
▁埋怨	20898
▁夸大	20899
▁如若	20900
▁帝君	20901
▁校历	20902
▁番薯	20903
▁起跑	20904
▁309	20905
▁1991	20906
▁St	20907
▁tk	20908
▁冶金	20909
▁前门	20910
▁听讲	20911
▁将至	20912
▁撕心	20913
▁贝塔	20914
▁越秀	20915
▁钳子	20916
▁高雅	20917
▁他来了	20918
▁神仙水	20919
▁榔	20920
▁cj	20921
▁匆忙	20922
▁安乐	20923
▁小数	20924
▁战果	20925
▁炸酱	20926
▁烟头	20927
▁瓦斯	20928
▁药材	20929
▁虎门	20930
▁249	20931
▁775	20932
▁墨尔本	20933
▁6800	20934
公英	20935
▁BC	20936
▁伊莉	20937
▁尺子	20938
▁征战	20939
▁念破	20940
▁慌张	20941
▁新泰	20942
▁残留	20943
▁洗牙	20944
▁苦难	20945
▁蒙阴	20946
伯伦	20947
▁呱呱	20948
▁小儿	20949
▁应征	20950
▁损耗	20951
▁渔具	20952
▁电驴	20953
▁百人	20954
▁试炼	20955
▁赫拉	20956
▁齐天	20957
▁白血病	20958
▁翩	20959
衣足	20960
▁Pl	20961
▁cw	20962
▁变坏	20963
▁大床	20964
▁奇幻	20965
▁家产	20966
▁废人	20967
▁战警	20968
▁术语	20969
▁查分	20970
▁簪子	20971
▁腰包	20972
▁行善	20973
▁诚哥	20974
▁金莲	20975
▁鱼鳞	20976
衣足食	20977
▁扁桃体	20978
▁丰衣足食	20979
▁bilibili	20980
fs	20981
石化	20982
▁一窍	20983
▁互通	20984
▁初雪	20985
▁博大	20986
▁武魂	20987
▁田宫	20988
▁辅修	20989
▁青鸟	20990
▁蒲公英	20991
▁一窍不通	20992
▁淼	20993
▁四环	20994
▁打来	20995
▁春光	20996
▁黄忠	20997
▁彼此彼此	20998
▁哮	20999
有人	21000
▁中投	21001
▁信徒	21002
▁全城	21003
▁午后	21004
▁圆圈	21005
▁孙权	21006
▁平心	21007
▁洛洛	21008
▁祥云	21009
▁伊斯兰	21010
▁珀	21011
▁下滑	21012
▁仙贝	21013
▁出票	21014
▁淡然	21015
▁监测	21016
▁直观	21017
▁石桥	21018
▁筛选	21019
▁糜烂	21020
▁贵妇	21021
▁锋利	21022
▁阳炎	21023
▁扬声器	21024
▁电热毯	21025
▁坷	21026
玲珑	21027
男轻	21028
▁二模	21029
▁儿歌	21030
▁再现	21031
▁对门	21032
▁寻常	21033
▁小北	21034
▁日租	21035
▁煤炭	21036
▁照亮	21037
▁矿工	21038
▁纪检	21039
▁纳尔	21040
▁艾薇	21041
▁飞来	21042
男轻女	21043
▁重男轻女	21044
ze	21045
▁菁	21046
▁VN	21047
▁专职	21048
▁掺和	21049
▁松原	21050
▁根源	21051
▁武夷	21052
▁水鬼	21053
▁狮王	21054
▁见闻	21055
▁谢顶	21056
▁购车	21057
▁通辽	21058
▁陆龟	21059
▁李世民	21060
▁李敏镐	21061
鲁伊	21062
▁Sh	21063
▁万古	21064
▁古琴	21065
▁构成	21066
▁耐烦	21067
81	21068
EN	21069
噩噩	21070
▁凯迪	21071
▁剧院	21072
▁四爷	21073
▁四路	21074
▁对半	21075
▁工钱	21076
▁晒伤	21077
▁更年	21078
▁永乐	21079
▁炫龙	21080
▁甜瓜	21081
▁纳兹	21082
▁龙眼	21083
▁870	21084
▁心心念念	21085
49	21086
▁上水	21087
▁再婚	21088
▁冰封	21089
▁君主	21090
▁寄信	21091
▁岸本	21092
▁捷信	21093
▁权益	21094
▁米粒	21095
▁萌化	21096
▁金堂	21097
▁魏国	21098
▁述	21099
甘娜	21100
▁BF	21101
▁发福	21102
▁奋战	21103
▁奴才	21104
▁小脸	21105
▁微店	21106
▁欧米	21107
▁法庭	21108
▁疗伤	21109
▁秋水	21110
▁续写	21111
▁自作	21112
▁马蹄	21113
▁亲家	21114
▁凯越	21115
▁原罪	21116
▁总和	21117
▁支点	21118
▁毛坯	21119
▁美网	21120
▁老妖	21121
▁薄膜	21122
▁转机	21123
▁那不	21124
▁高阳	21125
▁历练	21126
▁同仁	21127
▁境内	21128
▁录入	21129
▁成像	21130
▁拥军	21131
▁换毛	21132
▁构造	21133
▁沉沦	21134
▁猿粪	21135
▁被害	21136
▁进修	21137
▁防备	21138
▁哈密瓜	21139
▁历时	21140
▁展览	21141
▁水产	21142
▁游记	21143
▁烟瘾	21144
▁皮包	21145
▁粗心	21146
▁练琴	21147
▁肘子	21148
▁铁杆	21149
▁DNA	21150
▁SC	21151
▁小艾	21152
▁房顶	21153
▁旧爱	21154
▁潮牌	21155
▁皮克	21156
▁贵子	21157
▁起亚	21158
▁逗号	21159
▁震荡	21160
▁饮品	21161
▁分叉	21162
▁岂能	21163
▁归还	21164
▁指环	21165
▁海阔	21166
▁特里	21167
▁走廊	21168
▁锦衣	21169
▁首领	21170
▁鸡尾	21171
▁910	21172
AD	21173
▁两局	21174
▁中餐	21175
▁五子	21176
▁代数	21177
▁卡斯	21178
▁吆喝	21179
▁惨烈	21180
▁所长	21181
▁新兴	21182
▁新密	21183
▁梦回	21184
▁皇室	21185
▁瞬移	21186
▁短片	21187
▁童心	21188
▁端口	21189
▁羊汤	21190
▁衰弱	21191
▁285	21192
振宇	21193
▁WP	21194
▁刑事	21195
▁博瑞	21196
▁四射	21197
▁幼虫	21198
▁底板	21199
▁挖机	21200
▁整夜	21201
▁李连	21202
▁海参	21203
▁渣浪	21204
▁炸鱼	21205
▁痛心	21206
▁胶州	21207
▁蓄力	21208
▁蓝月	21209
▁690	21210
▁主楼	21211
▁周村	21212
▁尔雅	21213
▁干锅	21214
▁灵山	21215
▁病房	21216
▁直行	21217
▁碟片	21218
▁贵重	21219
▁跑位	21220
▁车载	21221
▁辣妹	21222
▁防尘	21223
▁鞠躬	21224
▁ce	21225
▁取景	21226
▁嘻哈	21227
▁嫩草	21228
▁旗子	21229
▁火速	21230
▁热力	21231
▁爵迹	21232
▁王大	21233
▁老式	21234
▁获胜	21235
▁落水	21236
▁路易	21237
▁透漏	21238
▁除毛	21239
▁风冷	21240
▁鱼肉	21241
▁泸沽湖	21242
▁help	21243
AO	21244
▁IC	21245
▁仲裁	21246
▁华擎	21247
▁反话	21248
▁开赛	21249
▁火球	21250
▁马扎	21251
▁黑大	21252
▁RPG	21253
▁cut	21254
ghting	21255
▁乐事	21256
▁乱发	21257
▁偷笑	21258
▁升温	21259
▁变换	21260
▁嘉定	21261
▁巴哥	21262
▁提倡	21263
▁火辣	21264
▁瑞纳	21265
▁白猫	21266
▁眼界	21267
▁碎花	21268
▁间歇	21269
▁饭馆	21270
▁中石化	21271
英雄	21272
▁ae	21273
▁云飞	21274
▁各科	21275
▁捂住	21276
▁捅死	21277
▁李宗	21278
▁欠债	21279
▁法官	21280
▁涪陵	21281
▁秋千	21282
▁谎话	21283
▁遵化	21284
▁镇压	21285
▁饿狼	21286
▁逆水寒	21287
ory	21288
▁tn	21289
▁下凡	21290
▁先森	21291
▁天域	21292
▁巨剑	21293
▁惶恐	21294
▁拳皇	21295
▁散货	21296
▁正剧	21297
▁牛顿	21298
▁甜言	21299
▁磁盘	21300
▁锂电	21301
▁鸟笼	21302
▁仙人球	21303
▁大理石	21304
▁维多利亚	21305
od	21306
▁渚	21307
▁肃	21308
▁临清	21309
▁亮剑	21310
▁军嫂	21311
▁加减	21312
▁受宠	21313
▁墙壁	21314
▁手稿	21315
▁林丹	21316
▁皮衣	21317
▁米拉	21318
▁美德	21319
▁迪斯	21320
▁朱元璋	21321
▁beyond	21322
中矩	21323
▁DL	21324
▁专员	21325
▁中规	21326
▁佣兵	21327
▁入骨	21328
▁共存	21329
▁凉山	21330
▁太虚	21331
▁毛利	21332
▁河蟹	21333
▁浑浑	21334
▁牛郎	21335
▁登山	21336
▁脱水	21337
▁芭蕾	21338
▁记事	21339
▁贤者	21340
▁音速	21341
▁中规中矩	21342
▁俘	21343
▁泌	21344
▁DH	21345
▁PM	21346
▁XT	21347
▁中饭	21348
▁偷跑	21349
▁壮壮	21350
▁异乡	21351
▁晚年	21352
[...]
